#version: 0.2
Ġ t
h e
Ġ a
i n
e r
o n
Ġt he
r e
Ġ o
a n
a t
e n
Ġ s
e d
i s
o r
e s
a l
i t
Ġ c
Ġ w
Ġo f
a r
Ġa n
Ġ in
Ġ b
Ġ f
i c
Ġ p
Ġan d
in g
i on
a s
r o
Ġ m
Ġt o
l e
Ġ d
Ġ A
Ġ h
o u
en t
o m
s t
i l
Ġ S
Ġ C
Ġ T
Ġ re
e l
c t
o l
Ġ l
Ġ B
a m
Ġ e
Ġ n
Ġt h
Ġ (
u r
a d
u s
at ion
e t
l y
c h
i v
Ġ M
i d
u n
c e
i m
o t
i g
Ġ is
u t
Ġf or
i r
er s
Ġa s
Ġ g
Ġ I
Ġb e
Ġ on
Ġ P
Ġw as
is t
r a
u l
it h
o w
ĠT he
t er
Ġ H
e m
a y
he r
Ġs t
Ġw ith
t h
Ġa l
Ġ R
Ġb y
Ġc on
o s
v er
Ġ D
Ġ F
an d
u m
Ġ G
Ġ L
Ġ E
Ġw h
Ġth at
o p
â Ģ
Ġ W
ro m
a g
' s
r i
es t
o d
Ġ N
a c
a v
Ġp ro
Ġd e
Ġc om
i an
Ġa t
âĢ ĵ
Ġ v
i f
Ġo r
a in
a b
Ġ "
re s
Ġ it
i es
Ġf rom
it y
Ġ J
ou n
Ġa re
p e
Ġs u
at e
o c
u d
Ġ he
or t
Ġe x
i a
Ġs e
q u
Ġ O
ar t
ic h
ĠI n
al l
an t
l d
il l
es s
Ġ r
o re
m ent
ig h
b er
i al
ar d
e w
iv e
s e
ic al
Ġ U
a p
at ed
Ġh is
Ġ un
is h
a k
o g
i p
Ġ K
er e
Ġc h
ar y
Ġp l
u p
en d
m er
ct ion
o st
Ġwh ich
g h
g e
in e
as t
u re
Ġ us
t her
T he
o v
Ġw ere
Ġ âĢĵ
ou r
el l
s o
c l
on g
or d
Ġ le
d u
ĠC h
p p
am e
p t
Ġcom p
r it
ĠS t
av e
r an
u b
) ,
Ġn ot
e ar
igh t
ou s
i re
p er
Ġa r
Ġ Ġ
Ġ k
c c
it ion
e ct
u st
Ġal so
f f
i z
r y
om e
Ġs h
d er
ul t
ic an
k s
Ġ Ċ
ig n
Ġcon t
ation s
u e
Ġ V
as s
f er
Ġin t
id e
i b
Ġh ave
i e
Ġh as
Ġ y
en ce
Ġh ad
ter n
ag e
Ġa d
p l
a re
p h
Ġc l
ir st
c es
or y
ĠU n
m an
Ġit s
Ġthe ir
an g
he n
oun t
ĠA l
Ġa b
al ly
ĠA n
Ġre s
at er
ac k
Ġp art
a ct
Ġb ut
Ġw or
re e
at es
c on
r u
ĠT h
Ġf irst
) .
ou ld
ion s
cl ud
p ort
Ġo ther
ow n
Ġal l
en s
I n
f ter
un d
r ic
he d
im e
re n
o ver
Ġp er
Ġd is
l and
Ġm an
a ch
ou t
k e
w o
Ġt e
el y
Ġ im
a ce
ĠA mer
er v
Ġth is
Ġon e
ol l
t s
ation al
Ġ en
Ġ ro
t e
oun d
i le
Ġbe en
Ġbe c
ic e
o k
Ġin clud
Ġc an
e p
res s
ab le
ĠA r
u gh
ĠH e
Ġwh o
c ed
it ed
Ġa g
Ġcom m
v el
ĠI t
Ġpl ay
or s
or m
ent s
r on
ur ing
w e
Ġs c
Ġ j
Ġp re
ub l
as e
Ġy ear
at h
Ġd es
ĠAmer ican
it e
l es
Ġt wo
a w
am p
ad e
ol og
n e
Ġs y
Ġn e
ĠE n
ou gh
Ġre c
Ġs p
i ed
os e
Ġc ent
Ġsu ch
ic s
an ce
Ġs pe
Ġfor m
Ġus ed
Ġe v
is m
ur y
Ġthe y
Ġcon s
o b
Ġm ore
o in
Ġint o
Ġm ost
ol d
al s
t ed
ar k
Â ł
Ġe le
Ġo ver
Ġa fter
Ġ Y
w n
ul ar
as ed
on e
an s
Ġg ro
f t
Ġpro du
on s
ing s
Ġb et
Ġre l
ri b
a us
iv ers
re at
ĠS e
is s
o od
en er
Ġat t
i ous
Ġo ut
Ġre g
Ġm e
o y
ran s
he re
or n
ro ugh
a il
Ġ up
ot h
Ġth an
Ġa ct
r al
u g
ĠA s
il d
Ġn ew
Ġp ol
ur n
we en
ĠR e
g an
r am
Ġa pp
Ġt ime
Ġa c
Ġp e
Ġn um
Ġk n
g l
Ġa m
a h
Ġ ra
Ġsu b
Ġp r
in d
Ġon ly
Ġun der
re d
Ġs ome
Ġof f
w ard
Ġw ould
op le
at ive
ar s
st em
ist s
ic t
Ġbet ween
i o
ĠC om
if ic
u al
il m
ar g
Ġ her
Ġa cc
Ġw hen
t en
Ġp h
it ies
c k
Ġe ar
is hed
on d
in ce
er m
y s
at t
ĠTh is
ou th
l i
Ġin f
o h
he s
r ad
c re
over n
c ial
ĠD e
Ġm od
Ġin ter
em ber
Ġc ol
Ġs o
Ġas s
Ġw e
i et
t on
ĠN ew
h ip
Ġ qu
er n
Ċ Ċ
Ġf l
v e
Ġc ount
ĠL e
Ġde f
Ġin d
o ol
Ġp op
Ġthe re
Ġh im
id ent
e ver
Ġt rans
" .
Ġthe m
oll ow
at ing
Ġp ubl
i x
il y
Ġd uring
ar ch
vel op
Ġm ay
ak e
i um
Ġb o
in es
ut ion
Ġwor k
u ro
en ces
Ġyear s
ĠUn ited
is ion
Ġsy stem
j ect
in al
am es
Ġre m
Ġman y
Ġth rough
ow er
Ġp res
Ġt ra
in s
Ġb l
a j
er man
Ġc all
ay s
Ġf ound
c ent
Ġc o
" ,
Ġw here
Ġs erv
con d
Ġab out
or th
ĠB rit
Ġp os
t ain
Ġ est
ct ed
Ġd if
Ġin v
b all
Ġs et
Ġm et
Ġus e
Ġf ilm
i el
u c
Ġkn own
Ġag ain
er ed
ĠA t
Ġsu pp
Ġl oc
u res
em b
ic k
if e
Ġpro v
Ġe m
al e
ĠC on
Ġg ener
f ore
Ġin st
ro und
Ġd o
Ġde velop
i ent
Ġv ar
Ġa p
Ġf ollow
l l
ow ever
ment s
Ġb u
ver y
Ġo b
Ġd ist
Ġpe ople
or k
ce pt
Ġ end
Ġw rit
a z
gl ish
c y
e x
Ġst ud
ang u
Ġth ree
Ġa ut
Ċ ĠĠ
iz ed
Ġl i
o ot
em ent
Ġg overn
c ess
aus e
an n
ra ph
he m
Ġm ade
Ġl ater
u ally
Ġh ist
ĠS p
Ġbe ing
ĠI s
is e
Ġw ell
ction s
Ġch ar
Ġad d
ur al
it s
Ġex p
Ġnum ber
f orm
Ġthe n
oc k
Ġinclud ing
r ist
Ġf e
ĠG erman
at ure
Ã ©
Ġc ap
olog y
. "
ivers ity
Ġs ur
ĠS h
ch ool
Ġthe se
Ġn o
Ġar t
ical ly
Ġre p
Ġwh ile
us s
ro s
an y
or ld
Ġbec ame
el s
Ġgro up
ian s
Ġcent ury
Ġs ign
Ġ ent
Ġm ain
u ch
ĠA ust
le x
y p
Ġb oth
ib le
e g
Ġm ov
Ġ Z
ĠS c
ĠIn d
ĠW ar
uro pe
ĠC ol
at her
Ġm us
Ġc ar
ab l
a ir
Ġre t
ĠP ro
Ġim p
ot her
a x
Ġcall ed
iv ed
Ġex t
iel d
ĠEn glish
ĠSt ates
as on
Ġm on
Ġh igh
om an
ĠB l
in n
Ġd ire
in ist
er ies
Ġe ff
Ġse cond
Ġ ed
t he
ers on
a e
el f
ag es
t y
Ġpol it
u es
ĠA m
t il
v ed
Ġdif fer
im es
Ġc re
Ġcon st
Ġde c
i er
ĠA f
oh n
R e
ĠA p
Ġle ad
ĠF or
ant s
aj or
Ġs ing
Ġan y
ĠE urope
Ġor ig
Ġc ity
Ġf am
il ity
Ġspe c
Ġm ed
an k
ĠW orld
Ġs he
Ġa ir
ĠBrit ish
ra ct
in a
ĠF ran
ĠC an
ĠA d
ul ation
ĠC l
Ġwor ld
Ġs im
Ġear ly
Ġl angu
Ġo per
Ġde p
iv er
Ġs m
f ul
Ġap pe
le y
w ay
t ing
Ġse ver
Ġt erm
i ew
m p
Ġagain st
as h
Ġres ult
Ġcont in
Ġb el
e c
Ġf our
Ġst ate
ion al
ro p
ĠJ ohn
ut e
Ġ .
Ġpart ic
iv es
v ent
g ram
og raph
Ġl ong
e e
it al
m y
ur ch
y n
an ge
Ġo wn
Ġrec ord
Ġb ro
Ġs ame
ĠĊ ĠĊ
Ġte am
ar m
t o
Ġbe fore
Ġchar act
Ġdes ign
ĠO n
en n
are d
Ġ -
ir d
b le
ill ion
ire d
i k
en e
in ed
Ċ Ġ
ren ch
ĠUn iversity
at ic
fer ences
Ġn ame
cc ess
os ed
ĠCh rist
l ed
Ġo cc
r is
Ġre le
Ġl arg
Ġun til
Ġsupp ort
ct or
Ġgovern ment
ĠA b
ĠM ar
Ġof ten
Ġm ajor
Ġan t
i od
ak ing
il it
Ġdes c
ĠCom m
Ġc ould
tern ational
Ġest abl
v en
h or
ĠI I
ĠP h
g y
tern al
o ber
oin t
Ġl aw
p en
ou se
Ġs ince
Ġrem ain
âĢ Ķ
th ough
Ġ ,
Ġcomm on
ic a
Ġs l
Ġcons id
en g
ar ge
ch n
a id
Ġsever al
r ing
Ġw ill
Ġoff ic
ĠB o
e b
con om
Ġl in
y l
Ġdis c
ĠC ar
amp le
Ġpubl ic
Ġe ach
Ġsm all
Ġb ack
om et
ĠS outh
r id
ĠO r
Ġde ath
oc i
Ġm at
ĠF rench
ag ue
Ġ Q
id ed
Ġl and
Ġin cre
f or
Ġcont ro
l u
Ġsh ow
Ġcount ry
x t
c er
iv ely
et s
s on
u ed
Ġ if
ord ing
oot ball
Ġs eries
Ġm in
id es
Ġf in
ru ct
iv ing
Ġbec ause
ition s
Ġcomm un
ĠAust ral
is ed
ri es
Ġpro gram
Ġsu ccess
Ġw ar
iss ion
Ġt r
ul l
Ġinclud e
Ġdiffer ent
Re ferences
Ġin s
e y
ro du
i ence
c om
Ġor gan
ros s
res ent
b y
Ġl arge
ĠK ing
ĠH owever
i us
p or
Ġl ife
om en
E x
emb ers
Ġt rad
Ġle g
Ġare a
Ġre f
ĠCan ad
am ed
Ġe qu
v ers
Ġc ur
if ied
ic es
Ġg u
Ġmus ic
Ġper iod
Ġex ample
qu e
Ġn ear
on y
Ġh um
Ġc ult
Ġ '
in c
le t
Ġp ar
Ġim port
Ġeff ect
z e
Ġa round
ĠN ational
att le
at or
Ġp o
un e
o x
r and
Ġd et
Ġp erson
iz ation
Ġp ower
le ct
op h
ĠW h
pe ct
A n
t le
i am
Ġs chool
Ġcl ass
as es
iet y
Ġb ased
r ation
ĠC ent
Ġd id
ov e
d om
an e
Ġf un
ĠThe y
Ġre qu
Ġall ow
Ġan n
st er
Ġs oc
Ġr un
end ed
a im
Ġg ame
ĠP l
ĠB e
Ġen g
Ġr ight
ĠP r
ug ust
Ġc or
m ed
am b
ĠN orth
Ġm ar
a u
iv al
Ġbe gan
ri ed
ac ed
av ing
ro w
Ġv al
g ed
ĠAn d
os s
ĠM us
Ġpop ulation
ĠB ar
Ġv ers
ra ft
iv en
Ġth ough
Ġfollow ing
ilit ary
Ġplay er
Ġcon f
Ġp rom
Ġor der
an u
ĠG ree
p ar
Ġg o
ot t
ri pt
Ġse ason
Ġaut hor
Ġapp ro
n er
land s
Ġret urn
a i
c he
ĠG e
iz e
od e
Ġth ose
at ely
ent ly
Ġre ce
Ġl it
g en
Ġp ass
n ess
ĠM ay
Ġd iv
Ġe conom
h am
Ġn on
Ġre fer
il ar
o le
Ġpos s
Ġele ct
am ent
. .
Ġst r
ĠU S
a f
Ġpro cess
i or
Ġcharact er
ĠA ugust
y d
Ġli ke
Ġm ark
ard s
Ġd ue
ur ther
b um
od y
Ġst art
Ã ¡
Ġam ong
Ġlin ks
Ġfor mer
Ġfam ily
and er
al es
Ġo pen
Ġev en
re w
v es
Ġst and
p le
g g
ep end
ren t
Ġdesc rib
Ġb as
ĠAl l
Ġm embers
Ġlangu age
es tern
ol ution
Ġbu ild
e le
Ġex pl
Ġwith in
al th
g er
Ġn ow
ĠR oman
ĠA ir
ĠP ar
ra b
ĠEn g
Ġw ater
ĠĠ ĠĠ
Ġd r
Ġal ong
Ġre st
Ġm uch
Ġpl ace
d e
Ġst at
Ġmod ern
Ġl ast
Ġo pp
id d
ĠY ork
Ġh ome
Ġf ootball
et er
Ġch ild
Ġa v
Ġn ational
Ġinf lu
Ġhist or
ĠA lex
ĠR uss
Ġus ing
du st
Ġhe ad
Ġg ames
ial ly
Ġad v
Ġgener al
un g
Ġte chn
Ġst ill
um ent
Ġhist ory
al ity
ward s
Ġ very
Ġre v
on t
Ex ternal
olog ical
ition al
Ġex per
ord s
om in
il t
Ġpro p
r il
port s
Ġpres ent
Ġb us
Ġt em
m s
om b
ĠW est
Ġr ad
ĠAs s
d ay
at s
Ġd em
Ġl ed
l in
Ġc our
Ġres p
y m
Ġl ine
Ġt er
at a
ĠW ill
th s
re ad
l ic
c hes
ain s
Ġpop ular
Ġte le
ĠM an
ĠN ov
or ies
Ġal bum
st it
Ġbel ie
Ġf act
ĠC ity
Ġ es
Ġcol le
l ine
ric t
ĠThe se
ĠC al
ap an
Ġcom b
Ġo ld
ad em
ĠThe re
t ic
es e
ed er
en se
Ġre ad
Ġrep resent
Ġt yp
as ter
ĠO ct
c o
ĠJ u
ubl ic
ĠE d
re m
anu ary
v ision
A l
Ġsh ort
in ess
Ġh and
Ġcomp ut
Ġar ch
Ġin c
Ġl a
id s
Ġle ft
Ġre pl
ra y
Ġc rit
ol ic
c ing
Ġconsid ered
ĠS he
ograph y
Ġsim ilar
ĠA fter
ĠR ep
ri an
Ġw on
ĠIt al
ist ory
Ġpubl ished
ĠH is
Ġf re
m ber
Ġv is
Ġan other
ĠA g
t t
Ġa ff
Ġto ok
ĠB C
ut ed
Ġestabl ished
ore d
Ġs k
Ġloc al
e k
Ġd own
pt ember
Ġh ig
Ġsing le
ĠJ anuary
em pt
c raft
Ġb and
pe cial
Ġs ong
ot s
ĠB er
t al
Ġpro f
al d
O n
Ġf ore
iv il
o on
Ġ &
Ġk ill
o ok
Ġp ort
Ġimport ant
Ġp at
Ġs aid
ur s
ĠCh ar
Ġb i
Ġpartic ular
Ġg reat
ber t
Ġc er
ĠEurope an
on es
ĠG u
ak es
al f
Ġm ilitary
ĠC ount
Ġvar ious
Ġplay ed
ap t
Ġm en
Ġev ent
re en
Ġwh at
Ġf ield
ĠH er
Ġorig in
Ġc are
Ġn amed
Ġt it
Ġdevelop ment
ĠJ apan
Ġle vel
Ġrele ased
Ġd ay
Ġ $
Ġbo ok
b an
h od
Ġman ag
Ġcl aim
ĠB y
e an
Ġl ess
cent ury
Ġdire ct
as tern
Ġl ate
Ġhe ld
Ġad m
e ad
ure d
C h
Ġ ident
ĠSe ptember
ĠS w
ce mber
ĠD av
it es
ff ic
ru ction
Ġpolit ical
b orn
her n
pl oy
c il
in ation
Ġp ract
Ġg iven
Ġbec ome
Ġc amp
et her
Ġj ust
Ġm ake
. ,
Ġre port
Ġg l
Ġhum an
Ġint rodu
Ġinclud ed
ic ian
A mer
ĠOct ober
Ġf ive
ĠB ro
Ġbe g
s ide
s p
ur g
Ġc r
Ġto wn
Ġis s
Ġ X
in t
Ġhe l
Ġ |
Ġm ag
Ġcontro l
ĠB r
Ġph ys
Ġspec ies
Ġe very
ĠM arch
it her
Ġst ruct
Ġpro t
ĠGe or
ĠEng land
Ġreg ion
Ġs ol
Ġn orth
inn ing
Ġpre v
Ġdevelop ed
a ugh
b s
Ġinv ol
il le
ĠAp ril
Ġcomp le
Ġin dust
Ġcl ub
ab ly
Ġm ult
ĠP ol
il os
Ġp oint
o ks
ĠE x
p ed
Ġto p
ort hern
um b
ĠCh urch
Ġf ew
Ġplay ers
a ul
s c
op s
ĠDe cember
u le
ro te
Ġwith out
le ar
cc ording
Ġs ix
og n
Ġan al
Ġch ang
Ġpr im
w are
l ess
is on
l or
Ġed uc
Ġact iv
Ġth ird
ĠCom p
al k
Amer ican
Ġlarg est
ist ic
y le
er y
ke y
ĠJ une
Ġpro per
r ican
ĠP art
Ġl im
in k
Ġs our
B C
ĠGree k
p s
Ġcon d
iv id
Ã ¼
ĠE ar
Ġass oci
Ġne ed
ent ion
Ġh owever
ir on
ĠJu ly
Ġin it
Ġbe h
ĠNov ember
ra in
m ost
Ġcount ries
an ish
Ġorig inal
ific ant
at ter
ar ian
Ġs old
S ee
ĠH ar
Ġc aus
ir c
Ġb ase
Ġs omet
ond on
ĠS ch
ĠWill iam
Ġ ide
Ġw ay
z er
ĠLe ague
er ing
ric k
Ġl ow
Ġb re
our n
Ġprodu ced
Ġprodu ction
Ġcomp any
Ġind epend
Ġbu ilt
Ġst ates
Ġe p
Ġb ir
Ġm illion
est s
s h
Ġ el
rid ge
Ġan im
ent ial
Ġappe ar
Ġex ist
ra g
Ġr ul
se qu
Ġs outh
end s
Ġw omen
ĠChrist ian
Ġatt empt
c ient
Ġd el
ot e
Ġv iew
l ing
Ġt imes
c hed
ĠA rab
Ġus ually
Ġh aving
ther n
ĠB el
Ġsign ificant
Ġrel ig
Ġcomp et
Ġf inal
est ed
w ork
ac es
Ġc ase
ĠUn ion
amp ions
ar n
Ġprodu ct
ĠM ed
Ġare as
Ġ er
os p
Ġgroup s
at ural
Ġc ame
Ġg en
Ġgro w
r ated
Ġw rote
ac ks
Ã Ń
oun cil
Ġro le
Ġal though
Ġper form
ĠB ra
a ut
ou thern
ĠO ne
ĠL ondon
ĠC o
n t
id ence
Ġt urn
Ġme an
an a
et h
Ġb ody
ly mp
ab ility
ak en
it ive
b it
an ces
ĠIn ternational
f ord
i ation
Ġwrit ten
eb ru
in o
Ġar g
ĠAmer ica
ebru ary
Ġsystem s
Ġs on
a pe
e um
ac y
ain ed
Ġre du
Ġt reat
Ġfun ction
ĠA c
e h
Ġde cl
l er
S t
Ġpro ble
op e
Ġserv ice
Ġeng ine
Ġm ater
al t
o f
en cy
Ġre se
Ġp ost
w ays
ĠS chool
Ġind ivid
Ġm ember
ĠCanad a
ar a
oun g
Ġre al
Ġs ide
am a
Ġs ent
ĠA ct
Ġv ol
Ġse par
ab or
Ġvers ion
ud d
T h
at ures
Ġinf orm
Ġob s
is c
ĠE l
Ġl ist
re t
Ġwor ks
y pe
k a
Ġto tal
Ġde v
Ġp ain
m en
Ġt ake
av y
Ġdo es
A s
a ur
ĠF ebruary
Ġspe cial
ĠE ast
over ed
Ġcur rent
Ġs w
Ġrece ived
Ġl ight
ie f
ĠP res
re g
ĠJ ew
oy al
Ġsh ould
s elf
Ġatt ack
Ġk ing
idd le
om s
c ast
Ġthe ory
Ġw in
in ing
ĠS ome
Ġsu gg
ener al
ĠS up
her s
ĠS oc
ĠT ur
ĠT e
Ġsp ace
w h
Ġde b
ĠAn g
oll o
Ġstr ong
Ġsy m
inist er
ĠG od
Ġstud y
ĠAf rican
ĠE mp
ud e
ne y
Ġoffic ial
ict ion
Ġsh ip
Ġt ri
Ġbus iness
at in
Ġm ass
im ate
Ġc al
ad es
Ġm y
Ġh alf
Ġmet hod
ra w
ific ation
Ġbro ad
m ing
Ġpos ition
w rit
ra p
ĠC or
end ing
et ic
Ġsoc ial
Ġchild ren
un ic
ĠDav id
Ġcre ated
Ġtele vision
Ġmater ial
Ġob ject
Ġj oin
Ġf urther
ĠAustral ian
ĠFran ce
Ġd er
Ġfilm s
Ġd ied
Ġrel ations
Ġprev ious
Ġother s
ĠBl ack
Ġd est
r ight
ide o
Ġc ell
Ġlangu ages
Ġdescrib ed
I I
Ġter rit
b on
Ġin ternational
b o
ĠN e
ut es
er gy
Ġa ge
re st
Ġ| |
ĠCol le
g es
ĠH ol
Ġann oun
ĠP ort
v al
ron t
ap p
Ġs um
ĠPh il
ect ed
Ġadd ition
m on
ĠC ro
Ġbl ack
ĠD iv
Ġe ither
Ġconst it
ĠAr my
Ġm ot
ĠGerman y
Ġpro ject
Ġcontin ued
Ġm ust
us ed
ĠW hen
en ced
ow s
o ff
ĠAustral ia
pecial ly
i ber
er t
at ors
Ġloc ated
Ġfor ces
ĠSt ate
ord er
ĠKing dom
Ã ¶
Ġn ov
Ġear li
ri a
Ġh ost
Ġk e
c ul
ac hed
Ġp ri
Ġa st
b ers
ar i
m it
ĠO lymp
inc ip
i ol
Ġdef e
ric a
h a
ĠEmp ire
ut ions
Ġobs erv
ĠP ark
b or
Ġpolit ician
ĠAr t
Ġre n
Ġw id
ĠM c
ot es
Ġn et
Ġt w
l am
A r
Ġ Ã
as ing
om p
e f
our s
Ġm er
Ġph ilos
Ġocc ur
if y
im ent
Ġb est
Ġcap ital
a ff
pl ay
os ition
Ġf ail
f ace
Ġc irc
s y
ap er
Ġr ange
ĠC up
ens ive
Ġne xt
Ġprof ess
ight s
Ä ģ
o ad
Ġc hem
ĠM on
ĠC ath
it ect
U n
u el
if orn
Ġform ed
Ġt ro
Ġpr iv
Ġg ood
ĠE m
u f
Ġen c
Ġair craft
Ġlit er
is ing
Ġh ow
Ġrec ogn
ar ies
Ġle ast
Ġf ac
em ents
Ġf ather
A S
Ġav ail
ĠInd ian
ĠP er
ĠR iver
Ġsomet imes
ing ton
ĠD ay
pl es
Ġpart s
ourn al
et t
Ġme as
m a
im ately
ov iet
Ġ ver
r ant
Ã ³
f ic
Ġh old
n ow
Ġgener ally
Ġp ot
Ġd ays
ĠS an
ĠRe g
Ġacc ount
Ġla un
Ġb attle
ĠP e
Ġ [
Ġw ord
Ġtrans l
Ġf ree
ĠR es
ĠAf rica
Ġst yle
Ġserv ed
ĠH ouse
ĠF l
Ġposs ible
ĠS y
p ite
ĠP al
Ġes pecially
u k
Ġd ata
ĠD uring
Ġestabl ish
for man
Ġm aking
Ġexp ress
Ġ( "
Ġne ver
ines e
ul a
ĠW estern
Ġr ather
n ing
il es
Ġst ation
Ġpres ident
Ġnum bers
Ġh ouse
ist an
Ġn atural
ĠPart y
l ant
Ġg e
i ers
Ġa ver
Ġrese arch
n d
ate g
Ġ z
Ġof fer
v iron
h ib
ĠG reat
av es
at al
ĠM or
Ġc op
ĠAlex ander
Ġcare er
cre t
ĠS m
Ġag re
Ġc ivil
Ġhim self
ĠT r
ch an
Ġf ull
Ġmod el
Ġcomp lex
Ġem ploy
yd ro
c ript
ampions hip
ĠO ther
ĠCount y
Ġfollow ed
he st
Ġab s
. )
us h
ib r
b e
Ġs ch
Ġp ress
Ġex ec
Ġt est
ĠRep ublic
iforn ia
le ment
Ġc y
Ġbuild ing
Ġfe ature
ce ed
Ġadm inist
ĠPres ident
Ġp oin
Ġimp ro
ĠR ober
ĠH igh
ĠDiv ision
o id
ĠP aul
ĠN or
ar ily
ch ie
ĠCh ina
ĠCanad ian
Ġmark et
Ġsu per
i que
ĠSp anish
Ġl ower
Ġcons ist
Ġele ments
ĠAp ollo
re et
ra el
Ġform s
ĠA ward
u ation
Ġl ost
Ġcer tain
ĠGeor ge
Ġv ict
Ġterm s
Ġcult ure
Ġcent ral
Ġse en
ĠAn t
Ġac cept
ĠA pp
Ġsuccess ful
Ġb ar
Ġthrough out
ĠInd ia
Ġt ype
ic le
Ġst ory
ĠW ith
Ġmov ed
n a
Ġb orn
a el
c le
ĠB as
Ġm id
Ġcommun ity
Ġeconom ic
ĠS oviet
ĠM ich
Ġavail able
Ġgro und
ĠP ress
Ġp ur
Ġcomput er
Ġtit le
ĠG l
Ġfound ed
ĠM art
Ġcomp an
Ġpart y
Ġintrodu ced
Ġf ind
Ġm iss
Ġcon c
Ġab ove
Ġbec om
Ġt aken
Ġe th
ber g
ĠCal ifornia
a ign
ĠA ccording
Ġar my
Ġreport ed
Ġsub ject
Ġpr incip
Ġele ction
Ġstand ard
Ġd i
Ġpl an
Ġinv est
ĠB udd
Ġtem per
Ġre d
Ġsc ient
li ament
Ġf ig
Ġfre qu
Ġb all
ĠD es
Ġac ross
er ous
ĠRuss ian
um e
Ġind ic
Ġw ent
re am
Ġc ost
Ġf ire
Ġf und
Ġmult ip
Ġf ri
Ġf ood
ist or
ot ed
Ġch ange
Ġw he
Ġfor ce
Ġli k
y ear
ĠR ich
Ġf em
Ġm em
Ġcomm and
ĠN o
Ġreg ard
Ġhig her
Ġco ast
Ġf ight
Ġst ar
Ġro ck
ut h
ĠCent ral
Ġs ite
Ġto g
ĠL a
ĠJ ames
ing u
Ġal most
ic o
Ġar m
Ġannoun ced
Ġinform ation
Ġk ey
ĠL atin
Ġent ire
ĠB en
ĠCh inese
Ġo x
ĠS l
st and
Ġtog ether
Ġse e
at ory
ĠG overn
Ġen ergy
ĠColle ge
ĠAr ch
Ġan cient
oc r
Ġcont rib
a ction
e in
re l
Ġh ard
li ke
ĠItal ian
Ġse c
Ġra il
Ġis land
Ġun ivers
ĠK h
Ġinclud es
ough t
Ġt rib
i qu
ĠChar les
Ġpol ic
Ġcont ain
ĠC ouncil
Ġres pect
Ġup on
gy pt
ro y
Ġme ans
Ġper forman
in ary
ĠP ri
ĠG eneral
ĠCath olic
Ġint eg
Ġcol on
ĠĊĠĊ ĠĊĠĊ
g ress
Ġd en
ĠS er
ĠRe v
Ġs it
Ġth us
um ents
our t
Ġev ents
ĠF irst
Ġcon n
Ġim m
Ġinst ead
viron ment
" )
v ing
Ġm ount
Ġ ill
Ġacc ess
Ġd ou
Ġdis p
Ġacc ording
ĠRe c
Ġeduc ation
ou l
Ġaver age
ĠQ u
ĠSc ott
H istory
is l
Ġc ross
Ġtr ade
Ġd oc
ill s
k y
Ġsing er
ut ch
ĠH en
Ġcap t
Ġto ur
Ġright s
ĠD em
st on
he l
Ġsch ol
Ġst ri
Ġso ft
r up
ĠB u
it ar
mer cial
tain ed
i ke
Ġcl os
ĠR oyal
Ġreturn ed
Ġelect ron
Ġf all
ĠJapan ese
an c
art ment
Ġits elf
Ġsur v
um n
om m
Ġstart ed
Ġev idence
eder al
Ġon ce
Ġv ideo
z il
ĠC ong
ain t
Ġact or
Ġr ate
em s
Ġde g
ys is
Ġs er
n el
Ġcour t
Ġserv ices
s el
Ġpro te
Ġinst it
Ġg rad
b ra
ri al
Ġcharact ers
ĠG ro
ish ing
f ield
ĠM ex
Ġarch itect
it ch
Ġrel ated
ix ed
ĠEar th
o ch
r as
Ġhel p
Ġremain ed
A fter
Ġy oung
wo od
it ing
Ġcon cept
ĠĊ Ċ
Ġad op
Ġf av
ic ro
e v
Ġst e
ru g
Ġf ar
Ġappro x
at ives
ĠE gypt
Ġwh ose
Ġus es
rough t
Ġtrad itional
g ar
k ed
Ġstruct ure
Ġsu ff
Ġm ale
at ively
Ġte xt
it er
ag o
med i
Ġs ound
one y
ĠV al
ĠB attle
ul f
Ġv ill
p ir
it or
Ġdesign ed
ĠQ ue
Ġassoci ated
Ġ( )
Ġmov ement
Ġf oc
Ġab le
Ġdet erm
Ġne g
Ġkill ed
ĠCon f
Ġmean ing
Ġa chie
o res
ers hip
The re
Ġa way
Ġe t
Ġcamp aign
Ġfe atures
Ġnov el
Ġresp ons
Ġex cept
r ast
ĠM e
ip p
Ġindust ry
Ġpro b
Ġrecord ed
Ġincre ased
) ;
ĠAt lant
ĠP at
ur ies
om as
ĠBrit ain
oun ter
Ġinflu ence
l im
Ġac adem
ul ated
Ġg old
ĠL ou
Ġt en
ĠC amb
Ġthough t
Ġt re
Ġcon du
sy ch
Ġh ydro
Ġbo oks
| -
ĠB ay
Ġar r
Ġstud ents
Ġa ward
Ġs qu
Ġc oll
Ġdire ctor
p ut
ĠL ist
Ġcompan ies
Ġrad io
Ġp ut
Ġg ave
ach ing
Ġtrans port
Ġlead ing
ĠWh ile
k i
in ct
Ġp ers
Ġre b
ol s
Ġl ive
ap s
i res
Ġest im
Ġm other
il ities
ell ing
Ġdist rib
ĠM al
Ġevent ually
in ter
Ġc over
Ġbro ther
H e
ĠR ed
ĠSe a
i j
r im
Ġs ize
Ġe ast
t ies
Ġme et
cl us
Ġcrit ic
ad s
Ġrelig ious
ĠIn stit
Ġpartic ip
Ġcomp os
am ples
Ġhe alth
ĠB at
Ġc ities
Ġappe ared
Ġmat hem
Ġac id
fic ult
Ġn orm
ult ure
ign ed
ĠRober t
Ġd omin
writ er
Ġprov ided
) :
um p
o e
Ġv iol
ist er
fer ence
Ġsc ience
Ġn orthern
Ġch urch
Ġtrad ition
ĠAss oci
ĠS am
ist ics
ib ility
ĠAl though
Ġkn ow
Ġallow ed
Ġrefer red
ĠAc adem
Ġinst r
E n
Ġse x
oph y
o ice
ĠMus eum
Ġal tern
i os
Ġp ast
Ġdif ficult
if f
' t
it ude
Ġw est
Ġmon ths
Ġpoin ts
ĠW e
Ġapp lic
Ġc ases
ic les
g round
in ent
Ġparticular ly
m ar
Ġindivid ual
n ot
ut ive
Ġcl ose
ĠBo ok
am er
Ġval ue
Ġconc ern
Ġw ords
Ġn ames
Ġprov ide
ĠU K
ĠB ur
t a
Ġo pt
ĠM inister
b urg
Ġconst ruction
ele b
ĠFran k
s en
Ġschool s
uf act
Ġs outhern
Ġp en
ran ch
Ġcom mercial
st ant
ĠH all
Ġ ur
Ġfootball er
Ġconsid er
il i
ag n
od es
Ġsub sequ
ĠM et
Ġresult s
ĠM y
Ġo il
Ġman ufact
Ġe ight
b ased
ĠT o
id ing
Ġper cent
ĠBra zil
ĠM ost
Ġreg ular
Ġan g
Ġb rought
at ch
Ġj ud
v an
r or
Ġam ount
Ġ =
ĠF re
A t
ĠT rans
augh ter
os es
k n
ĠCon t
Ġwh ite
Ġrequ ired
Ġrepl aced
m in
o z
h ab
Ġast ron
r ig
v ille
Ġe mer
ish op
eng th
ist ance
Ġle t
Ġn uc
Ġa ud
Ġpriv ate
ĠCro at
c is
ĠAs ia
r us
as c
Ġs aw
Ġout side
Ġqu est
ĠD ep
Ġh on
w est
Ġs il
Ġac qu
ĠT ex
Ġfore ign
Ġm ach
ĠB ul
oc key
c ies
Ġt ax
Ġadd ed
unic ip
m e
ĠC ourt
ĠAl bert
F or
Ġg re
Ġspec ific
Ġnet work
ĠH istory
Ġlarg er
al i
ut ure
Ġle ague
Ġinter est
Ġsour ce
ĠI r
u x
Ġocc up
ĠSoc iety
ĠC ap
Ġr ule
ibr ary
Ġm ission
ĠAt hen
Ġhig hest
ĠIs rael
av al
Ġprodu cer
Ġme chan
Ġremain s
A d
ĠM ac
ĠS pe
Ġpo et
g o
Ġsur face
Ġgu itar
an ks
ĠD utch
Ġbelie ved
ĠI ts
u ck
Ġr is
Ġor d
Ġep is
Ġv eh
Ġincre asing
r ate
ĠCol umb
ak er
Ġcre w
ĠIs land
ro l
Ġm ight
Ġindepend ent
Ġa ction
Ġant i
Ġcaus ed
C A
ĠS im
rem e
u als
in i
ver t
Ġj ournal
Ġsym b
as ons
per or
Ġd am
Ġinter p
an cial
Ġmet al
ĠZ e
.. .
Ġs at
Ġmajor ity
Ġc reat
it iz
air s
ol it
Ġcomm it
he t
Ġeffect s
Ġgrow th
Ġl ack
Ġele cted
Ġwork ing
Ġmar ried
Ġchang es
Ġl og
Ġele ment
t ime
or ks
ĠI f
ĠG old
Ġbir th
Ġse ven
Ġph ot
Ġlong er
ĠP eter
ell ed
Ġincre ase
kn own
ol k
Ġmost ly
Ġbeg inning
Ġoper ations
Ġprim ary
ound s
Ġwid ely
Ġpre d
Ġcar bon
Ġlit tle
ur ity
ĠP ers
Ġh om
Ġdef in
Ġtyp ically
Ġd om
ĠSt ud
Ġdis e
Ġcommon ly
Ġcond itions
Ġc lear
ĠMich ael
ĠM any
Ġro und
Ġrelations hip
Ġeff ort
ĠAcadem y
ob al
Ġmag n
ag ed
Ġcontin u
ĠAn gl
Ġjoin ed
or ph
all ed
ĠII I
le g
res p
Ġse qu
Ġg od
i ences
an i
Ġperson al
Ġterrit ory
ash ington
Ġsour ces
Ġpract ice
ĠRich ard
Ġs em
as ion
Ġl iving
Ġlik ely
Ġread ing
Ġl ab
Ġl oss
ĠL aw
Ġto wards
and s
ĠO ld
Ġoff ice
Ġbl ood
e ction
Ġperform ed
Ġs elf
Ġh it
Ġbroad cast
Ġst ated
ĠTh omas
Ġperforman ce
Ġ ess
o or
ow ers
Ġeconom y
Ġw ife
Ġl o
un s
our ces
Ġc ause
ĠS al
v iew
on a
Ġs ay
ol a
ĠItal y
Ġsoft ware
Ġc eleb
ĠIs lam
Ġleg al
ĠSc ot
por ary
Ġinvol ved
Ġwe ek
ĠR ad
Ġorigin ally
i ents
ac hes
ĠHen ry
sel ves
A m
Ġf ront
Ġearli er
c her
Ġf le
Ġtyp es
Ġr ank
Ġh ous
Ġpre vent
Ġc he
Ġn ature
ĠM ount
Ġun its
oin ted
Ġthem selves
Ġproduct s
y a
ly ing
Ġle arn
Ġwrit ing
Ġg ra
Ġsc reen
Ġd yn
Ġrele ase
ĠS en
ĠB ut
oy s
ir t
pe cted
Ġacadem ic
is ions
Ġpl aced
r d
Ġqu ant
Ġb ank
are nt
Ġrem ov
Ġtra vel
Ġc ast
Ġlim ited
om er
Ġl ines
act er
Ġre ached
ĠAssoci ation
Ġto day
Ġbel ow
I t
Ġcon cent
Ġv ia
Ġen vironment
Ġrev iew
ĠSt e
id ents
Ġmed ia
ens ion
Ġbeh av
Ġbir ths
Ġpl ant
Ġreg ions
Ġdist rict
Ġr iver
Ġopen ed
Ġproble ms
Ġc ode
ĠD an
Ġ â
on se
ĠA D
Ġdest roy
g in
m illion
re land
emb ly
Ġprodu ce
ed s
P e
ĠSw ed
Ġne cess
ĠFor ce
Ġf a
Ġse a
Ġproble m
C l
ĠB al
un t
Ġwhe ther
Ġmin or
Ġmanag er
ir it
ĠF rom
gh an
Ġpur p
ĠW ashington
ĠC ons
Ġd raw
c ks
Ġto o
Ġcommun ic
m et
s pe
ĠCh ampionship
Ġcom e
Ġne igh
Ġbo ard
ann ed
Ġrequ ire
u it
Ġstud ies
ĠLou is
ĠM ass
Ġf ell
Ġwork ed
b ed
d en
Ġg as
ĠInstit ute
iv ity
od ern
Ġhistor ical
Ġt arg
is ation
ĠF ore
Ġcomple ted
ĠW il
om y
and ed
op er
Ġset t
resp ond
h ing
Ġg et
Ġvar iety
ous ly
Ġl ay
ult ural
read y
l ied
Ġco ach
Ġp ay
ĠĠĠĠ ĠĠĠĠ
Ġal ways
Ġd ig
ĠT er
ĠN orthern
Ġdisc overed
Ġm ur
ĠSm ith
k et
ĠB ab
ect s
ĠComp any
D uring
or ial
W h
he ad
Ġcent er
ĠJew ish
Ġtro ops
ĠG rand
Ġv oc
are n
Ġcult ural
Ġfl ight
ĠPort ug
th rop
Ġe as
Ġphys ical
Ġact ress
est ival
ĠSe cond
O ther
Ġ +
ĠD ist
ĠL iber
r ative
Ġs al
ch ange
Ġwh om
Ġ ens
Ġn ar
st ein
Ġin j
ĠM iddle
Ġdef ined
h ood
ed y
ĠI reland
it z
Ġd ial
Ġvar i
ĠT V
Ġc ut
Ġy ou
Ġcent uries
Ġrec ent
Ġcomple te
Ġb att
Ġun it
on st
Ġst age
n ic
Ġf uture
on ic
Ġdoc ument
b our
ĠM ary
N A
c el
ian ce
Ġprop osed
ĠV ol
ot ic
ĠI m
Ġlead er
ĠE astern
ian t
ĠComm un
ĠPar is
Ġ /
Ġh or
ect or
Ġbase ball
Ġapprox imately
iz ing
ax im
Ġmultip le
Ä ±
Ġg ive
Ġc ard
Ġre ason
Ġsepar ate
ĠSt reet
Ġdirect ly
ip l
ĠOlymp ics
an ced
if t
Ġcolle ction
ĠS ince
ĠRuss ia
augh t
Ġtreat ment
Ġl atter
ab les
un k
con t
Ġsur round
z a
Ġnum erous
Ġmat ch
âĢ Ļ
ĠGro up
Ġd aughter
st ra
Ġs ports
Ġl ength
Ġsmall er
Ġdeath s
os ing
Ġshow s
Ġchem ical
b re
Ġ i
Ġf arm
ĠM er
Ġal ready
Ġbet ter
ĠC a
Ġpolic y
Ġb ur
Ġal g
Ġsign ed
ĠSp ain
Ġe ver
pp ed
Ġnew sp
Ġsupport ed
Ġdiv ision
Ġadd itional
S A
Ġb ene
ism s
vent ion
Ġestim ated
ĠJ er
Ġs af
Ġal c
Ġcont ract
ann el
Ġa x
Ġwrit ers
ĠIs lands
ar ing
Ġtra ining
ĠIn ter
Ġanal ysis
ĠS un
Ġra ce
ĠCong ress
Ġfin ancial
Ġ Î
ĠV ict
ollow ing
ĠJ ose
ĠAng el
en es
Ġprofess ional
rup t
p ro
ar ter
ĠH am
Ġc ou
ar ly
Ġm ention
led ge
w ar
Pe ople
Ġteam s
ocr atic
D P
en a
Ġtechn ology
ĠK ore
Ġcor respond
ĠD u
Ġnear ly
Ġchang ed
te e
f l
ĠCent er
Ġde al
Ġhe av
ze ch
Ġso on
az ine
p art
ĠM ont
g ian
ĠB ill
Ġent er
Ġer a
Th is
, "
Ġc red
ĠC ub
Ġtrans fer
Ġbeh ind
on n
Ġset tle
Ġdist inct
ĠC ast
ĠV ir
al ed
ir l
b ack
Ġc ust
Ġapp ointed
Ġequ ip
ĠK n
ad o
ĠB ell
ĠG ra
Ġs us
Ġcol or
Ġb ound
Ġplay ing
Ġw ant
ent al
ve y
Ġgre ater
ak ers
Ġresp onse
en ed
Ġc and
Ġlaw s
i en
r ich
Ġw estern
Ġimp lement
a ud
Ġes c
m ark
ĠA C
ĠT ra
Ġlarg ely
Ġproper ties
ĠS erv
le cted
ĠSup er
Ġd ram
Ġcon v
Ġsong s
he ast
or por
Ġdis s
Ġbre ak
Ġdisc uss
ird s
Ġstat us
ĠApp le
n ed
Ġp ath
Ġag ric
Ġbuild ings
stand ing
ol f
Ġis lands
Ġhigh ly
Ġke ep
on ia
ĠM ag
ĠH ung
ĠD ou
Ġpri or
Ġact ive
Ġst op
Ġmov e
ĠAf ghan
Ġcont ains
Ġdiv ided
Ġadop ted
ĠR ob
T A
Ġfem ale
Ġpl aces
ĠTex as
it ors
Ġp ie
ĠD el
Ġcent re
Ġide a
ĠD on
ĠPar liament
bo ard
w ide
Ġim medi
Ġp sych
ig en
ĠY ear
Ġrepresent ed
ol es
pt ion
ph as
Ġconstit ution
ic ated
ĠO tt
Ġnot ed
D e
ĠFran cis
ĠCl ass
ĠWh ite
Ġanim als
Ġb omb
Ġm unicip
Ġh ockey
Ġth reat
Ġmain ly
Ġtemper ature
k m
p id
ro wn
ĠM ark
end er
ress ion
Ġappe ars
Ġart ists
im al
P h
a res
ĠAlex and
ĠScott ish
Ġschol ars
b l
ĠS ant
Ġclaim ed
F L
Ġlevel s
ens us
Ġcar ried
it ation
Ġdec ided
ĠSy stem
iz ations
Ġadd ress
ol ved
id a
ĠAn n
Ġmain tain
Ġfour th
ĠBat man
am ily
ĠD en
ĠIr ish
ĠT or
and a
ry ing
Ġc rick
Ġcomp on
ren g
Ġwrit er
Ġlet ter
h i
Ġc itiz
ĠA ut
Ġcre ate
Ġfam ous
o ke
Ġf if
ĠBer lin
Ġiss ue
ent h
Ġc ateg
ar c
ĠP et
Ġat om
Ġqu ick
en h
Ġw ide
Ġth ous
Ġrel atively
Ġb or
Ġiss ues
Ġend ed
Ġinit ial
y r
Ġl ook
Ġfor ced
Ġsh own
ĠAl f
Ġloc ation
Ġw ood
ĠS um
Ġn ation
ĠMus lim
ĠB ang
ce an
ith m
ow l
ĠH istor
um an
Ġpre c
Ġvict ory
y er
ic ted
ĠM il
Ġw ind
ĠC zech
ad a
Ġsoc iety
ĠJew s
in em
ĠF in
Ġfun ctions
Ġt aking
j an
ĠAr men
ĠB or
Ġprogram s
Â °
Ġm akes
vers e
a ult
ris on
Ġt able
O S
Ġcon ver
Ġc oin
Ġw all
ĠB os
Ġfoc us
= "
ast ic
it t
ĠDe f
Ġdet ail
ĠB ig
Ġhe avy
A ccording
ĠR ail
ĠC ivil
ĠJ ust
ll ed
ĠRec ords
at ers
Ġsc ript
Ġthere fore
Ġn ight
ĠF ilm
at re
Ġb order
Ġprim arily
Ġproper ty
ear ch
Ġro ad
ĠArab ic
ir m
it a
ri age
du c
Ġwho le
Ġpo or
ĠPri ze
Ġd one
Ġpot ential
ĠCar l
Ġindepend ence
o o
Ġbecom ing
ĠB ron
ĠAmerican s
Ġrul es
Ġprevious ly
Ġra re
m ad
Ġmethod s
e ch
Ã §
ĠM ur
ip s
Ġleg isl
ĠMus ic
Ġd rug
Ġwe ap
Ġfeature d
g ing
ĠJ ud
Ġh yp
Ġcomp ared
ĠT wo
em porary
se c
Ġpl ants
Ġd ate
ast y
olog ist
Ġfore st
ĠTur k
P ro
Ġspe ct
stit ution
Ġcomp let
Ġdou ble
in et
ĠB re
ut er
us e
Ġdis play
ex t
w ith
as k
ĠM ore
ĠMart in
Ġc ounter
Ġb od
ĠS aint
ĠT own
Ġf ederal
Ġm ole
cl es
Ġdeg ree
Ġin n
Ġmathem at
i as
al a
Ġ ice
ĠS eries
ĠN avy
Ġgo al
ĠS outhern
I s
ĠB ank
Ġe astern
Ġcell s
ul ations
ond s
S e
Ġre form
Ġdire cted
S C
ill a
ĠLe g
Ġship s
ĠH ill
Ġcons um
Ġwe bs
ĠD r
ĠW all
Ġres erv
wh ich
s hip
Ġ âĢ
ĠB est
Ġtra ck
Ġm oney
Ġsy n
ĠJose ph
Ċ ĠĊ
Ġd ed
N otes
e ff
ĠW ales
ĠE v
over y
Ġfail ed
Ġinvest ig
Ġquest ion
Ġh ours
Ġr at
Ġen ough
p ly
Ġremain ing
Ġvill age
Ġpol ice
ĠPro v
Ġcon qu
ĠVict or
os is
Ġcomp ar
Ġp urch
id er
ri ef
Ġbas is
Ġo p
ot a
Ġmeas ure
u ge
ĠO x
ge bra
Ġcan not
Ġin hab
Ġcl imate
p r
Ġst reng
Ġse ction
ffic ient
b and
c an
Ġactiv ity
Ġtarg et
in ated
Ġpress ure
ap ers
z z
al le
ĠCl ub
Ġsugg ested
Ġmur der
Ġris k
ĠM el
Ġhe art
Ġreg ional
Ġass ist
Ġdem onst
ĠMex ico
w in
ĠS u
ac ing
Ġpr ison
ĠBudd h
Ġprob ably
Ġcand id
B S
or al
Ġint ended
und red
Ġann ual
h ol
ĠO per
Ġpass ed
ĠB ase
ace ae
Ã ¨
ĠS ol
Ġspe ed
Ġcons ists
Ġexp ans
Ġsold iers
h old
Ġg rant
Ġed ition
Ġdefe ated
ĠVir gin
ĠR om
Ġse arch
Ġmed ic
el a
Ġprov ides
is es
ĠC yp
Ġ ult
ĠM u
Ġbl ue
Ġsum mer
ĠGovern ment
T V
com p
Ġinflu enced
ĠScot land
Ī Ĵ
un ar
Ġch ief
Ġsp read
hes is
Ġmem ory
i ro
Ġs ens
ill er
ec ause
w ell
ĠIn t
ib ly
Ġcurrent ly
i h
ĠA v
Ġliter ature
re y
Ġcomb ined
Ġp aper
Ġl ived
ket ball
ĠA h
ĠB BC
Ġresult ing
I C
ist ry
Ġimp act
Ã ¤
angu age
Ġlaun ched
at o
ou d
Ġg raph
Ġbo x
Ġpres ence
ĠPl ay
ur ches
Ġpe ace
F urther
y ing
ĠE s
op her
Ġdec ision
ĠL ab
iqu es
ĠK ar
ĠL u
Ġmed al
op es
per ial
ĠPro t
Ġre ve
Ġst ep
Ġar ran
ĠR ome
ell ig
b ro
ĠC ard
Ġcont rast
Ġmat ter
Ġscient ific
Ġaward ed
ĠC he
ĠD is
Ġur ban
Ġp ric
ig a
Ġst ations
Ġk ind
ult an
le ction
Ġdise ase
ĠL ake
ri er
Ġcomp osed
Ġinit ially
A M
Ġw inning
cept ion
el t
clud ing
c est
v a
Ġp un
Ġrespect ively
i ated
ĠM ad
Ġal ph
Ġpr in
Ġrun s
ĠRev olution
Ġm iddle
ĠDep artment
b ury
ĠBro wn
Ġalg or
Ġder ived
c ol
Ġb ig
Ġse cret
Ġt akes
ĠB ern
ost on
P l
ĠPr ince
E arly
N ew
Ġs pl
ĠL ord
ĠN ot
Ġappear ance
Ġfri end
Ġexper ience
ĠDist rict
Ġdes pite
Ġneed ed
Ġs ac
ĠM iss
Ġmon th
ĠB ah
ra ction
ĠR oad
ars h
Ġon line
Ġbl ock
B l
il s
form ation
inn er
osp ital
ri f
b ur
ĠUn der
ĠCol omb
Ġcre ation
Ġindivid uals
Ġm ig
ĠP ac
Ġch all
C on
Ġde cre
Ġ :
Ġg rand
um in
ĠAl ban
Ġmus ical
ent ed
ĠM in
ĠG reen
Ġcom ment
Ġtr ue
Ġindust rial
l ight
Ġent ered
at ur
Ġb illion
Ġra pid
Ġoffic er
Ġorgan ization
Ġexper iment
Ġ )
Ġident ified
Ġredu ced
Ġthe ore
ĠL ibrary
u ated
Ġw oman
Ġsh are
a ctions
ad ium
Ġg r
Ġearli est
Ġm om
Ġfin ished
Ġc ry
Ġsu c
ĠOr der
Ġaltern ative
Ġfl u
Ġobject s
b ai
u a
ot ion
ul pt
Ġex c
Ġoper ation
Ġbelie f
En glish
A C
Ġ Â
il ies
if orm
ĠAs h
Ġy et
ro ad
Ġass um
tt ers
ĠT ele
et y
Ġen em
Ġcontro vers
Ġactiv ities
Ġmaterial s
ĠCamb ridge
Ġb r
ill ed
Ġold er
Ġ ir
il ed
ĠT om
ra ck
Ġrecord s
est ic
l av
Ġab ility
Ġinc orpor
zer bai
ĠP an
ĠTh at
en z
ĠC ur
Ġun iversity
ru cted
Ġm ix
Ġpro gress
Ġatt rib
Ġaccept ed
Ġst ars
ĠSc ience
Ġoffer ed
Ġe y
con s
Ġm is
Ġpres erv
Ġmed ical
ĠTe chn
Ġwebs ite
f ect
t ical
g ent
w ater
Ġp il
Ġfor t
ĠV er
Ġsp irit
ob ile
k ing
w er
ĠC op
ĠE r
ĠGree ce
Ã³ n
l ict
al ing
al and
ac c
Ġbehav ior
ĠG o
Ġd on
ĠCar ol
ĠL os
ord ers
Ġem p
Ġalc oh
A b
ubl ican
velop ment
ĠColumb ia
Ġcommun ities
Ġsuc ceed
r ations
ed om
Ġsp ent
B y
Ġt ree
Ġaut om
Ġs ense
ail y
Ġsub s
or ation
ĠC amp
Ġb ring
im b
Ġcon ne
Ġam b
Ġinstr ument
ul ly
Ġde ep
Ġle tters
Ġatt acks
e es
ĠJ ul
Ġpre m
ĠComm on
ĠAn ton
Ġpat tern
ĠP o
Ġar rest
Ġcontin ue
Ġturn ed
n ia
Ġn ative
ĠThe ir
th od
Ġal k
Ġex hib
Ġrespons ible
m ission
ĠCroat ia
ac ity
Ġconst ant
Ġexpans ion
ad d
ĠF ootball
ĊĊ Ġ
Ġcompos er
Ġoper ating
ar ia
Ġart ist
S ome
Ġbas ic
Ġgl obal
Ġmach ine
al o
ĠS qu
Ġclass ical
Ġpresent ed
ĠM ah
Ġqu al
Ġcitiz ens
ĠS ir
ĠO ff
ograph ic
r ical
ĠB oston
ĠS k
og rap
Ġphilos ophy
ĠAtlant ic
Ġr ise
Ġmod els
for ce
y gen
Ġle aving
Ġcl osed
gen cy
ir ing
og en
Ġsl ow
Ġposs ess
Ġp ron
Ġdefe at
ro g
Ġup per
ak h
Ġlaun ch
art ers
ub e
ĠAn other
Ġeth nic
ok en
Ġ âĢĶ
Ġprov ince
ĠD ire
ĠR ock
ann ing
Ġauthor ity
Ġcompet ition
Ġsugg est
or ing
Ġprogram ming
S h
am s
Ġpart ies
Ġresult ed
Ġhistor ian
Ġquick ly
W hen
it tle
Ġas pect
ĠGeor g
Ġrelig ion
Ġfig ure
Ġdistrib ution
ĠB ob
Ġsc ulpt
ĠG ames
ress ed
ort un
ĠF er
Ġappro ach
ĠCh ic
Ġval ues
Ġext ended
Ġequip ment
Ġb rief
ov ers
ens ity
Ġepis ode
Ġb urn
le m
et te
Ġstruct ures
Ġfrequ ently
l a
y al
ĠL and
Ġallow ing
Ġjournal ist
l ines
h ire
ĠS ur
am in
ĠK e
Ġform ation
Ġchar ge
Ġarg ued
Ġcour se
ĠEd ward
B A
e ks
Ġs en
Ġst aff
Ġcal cul
ĠRad io
Ġo ur
ic ians
ĠS il
ĠM oon
ĠJ es
Ġch arg
Ġagre ement
Ġh undred
ues e
ĠA zerbai
Ġn omin
iz es
ie val
Ġad j
Ġant ib
Ġbene f
Ġsh ot
Ġopen ing
mit ted
tern et
Ġdist ance
Ġt un
Ġb al
Ġre action
Ġwe ight
Ġeffect ive
Ġfight ing
Ġ x
ĠJohn son
Ġoccur red
ĠM a
Ġc ouncil
Ġcol lect
Ġfin ally
Ġinterp ret
s ong
Ġal gebra
Ġa im
ĠT est
ĠJ o
Ġbel ong
Ġbecom es
thod ox
Ġ #
Ġde ad
Ġelect ric
p ing
ĠComm ission
Ġvers ions
" ),
ĠOtt oman
l ades
ĠA M
Ġform al
ĠAb b
m ore
ul s
Ġapp lied
v ement
Ġcons erv
y st
se e
n am
Ġn ine
cre te
Ġin ternal
Ġre con
Ġre ject
ĠB oth
Ġwith d
Ġm ess
Ġre ach
ĠN ations
Ġplay s
Ġhel ped
Ġfig ures
Ġ ut
ĠA ri
Ġv ary
ell a
ĠT im
Ġnot able
Ġhum ans
Ġav oid
ĠL ife
Ġfri ends
Ġinstit utions
am m
Ġcomp ounds
Ġem phas
Ġequ al
ĠF amily
ag on
Ġro t
Ġsex ual
u an
Ġpos itive
ĠQue en
d is
ĠB i
ĠPr ime
Ġadminist ration
Ġmount ain
ĠC orn
C omp
ĠCh ile
ffic ial
ĠAngel es
Ġb ass
ĠS ub
en cies
ĠS ing
ĠD o
igh ter
Ġlead ers
Ġf er
Ġele ctions
Ã¡ n
Ġmag azine
A T
Ġt end
Ġknow ledge
i ary
t ar
Ġorder ed
ag ing
Ġset s
z ant
Ġl if
Ġnew s
Ġmanag ement
Ġobserv ed
f rom
Ġh arm
ou ra
ĠO l
Ġrun ning
Ġmar riage
Ġfav or
r um
an o
Ġf ace
Ġre pe
Ġsub st
Ġclaim s
I D
Ġl ic
iet ies
Ġdire ction
Ġcor re
ĠS und
Ġstud ent
Ġmon arch
Ġsim ple
Ġcond ition
ĠIn c
Ġun s
ĠNew s
Ġconf lict
ĠZe aland
Ġm icro
Ġcont act
Ġmark ed
Ġsubsequ ently
ĠPac ific
Ġd ark
ĠP re
ĠO s
Ġte x
Ġallow s
k ins
r m
ĠP ublic
ĠR h
Ġprot ect
Ġide as
Ġcontain ing
Ġd ra
Ġstart ing
Ġdecl ared
Ġf ish
Ġf olk
Ġh ot
Ġex amples
ĠSe cret
Ġwe eks
ĠBar b
Ġnecess ary
ĠT ri
Ġex pected
ans as
Ġcolle ge
ipl om
k en
o ir
or ter
Ġp al
Ġpass eng
Ġh y
ĠAss embly
Ġh ar
Ġsy nt
Ġrepl ace
ol n
Ġinter view
Ġpos itions
Ġill ust
r in
Ġcom es
Ġfollow s
le vel
ri e
Ġmus eum
r ine
Ġf ully
Ġprov in
Ġli ber
F A
Ġfam ilies
w ise
ĠCh ap
Ġser ious
Ġs ites
Ġb rain
Ġb ranch
ĠB ir
Ġtechn iques
it able
Ġc ru
Ġan cest
ig er
ĠU N
ĠV iet
Ġsl ight
n y
i y
Ġp hen
Ġh ol
Ġ( ),
Ġad ult
Ġear th
ĠChic ago
in ity
Ġsim ply
k in
ĠB ol
ran ge
Ġdist ingu
ival ent
eder ation
Ġse at
ĠLe e
Ġmention ed
duc ation
ĠOx ford
Ġto ld
th ing
Ġcon sequ
ĠO ut
ĠAir port
W ith
Ġm inister
os en
ell s
ĠSer b
M us
g et
Ġqu ality
Ġr ang
Ġremov ed
ĠT em
Ġres istance
Ġagre ed
ĠT ro
ĠB et
Ġst ay
Ġold est
is hes
ug by
im ens
ĠE p
Ġse ctor
clud ed
Ġprom inent
igen ous
ic it
Ġdefin ition
Ġd u
ĠS o
Ġst ra
Ġoffic ially
ou red
od ia
ĠJ im
ĠJ ean
ib b
Ġserv e
che ster
B rit
ĠW inter
te en
Ġrefer ence
Ġmom ent
Ġd ro
Ġg iving
ĠTur key
A R
ir al
Ġbas ketball
E C
os m
ĠOr gan
Ġb acter
ĠA st
Ġg ives
Ġc at
ĠH el
ron e
Ġra in
inc oln
Ġdeb ut
Ġpl anned
Ġad apt
ĠSp ace
Ġdep end
Ġsec urity
st one
ot ing
ĠH ow
ĠN AS
ant age
In d
Ġe c
Ġref ers
Ġpain t
Ġimm ig
ĠTh us
Ġem b
Ġext ra
Ġsymb ol
ct ors
ound ed
Ġact ually
aren ts
Ġp it
ĠI ran
ĠOlymp ic
Ġne ut
Ġclub s
ac he
ĠRes earch
Ġarchitect ure
ĠA ber
che stra
ĠBudd ha
Ġart icle
enn is
ruct ure
Ġet c
ĠAfghan istan
Ġcont emporary
Ġpre p
ĠPe ople
Ġdyn asty
ĠPortug uese
Ġimmedi ately
Ġcont ent
a it
r ants
or age
ĠB all
Ġor bit
Ġch urches
Ġgovern or
F C
ĠM os
inist ry
Ġth ink
Ġv ote
Ġocc urs
ĠT reat
Ġev olution
Ġmin utes
G e
i Ä
Ġre act
Ġch art
cript ion
Ġcapt ured
Ġf oot
Ġm axim
Ġun ion
ĠAd m
Ġanim al
ĠTurk ish
S p
ic ed
im ents
Ġal le
Ġb rand
ĠT imes
ĠH aw
Ġox ygen
an cy
al ign
ĠS ar
Ġg rew
Ġst ories
ĠJ os
Ġlaw yer
Ġeffort s
Ġp le
Ġp owers
ia h
Ġro yal
ĠY oung
Ġm ixed
ĠA k
am ine
ĠL ater
Ġnuc lear
' ,
Ġg un
th let
Ġv irt
Ġalbum s
ĠE lect
if ically
Ġex change
ell ow
Ġcomm ission
ven ue
O ne
on ed
ĠL ove
Ġopp osed
Ġexist ence
ify ing
Ġm ill
ĠB ible
Ġim pl
Ġspe ech
ĠSoc ial
m as
p ired
ĠF our
ĠJ ac
oc al
ak istan
Ġeff ic
Ġins ide
Ġapplic ations
ĠA ge
ĠM ajor
ill ery
Ġun d
ĠAthen s
S P
ĠDes pite
B e
Ġpurp ose
F ilm
Ġres ources
Ġsp oken
ĠBl ue
ĠServ ice
g reg
Ġb ott
ĠM at
Ġv on
ĠY ou
acks on
Ġestablish ments
Ġexpress ed
al ism
Ġl abor
Ġra ised
ĠBy zant
Ġover all
Ġiss ued
c ar
d own
ut y
Ġaut h
ether lands
Ġg ained
ĠL ew
r ong
en ant
Ġan throp
Ġp oll
Ġl ove
Ġad vert
ivers e
Ġas ked
ra cy
ĠN ic
Ġsc ore
ĠOr thodox
Ġrecogn ized
Ġnewsp aper
Ġw ays
Ġre ign
us ion
e en
it ted
ĠSt ar
aw a
B M
it age
as ka
ĠF lor
Ġdep art
Ġhydro gen
is her
ĠA ud
Ġth ings
us al
Ġwant ed
ĠC ost
Ġal ign
r ates
Ġopp osition
ĠN et
ĠComm it
Ġs port
ol is
ul ate
ag en
Ġv an
Ġdec ades
er al
Ġf ast
Ġp p
om ers
ĠU r
og y
por ation
Ġnuc le
Ġapp arent
Ġcap acity
Ġsecond ary
Ġgrow ing
Ġmy th
ap h
ĠPol ish
Ġnorm al
Ġb it
Ġbe at
Ġst ru
ac her
Ġded icated
" ).
Ġp ark
Ġm ut
ĠAnd rew
Ġengine ering
b u
u ate
Ġj oint
ed ia
ĠS ultan
ĠSt ep
Ġrec ently
ĠIslam ic
- -
ĠF ort
ĠAl so
ĠAd d
Ġregard ed
alle l
ur a
ak a
Ġtra in
Ġn ob
Ġex act
Ġpl at
f ess
ĠB eng
ĠJ ack
els h
Ġown ed
ĠEm peror
Ġsurround ing
ĠDu ke
Ġspl it
ĠF estival
ant ry
man n
Ġb ra
Ġl unar
Ġsc ored
Ġwin ter
umn i
Ġmeet ing
Ġveh icles
Ġcomplet ely
is f
Ġp air
ĠM o
Ġbe y
n ers
ĠS ab
th ur
os a
ĠU p
cl aim
ĠL incoln
Ġshow ed
Ġunivers e
Ġv ow
oun der
Ġpl ans
Ġstud ied
Ġcrit ical
Ġalcoh ol
m osp
Ġw ear
Ġnot es
Ġarr ived
song writer
ion e
ĠW ood
ĠS pecial
ĠAm az
Ġsignificant ly
Ġinhab it
b ook
n s
ut ing
Ġj ob
Ġme ant
Ġdou b
Ġsay ing
ĠN ob
ach us
Ġneg ative
Ġdestroy ed
Ġs olution
il ing
Ġn it
im in
Ġcon vers
Ġse em
ĠCons erv
ĠN etherlands
z en
Ġ iron
ĠC E
ĠR o
ĠF ollowing
ĠCon stitution
Ġterrit ories
s uch
ent ially
F rom
Ġh ab
Ġun ique
Ġim age
Ġfl ow
ĠSh ah
w an
ag h
Ġking dom
ĠHol y
Ġfa ith
ĠAlf red
u er
ĠN ap
Ġhe re
Ġro ugh
l ies
on ian
ĠC P
ĠW omen
Ġse asons
Al though
ĠVal ley
Ġsubsequ ent
ed ing
Ġre in
ĠP en
Ġrec omm
Ġmot or
o oth
Ġorgan izations
Ġlist ed
ĠCommit tee
i ot
ĠM P
Ġex clus
Ġatt ention
ĠCol or
Ġdesc ript
ony m
Ġbey ond
ĠP ope
ud a
Ġmot ion
i i
un ction
hes s
Ġqu arter
gar ia
l ife
w here
Ġun known
Ġneigh bor
ĠA ch
Ġch lor
Ġle ave
ĠAr k
ĠAb d
Ġpower ful
Ġsil ver
m ond
it zer
Ġext ensive
ĠD i
Ġstud io
Ġfact ors
Ġke pt
Ġsettle ment
y an
Ġin du
ĠP enn
pl ace
Ġcomb ination
Ġrail way
ĠDem ocratic
Ġtex ts
v is
an es
ent y
Ġpre fer
Ġwe alth
Ġattempt ed
Ġacqu ired
Ġd iplom
ur ation
et ts
ĠAs ian
Ġexp anded
ĠMex ican
% ,
A F
S ince
Ġb irds
ĠÂ £
Ġon es
ĠHe b
Ġc overed
ĠF e
Ġper man
Ġgreat est
on so
Ġg ain
ĠW al
Ġconn ected
Ġprote ction
Ġdeterm ined
Ġveh icle
S M
Ġc art
Ġp ack
ap ed
cl ass
ĠSt and
Ġmov ing
Ġimport ance
Ġachie ved
o is
Ġto urn
ĠM id
Ġab and
Ġco al
Ġhand s
Ġsh ared
Ġfif th
Ġs ister
Ġsc ene
Ġinst ance
ild ing
Ġacc omp
ĠM em
Ġc le
ĠL ad
Ġref lect
ĠBro ad
Ġsequ ence
Ġro ute
ĠDe velopment
Ġpar liament
d am
ĠB an
ĠP akistan
Ġpr ime
Ġcer em
Ġtown s
ad ron
ĠW ay
ĠAr ts
at i
az z
Ġopp on
Ġclos ely
ĠO ver
A D
in cluding
Ġhe ro
out heast
Ġoffic ers
Ġgo ing
Ġattempt s
ĠBel g
ro ll
ĠA j
ur b
Ġch ampionship
Ġbelie ve
ĠAngl ican
ĠB ak
Ġfield s
Ġident ity
h aps
Ġa ctions
or a
ĠC amer
ard en
Ġext rem
inn ers
Ġopp ortun
Ġsit uation
Ġcommunic ation
ĠT ime
ist ed
rodu ction
Ġcomb at
ĠBase ball
f in
g n
ĠJ ackson
Ġse ek
Ġr ing
Ġdiffer ence
Ġland s
Ġsqu are
Ġinstr uments
Ġcrick et
h ouse
Ġf ixed
Ġp et
os aur
ĠL ong
ĠL abor
Ġwork ers
Ġtre es
Ġmunicip al
w ing
he im
Ġpolit ics
ĠBang lades
ĠLew is
Ġh un
Ġg reen
ĠO f
Ġcondu cted
C an
er a
Ġp arents
ĠC at
ĠB ru
ĠGovern or
p resent
Ġb an
Ġm el
ĠR od
Ġar c
ĠO h
ĠCon stant
y th
ĠG re
Ġpartic les
Ġdev ice
Ġfle et
M an
un ct
ĠD ar
ĠE st
Ġwrit e
Ġlead ership
ĠRep ublican
ĠSup reme
ĠSwed ish
ĠFrancis co
Ġs ays
ol ar
ĠB ecause
Ġsh oot
Ġpe ak
Ġsupp ly
ĠBC E
Ġsuff ered
D es
ly wood
ut her
com m
ĠJes us
C ol
um ber
ren ce
Ġsign al
Ġoper ated
S c
ĠU l
ym ph
Ġhyp ot
er o
Ġr an
Ġph ase
Ã¼ r
ar us
ĠR og
ian a
ĠAr ist
olog ists
Ġback ground
Ġsus p
ag le
oc ks
ris is
Ġrece ive
Ġauth ors
er c
ĠAust ria
Ġdom estic
ir a
ib li
ĠAl aska
Ġtransl ation
A ll
Ġw ild
ro d
ĠN az
Ġn or
od ay
ĠV en
amp ion
Ġref used
Ġadv anced
Ġs ought
Ġfe at
Ġcaus es
Ġexec utive
iÄ ĩ
O M
ĠF ound
Ġab ol
tain ment
ĠCo ast
achus etts
% .
al so
Ġb ron
Ġp an
Ġm ind
An d
Ġcomput ers
ellig ence
s s
in us
Ġbe aut
Ġpro ced
ĠJ ones
ĠSum mer
ir med
qu arters
Ġres idents
Ġto ward
op les
Ġv oice
Ġstreng th
c a
Ġbe ar
ĠChristian ity
Ġhous es
b a
Ġp urs
Ġdev ices
Ġheav ily
Ġc ars
Ġar ts
Ġen j
Ġb ridge
om ew
el ig
ĠH uman
ĠE conom
Ġsem i
em ic
Ġat oms
ab et
ĠĊ Ġ
Ġins pired
Ġenem y
ct s
ĠM odern
Ġcon cer
Ġprocess es
ĠHe alth
Ġpol y
Ġcar ry
Ġc atal
Ġp ra
ric s
Ġprov ed
ĠCount ry
Ġengine er
Ġgrant ed
ĠW elsh
res h
ĠK enn
Ġnot ably
ĠAt ari
ĠAust rian
Ġvol ume
t hen
Brit ish
ad ian
ĠJ eff
Ġconst ructed
Ġworld wide
rag on
Ġsett led
A P
Ġch oice
Ġrel ative
Ġslight ly
p oint
Ġb inary
ĠAr m
ĠPro gram
Ġabs or
f all
v in
Ġalong side
Ġkill ing
Ġconn ect
Ġst orage
Ġro om
Ġarch ae
Ġeas ily
Ġbod ies
w orks
ĠA re
Ġplat form
Ġt ried
Ġh us
ĠBo ard
Ġsomet hing
ĠPhil ip
Ġfail ure
Un ited
Ġbatt les
e qu
n ce
Ġs ales
us cript
ĠThe atre
ian ts
ib n
ric ts
Ġposs ibly
u ff
ĠF ar
ord in
Ġsc ale
ĠEng ine
Ġcaus ing
Ġproject s
Ġapplic ation
ĠFore st
â ĪĴ
Ġb apt
oun ger
ĠU s
Ġequ ivalent
Ġrank ed
S O
Ġ ;
Ġb ishop
Ġdes cent
Ġdescrib e
Ġdam age
Å ¡
Ġcon vent
Ġsub stant
Ġport ion
Ġthe ories
pp er
enn a
Ġdig ital
bur gh
Ġs ides
ab eth
Ġnear by
Ġweap ons
Ġinhabit ants
Å į
Ġstand ards
Ġintrodu ction
ĠB apt
ĠO cean
ĠCh ief
Ġele v
Ġland ing
Ġgo als
ĠMan chester
d s
k h
m m
un der
ĠG ame
oc racy
Ġrecord ing
zer o
Ġredu ce
it ic
ĠR uth
Ġpar allel
Ġprincip le
rel ated
A ust
ĠSe ver
in u
Ġc as
ri ate
Ġj ur
Ġem peror
Ġdiffer ences
Ġocc asion
Ġcr ime
p ress
Ġf uel
Ġr ates
Ġprov iding
Ġmanag ed
Ġcop y
ĠPers ian
c ular
g u
om ial
ĠG DP
Ġdef ense
Ġdr um
Ġinc ome
Ġmanufact ur
ĠBul garia
olit an
Ġat mosp
ĠAr gent
ĠAzerbai jan
I V
Ġf iction
Ġord ers
inem a
Ġnew ly
Ġtem ple
Ġc ab
ĠF urther
Ġse lected
Ġwe ak
ĠFor ces
Ġmat ches
ĠChar l
Ġrul ed
ĠMass achusetts
ĠVirgin ia
al m
Ġatt end
II I
l as
Ã ±
Ä «
Ġp ict
ĠF ederal
Ġhe at
Ġpopular ity
Ġlim it
Ġmedic ine
Ġs ail
Ġf air
Ġst able
ĠE ach
ĠW ind
I A
it ness
Ġp ian
og ue
Ġch annel
ĠJust ice
G erman
c ell
ĠC ross
ay a
Ġal t
Ġr ival
Ġtransl ated
ĠSund ay
L A
b al
k es
o es
Ġde ploy
m iss
ers ey
ĠU k
Ġdis order
ĠInd epend
Ġcirc um
i ate
ug os
Ġmov ie
Wh ile
ĠColomb ia
Ġh ap
ĠT op
ĠM en
ĠColor ado
Ġd og
ur t
ĠM att
Ġob tained
Ġspec ifically
Ġport ray
Ġalgor ithm
ĠHeb rew
ing er
ĠG all
ĠL ittle
ict ions
Ġperson nel
Ġview s
ĠOff ice
c ious
Ġis ol
ĠD ick
Ġch o
Ġadv antage
Ġsugg ests
Ġemploy ed
S R
h us
Ġw alk
ĠA z
oc ated
Ġar med
Ġatt ended
Ġliter ary
r at
r ator
Ġar ms
Ġcreat ing
ĠStep hen
st ream
ĠT w
Ġhon or
L ist
ĠM ic
Ġassoci ation
iv als
ter m
Ġexist ing
Ġd ance
el d
ĠB us
ĠJ ournal
Ġcount y
Ġtrans form
ĠT re
Ġpro port
Ġwhere as
Ġli qu
ĠPro ject
ĠChrist ians
ament al
v est
st ruction
ĠC am
Ġfe el
ograp her
Ġbron ze
n o
r ade
ĠP ost
hip s
Ġemp ire
Ġsucceed ed
Ġf elt
Ġm aster
ĠS ong
ag er
Ġreg ist
Ġincreasing ly
Ġc ensus
Ġal one
ab ama
Ġfl ag
ĠInd ones
Ġentire ly
ĠGeorg ia
or g
or gan
Ġmin im
Ġpain ter
ĠPhil ipp
a is
b ell
i ography
ĠI V
ag an
Ġcont ext
Ġacc ur
yl van
Ġadv ance
Ġprincip al
ĠSen ate
Ġcompon ents
h at
ĠM od
ition ally
ĠCl in
Ġ. ..
Ġdescrib es
ĠSwed en
p an
he w
am ic
ad el
ra cted
ĠG al
Ġact s
Ġvis ited
usal em
L iving
Ġb atter
ph a
Ġsol id
ibb ean
ĠS at
Ġre asons
Ġl ingu
ra q
Ġch osen
Ġdevelop ing
Ġcoll abor
ĠProt est
Ġl y
ĠM ir
and y
ĠG er
âĢ Ŀ
ov ak
Ġcontro lled
Ġcolon ies
Ġconver ted
ĠCyp rus
Ġb ond
ut ation
ĠA wards
Ġh op
ĠC y
ĠP op
ip h
ip el
Ġdem and
Ġste el
ĠCub a
S T
g ment
el lect
ĠM ilitary
ab ul
act ive
Ġserv ing
eg et
Ġadminist rative
w ana
Ġp aid
ĠA BC
ĠC re
Ġcomm ander
Ġstr ateg
Ġtrib es
Ġneg ot
Ġsaf ety
ar on
Ġb ad
Ġfor ward
Ġg irl
ran ean
Ġpe oples
Ch rist
Ġcolon ial
ĠTreat y
C om
r Ã©
u is
ree k
Ġro b
v ard
ĠR ay
Ġcom ing
ĠEn d
Ġuse ful
ĠFlor ida
g rad
p read
Ġc e
ad ed
Ġcom edy
Ġcont ained
ograph ical
Ġchall eng
g a
re c
ĠC atal
ĠM ov
Ġg ot
Ġro ll
ĠTe am
A p
em is
Ġar bit
Ġpr int
ides pread
Ġconstit u
c rib
g al
t es
Ġs now
Ġorgan ized
Ġtyp ical
ĠEgypt ian
b i
i enced
Ġd iam
ĠE le
av ed
Ġse ats
ĠAr thur
Ġform ula
ctor al
rap y
k o
ĠA T
Ġre ports
Ġcour ts
l ers
en ing
Ġb ul
el er
Ġpro ceed
ill ing
Ġsh ape
Ġform at
ob e
amb ig
Ġgl ass
ĠWilliam s
Ġhus band
Ġw ave
ĠS em
am ber
ee k
Ġreject ed
Ġenj oy
st ate
Ġout put
Ġinv asion
M ost
qu es
Ġsp ring
Ġult imately
Ġbott om
C C
our ce
Ġdef end
cul es
Ġoccup ied
Ġphen omen
A f
v ant
in th
Ġl ives
ut s
Ġun iform
Ġtw ice
ĠHung arian
I f
Ġf ans
ic on
Ġd aily
Ġst one
ĠN FL
ae us
Ġmed ieval
Ġinflu ential
Ġhold s
T rans
ĠT our
us es
ĠDe v
Ġdr ive
Ġagric ultural
t ure
ab il
Ġunder standing
ict ional
Ġret ired
Ġprom oted
ĠKore a
ĠF ree
ins on
ra f
Ġdep ending
ylvan ia
Ġcon cluded
ĠIn st
ĠAl c
Ġcontin ues
au x
O r
is d
Ġc ool
Ġd ang
Ġcon sec
ov a
Ġset ting
Ġrequ ires
Ġdr ink
ĠEl iz
ĠAtlant a
s et
Ġ Ä
ĠA le
Ġal umni
ĠSt an
ĠCor poration
Ġreve aled
Ġc ards
ĠC el
ĠJ r
ph y
C ar
n es
Ġa id
olog ies
Ġauthor ities
ĠProv ince
ĠVictor ia
ibli ography
n on
ĠG ar
Ġass ault
Ġshe ll
Ġofficial s
ĠBrazil ian
ĠBos nia
R A
g arian
ct ic
Ġqu ite
Ġtit les
Ġcorre ct
w ick
Ġa er
Ġw idespread
ĠG h
vent h
ĠLiber al
Ġspirit ual
b ar
Ġ ibn
Ġs an
Ġc orn
ĠH or
ash ion
Ġ Ð
Ġthe rm
ĠD er
ain ts
Ġexp ed
ray er
ĠConf uc
ĠCommun ity
Ġpie ces
ĠNob el
G eneral
et a
ĠM aced
ĠJ on
ĠIn f
Ġspe ak
ĠAust in
Ġz one
iter ranean
Ġmathem atic
ĠByzant ine
ĠB owl
av a
Ġch ap
Ġy outh
l ation
Å Ł
an cing
Ġs omew
ĠA I
Ġn ations
ĠE th
Ġv ess
Ġhe ight
ĠTh ree
Ġcy cl
Ġastron aut
Ġmaxim um
Ġs n
Ġis ot
ĠEar ly
ĠKore an
Ġf irm
Ġd ensity
am ing
Ġse ems
Ġprodu cing
Ġass igned
Ġtra ffic
Ġart illery
unic ations
Ġlab el
ĠChampionship s
Ġaspect s
l aw
p ool
in du
ast s
Ġcomp il
Ġad ap
iss ance
Ġgener ation
Ã £
ĠJ oh
Ġpre par
Ġact ual
ĠCar ibbean
ster dam
Ġtemper atures
ĠKh an
ĠJer usalem
i ac
t i
in y
ĠA P
and om
ĠG ood
Ġclass es
ĠM icro
ĠLab our
M any
Ġt aught
Ġs ons
Ġn ick
ĠM ot
ĠD NA
ĠL uc
ĠW ell
Ġrel ation
Ġdesign s
ris ing
Ġcur ren
Ġfac ilities
Ġconne ction
Ġf rag
ĠB att
Ġfact or
Ġsym pt
ĠAngl o
Ġfeat uring
W e
k er
ad or
ĠW ater
ph one
Ġbeg ins
ĠSecret ary
W orld
t own
re es
Ġan arch
el ve
Ġg uns
Ġac ids
Ġpo em
Ġconsist ing
Ġenvironment al
Ġbur ied
Ġatom ic
e ed
Ġp ure
um es
Ġun able
Ġpublic ation
Ġpract ices
Ġscient ists
Ġregard ing
d a
al ion
ĠF ield
ib l
ĠCor ps
Ġge omet
an th
Ġb in
Ġm ort
et ary
ĠK ent
Ġcol umn
ĠBu ff
Ġnar row
Ġagric ulture
al us
ĠH a
Ġend ing
Ġrev olution
Ġvis it
Ġbeg in
Ġanal y
ĠW ars
ag ement
Ġmet als
Ġsim pl
ĠCent re
Ġprop os
Ġaud ience
ĠCroat ian
ĠAlbert a
M ed
Ġ Å
at ically
ĠI ll
ĠF A
ĠL es
Ġren amed
Ġcy cle
Ġcontrib uted
Ġmagn itude
Ġpron oun
ĠNAS A
ĠD ie
Ġus ers
Ġman uscript
Ġexpress ion
i at
r ust
Ġf ought
ĠH ot
ĠR am
ran ce
Ġst ring
est abl
ie ut
ĠDan iel
Ġthous and
O L
e ing
ud get
Ġch rom
Ġresp ond
ĠPol and
ĠConf eder
Ġquant um
ĠViet nam
d ess
en ge
Ġch ain
ov en
on om
ĠP rem
Ġsc hem
Ġemer ged
Ġch air
ĠBanglades h
' .
u ing
á ¹
Ġc osm
Ġst ock
ĠW eb
ĠAl abama
Ġact ors
Ġed itor
oph ical
Ġthous ands
Ġalle ged
Ċ ĠĊĠĊ
Ġmed ium
Ġsupport ing
Ġcondu ct
S I
w estern
Ġc rop
il ly
ĠH on
ĠD anish
ĠSt at
Ġconf irmed
Ġcrit ics
Ġabs ol
Ġepis odes
Ġcandid ate
Ġtheore m
Ġs le
ĠC ape
ol t
ce ived
im a
ke e
Ġte aching
Ġstat ement
w ich
Ġl at
ĠE ven
op hers
Ġspe akers
ful ly
un a
ĠI raq
E urope
N e
l ow
ol y
ig an
Ġsu fficient
" |
ĠP ubl
os ure
Ġy ounger
g est
Ġst y
Ġr ich
rop olitan
ĠMed iterranean
is er
ĠS ports
ad ing
Ġse lect
ĠIn ternet
Ġcomp osition
ind ing
Ġph r
ĠBo oks
Ġexper ienced
ĠBel arus
Ġox id
Ġexcept ion
L e
ĠM inistry
un c
Ġcon crete
Ġex ternal
ant ic
ish ops
Ġy ield
ham mad
Ġneed s
Ġimpro ved
ĠC oll
ron ic
Ġcal c
ĠFound ation
ĠF ox
ĠN ight
ĠJ ersey
se y
ĠEn ter
ific ations
Ġattrib uted
ĠEliz abeth
ter y
Ġus age
Ġwall s
il a
av ig
Ġact ing
Ġtechn ique
Ġhard ware
Ġguitar ist
j a
in ction
Ġl osing
ĠF orm
ain e
ĠJ an
Ġdesign ated
ĠAb u
Ġgood s
rast ructure
ar at
ĠE ducation
we alth
Ġthem e
Ġtrad itions
Ġformer ly
ĠSant a
P olit
Ġex ists
ĠCh ild
ĠAl b
ins ula
Ġmain tained
Ġhost ed
Ġ ion
Ġf ear
Ġv eget
ĠO pen
ish ment
io x
ĠAm ong
Ġdesc end
ĠM iller
Ġon to
ne g
Ġhistor ic
ĠAg es
Ġtest ing
L U
Ã ¸
ĠM r
res ents
Ġpop ulations
ĠOr chestra
Ġaccount s
ĠâĢ ľ
Ġrough ly
% )
in stein
ĠS a
ĠB oy
Ġdist ricts
Ġtechn ical
Ġinstit ution
ph al
Ġdo ct
ĠMar ia
Ġline ar
Ġh ospital
ĠG en
Ġsu p
Ġr ivers
Ġother wise
Ġfl at
the less
Ġfre edom
Ġgen etic
Ġattack ed
Ġtri al
Ġtourn ament
c alled
ic ks
Ġal leg
ĠD ig
ess ion
Ġpre ced
Ġdomin ant
Ġlearn ing
Ġc a
se ud
ĠAn th
ĠSh ort
Ġinvol ving
Ġimpro ve
ĠCarol ina
Ġhap pen
ambig uation
Ġr ugby
Ġcan cer
Ġmusic ians
wh ile
ĠFre der
u z
Ġb ran
as y
ent ions
hen s
Ġsever e
Ġtit led
Ġhab it
ieut enant
R I
ĠL ine
ost er
ath an
Ġmod ified
ĠGold en
ĠTechn ology
Ġw arm
Ġcom ic
orn ing
Ġcap tain
Ġbro ke
ĠAss y
Ġcapt ure
Ġpric e
P S
oc ument
Ġres emb
Ġper haps
Ġaff ected
Ġsw im
Ġunivers ities
ĠArmen ia
Ġd ates
ĠB alk
Ġcontinu ous
Ġtransfer red
ĠOh io
s ylvania
Ġ zero
ur rent
hem ical
Ġsuccessful ly
Ġconcent ration
l an
Ġm outh
ĠM un
Ġcons cious
Ġdr iver
Ġpurp oses
c op
Ġb ip
Ġto m
Ġl oad
ra v
ri ot
Ġv ast
ap pe
Ġrep resents
Ġair port
Ġbi ological
Ġphilos opher
Ġsen ior
N ot
in ations
cy cl
ĠBul garian
Ġpil ot
em en
Ġpro s
Ġle aves
Ġtrans ition
ĠSh ow
Ġext reme
P op
it led
Ġst re
Ġst ress
av en
Ġmult i
Ġviol ence
ĠTer rit
l anguage
ĠP ower
Ġal ter
ĠD or
Ġcall s
ĠAm sterdam
Ġsat isf
Ġrepe ated
al y
Ġf ounder
Ġd ry
Ġappro ved
Ġhead quarters
g ers
Ġc ore
Ġm ilit
ĠC as
Ġad vent
ĠPro fess
Ch ar
Ġop in
h arm
Ġp age
ĠA S
ĠA ff
ĠO d
ĠĊĠĊĠĊĠĊ ĠĊĠĊĠĊĠĊ
Ġpurch ased
Ġ ign
Ġob tain
Ġsur vey
ĠAd am
Ġsuccess or
Ġsk in
Ġvoc al
B T
M ar
o ids
t op
Ġs we
ĠB on
Ġth rone
pt on
ĠAt t
Ġext ent
Ġpat ients
Ġvict im
Ġdial ect
ĠDen mark
ĠBru ce
Ġt al
Ġpl ane
ran e
Ġwor ship
Ġfrequ ency
Ġcoast al
Ġcompar ison
Ġperman ent
Ġextrem ely
ed a
st ood
ĠE uro
igh th
Ġus er
Ġag o
ÃŃ a
Ġfoc used
Ġaband oned
T o
c ers
Ġc od
Ġw aters
ĠB av
ri x
ĠK el
erv e
rop ical
Ġenc oura
Ġpie ce
ĠMu hammad
Ġwithd raw
dis ambiguation
Ġl ies
ĠL yn
inist ers
ĠFl ight
ĠSte ve
Ġin put
Ġinn ov
Ã£ o
w orth
le ft
Ġst ream
ĠAb ra
Ġdecl ine
Ġsepar ated
ĠAlexand ria
ĠPenn sylvania
ĠSever al
Ġm ap
ĠN ative
Ġsu st
Ġex am
Ġpl ate
ĠBelg ium
er g
ĠD am
ag u
ill es
hed ral
Ġind igenous
ĠComm and
ĠPl an
Ġnorm ally
ĠBuddh ist
M embers
Ġc rown
ĠM ike
ud es
ru ctions
own ed
Ġvis ual
Ġprote in
Ġmathemat ics
Ġliqu id
ĠClin ton
e ctions
Ġs ort
Ġp ick
Ġg ar
ĠF ame
ĠK en
ĠChrist mas
Ġaff ili
Ġcompon ent
ĠNet work
Ġsympt oms
ĠB a
ĠB ad
Ġear ned
ĠPro du
Ġdep os
Ġtradition ally
Ġche ck
v i
Ġs un
Ġf estival
ĠH ell
ag ues
Ġte ach
Ġro les
Ġatt ract
Ġass ass
Ġclass ified
Ġval id
Ġbusiness man
Ġhold ing
A c
ĠL im
ĠTh ird
Ġcons on
Ġprom otion
ots wana
Ġgreat ly
Ġpolic ies
Ġess ential
Ġt ru
ĠM ach
ot al
ĠF ried
ĠW at
Ġband s
Ġappear ances
Ġaccomp an
r ating
Ġc risis
Ġun p
ty m
Ġexpl ain
de en
Ġhistor ians
ĠHung ary
t ra
ic y
ĠT al
Ġch ampion
Ġwrit ings
Ġint ellect
Ġne uro
uss els
erson al
clus ion
Ġ( ,
Ġstrong ly
Ġn ort
ĠM arg
ĠD ip
ĠF ront
ĠJ oe
uss ian
Ġincre ases
for mer
ĠFrank lin
ĠPortug al
osaur us
ĠArist ot
ĠC ay
ul es
ĠR et
ate ur
ip her
ĠSe c
Ġcol ony
Ġdisc ip
Ġrad iation
Ġincorpor ated
E R
w all
| |
Ġb oy
ĠF le
Ġdec ay
Ġdec ade
ĠPol it
Ġmiss ions
Ġconcern s
Ġrat io
a ug
Ġm ic
le ts
el ess
id el
ĠH un
ĠD un
ĠL y
ĠUn ivers
Ġim ages
Ġnov els
Ġdro pped
N ational
Ġt act
ĠC O
Ġlead s
ĠGu ard
Ġdel iver
adel ph
Ġc ogn
ĠG reg
ĠO ri
cent er
Ġanal og
Ġtw enty
ĠWil son
ĠW ork
dom in
Ġinterp re
u ous
ĠC D
et ime
Ġinvol ves
Ġconsider able
Ġvoc als
ĠJ un
Ġr h
iz z
Ġev olved
ĠCast le
Ġinterpret ation
k now
z eg
Ġh al
ĠP C
Ġr ural
ĠSt ation
Ġoff ers
ĠCon ference
Ġoper ate
Ġaff ect
Ġcr im
ĠBas que
Ġgod dess
o en
Ã º
Ġt iss
Ġm or
Ġl ibrary
Ġst reet
ĠSt adium
ĠOr ig
Ġchem istry
Ġvari able
Ġrapid ly
Ð °
Ġt ank
Ġm oral
ĠL i
ĠCh ad
Ġag ent
Ġsp ons
iver pool
l oad
Ġt ail
om orph
Ġal umin
ĠAl ger
Ġdep artment
rid ges
row s
Ġcharacter istics
Ġestablish ment
Ġindic ate
Ġtre ated
ĠKn ight
ĠOper ation
Ġt im
Ġn aval
ĠH ome
Ġcomp l
ren der
Ġcap able
Ġeng ines
Ġcor por
ĠRuss ell
Ġscreen writer
Ġmathemat ical
l arg
w a
Ġk ings
Ġend s
ĠSc iences
ut ies
Ġsl aves
Ġdisc overy
Ġadap ted
W est
ĠP ass
ĠO b
ru it
Ġnum er
Ġleg end
ĠStud ies
c ome
es h
Ġf ashion
ro ph
Ġbe ars
Ġmov ements
ĠBr ig
ĠArmen ian
Ġjur isd
E S
p et
ĠB ridge
ist ical
ĠH an
ĠColumb us
ĠBab yl
Ġalph abet
s k
x ic
in ian
ĠH ay
em ale
Ġcl in
Ġdec or
ris es
Ġeffect ively
ĠSw iss
Ġdeb ate
Ġconsist ed
Ġinvest ment
Ġdescript ion
P re
ĠB rian
ri ers
ult y
ĠAl i
Ġform ally
Ġapp rop
Ġrest rict
ym n
ĠReg ion
Ġpen al
Ġdram a
Film s
Ġcrim inal
Ġm ist
ĠM arsh
os ph
Ġv ac
Ġex port
Ġex pect
ov ina
Ġcommit ted
Ġsomew hat
F rench
Ġb udget
Ġg ram
ĠD et
Ġform ing
Ġprincip les
ĠMount ains
Ġcateg ory
Ġan s
Ġb anks
as i
ĠM ax
Ġim perial
Ġshort ly
ĠPal ace
Ġprovin ces
adelph ia
a o
or us
Ġd oll
Ġbe er
ĠH y
ant ly
Ġserv es
Ġcop ies
Ġdoc uments
Ġdeterm ine
Ġdrug s
Ġan x
Ġth ir
ĠF air
ang el
we gian
Ġfund amental
Ġmount ains
Ġdial ects
Ġbran ches
% ),
U s
ĠC r
Ġre tain
ol ia
ur ance
Ġv ent
Ġun c
ĠV is
Ġacc ord
ann a
Ġprocess ing
Ġstat istics
b illion
Ġc old
rom e
Ġart icles
Ġcontro ll
Ġf ram
Ġh all
ĠP ier
ap se
ik a
Ġinc ident
Ġphys ics
Ġarran g
ĠBeng al
H is
Ġ ille
ad er
if ul
ĠK ong
end ar
ĠCamer oon
ĠT it
Ġso le
Ġadd ing
ĠPh ilos
de f
Ġabsol ute
e z
f are
j o
z ona
Ġt ons
Ġf resh
Ġass emb
Ġloc ations
Ġrepresent ing
Ġsold ier
Ġesc ape
ĠCommon wealth
e ign
ic ide
Ġopp os
Ġhor iz
Ġcorrespond ing
Ġcry st
ĠCost a
d on
Ġa ster
ĠB rad
ĠV i
ke ley
Ġrepresent ation
Ġdeb t
b ec
v ious
ific ial
Ġcamp us
Ġgrad ually
U S
Ġc ited
ĠB rand
us hed
ĠL t
ap es
Ġpartic le
Ġdel iv
ĠFore ign
Ġ rom
Ġs ulf
Ġb er
Ġp ione
ĠA cc
Ġunder stood
Ġown er
Ġperiod s
Ġdirect ors
Ġelectron s
F ollowing
H istor
a fter
h is
i able
ri ff
ok a
Ġmod e
ĠCon n
Ġap art
Ġed ge
Ġmark ets
uis ine
Ġsty les
J ohn
Ġw ing
Ġv ir
Ġor b
Ġpresident ial
Ġbal ance
ĠNap ole
he tic
re ll
Ġident ify
Ġlow est
ĠProtest ant
ar ry
Ġb ill
ĠB ed
so ft
Ġab ort
Ġext ension
Ġrecogn ition
Ġachie ve
go ing
Ġprep ared
o que
v ements
Ġf ranch
ĠM es
op t
av el
ĠConstant in
Ġb one
ol i
ĠB M
ĠR ights
os h
ĠL iverpool
te xt
Ġoper a
Ġdiv isions
Ġder iv
Ġhouse hold
sen al
Ġnewsp apers
a very
Ġm and
om a
Ġsh all
Ġre ferences
ĠH it
ĠR oll
ate gy
Ġr andom
ĠK y
Ġinf antry
Ġstr ategy
ĠSam uel
Ġax i
C ont
ab ilities
Ġsix th
C S
S ources
Ġp itch
ĠB oys
ĠH o
ĠH art
ik h
Ġcharacter ized
Ġrest aur
Ġdomin ated
Ġang le
claim ed
ĠBuff alo
ce ae
ĠIn dust
ath s
Ġshow ing
d i
ĠA N
pp ing
cer tain
oper ation
Ġinj ury
ĠRail way
Ġw inners
ĠV an
Ġbro wn
ar ks
Ġse lection
Ġacc used
Ġfound ing
Ġdel ay
Ġcop per
ĠTem ple
ĠOrgan ization
itzer land
Ġpart ner
ĠY an
Ġwe ather
Ġexp and
ĠMed al
Ġfav our
ĠAC LU
Ġd rop
ĠT oday
ĠL uther
ial s
Ġlin ked
Ġexist ed
Ġarg ument
Ġpri est
Ġf ile
ĠPhil adelphia
Ġsurv iving
ĠQue ens
enh agen
a ver
p rodu
Ġin ner
Ġd iverse
un ch
Ġv o
ant e
over eign
ĠMar c
ĠBro ther
Ġelectron ic
Ġpers ons
Ġadvert ising
" ;
Ġw ars
Ġw inner
ĠE U
Ġpl ot
ĠPal est
Ġdeg rees
Ġcritic ism
Ġceleb rated
Ġassum ed
Ġstra ight
ĠAbra ham
er ted
Ġcon j
ĠF a
ĠG r
Ġnot hing
ens es
Ġro ot
Ġover l
Ġinst ruction
Ġfe ed
Ã© e
ĠCol on
Ġlin k
Ġenc ounter
Ġcharg ed
crib ed
Ġd ating
ĠS el
ĠR un
over ty
Ġass embly
enn ess
Ġdetail s
g ence
m at
Ġin hib
id ae
Ġst ret
Ġwh y
Ġent ry
Ġret ire
Ġexpl o
Ġmeas ures
Ġcost s
Ġfell ow
d ie
j amin
Ġin tern
Ġd ie
ĠS ymph
ĠL ike
here d
ĠCon vention
Ġsur render
Ġfund ing
spe aking
ĠRog er
B ibliography
b ishop
w right
ar p
ĠAl an
Ġfound ation
ĠAlexand ra
N P
b ut
Ġt alk
Ġa ware
ĠS on
Ġre aching
Ġphys ic
Ġschol ar
Ġdocument ary
Ġhor se
i ency
l ig
n i
ul ed
ĠG ulf
ĠN iger
Ġk il
ĠAn at
Ġim ag
Ġexper iments
Ġide al
Ġstri ke
cycl op
zeg ovina
ar ation
Ġan ch
Ġb ow
Ġre tained
Ġ( ).
ĠF ederation
Ġro ads
ĠLe on
Ġdet ect
idd en
Ġadop t
aval ry
Ġpoet ry
Ġcust om
ro up
Ġh app
ĠC ab
ivers ary
Ġbl ues
abl ed
An other
Ġdecl ined
ĠSl av
ĠAber deen
ĠAmaz on
ĠPrem ier
ĠConstantin ople
Ġa wards
ic ism
ĠB od
Ġn om
ch ang
Ġv ector
ĠTh rough
Ġph on
ĊĊ ĠĊ
R oman
m aking
Ġs ed
om ical
st an
ĠG ord
Ġit ems
se a
ĠAn cient
Ġgovern ments
Ġgu ard
ĠBe fore
ĠArt emis
Ġprofess or
A pp
N T
u ccess
ĠD ue
Ġpro hib
Ġsp aces
Ġfl oor
Ġexpl ained
Ġmunicip ality
Ġdra wn
ugos lav
Europe an
p ass
Ġs ell
ro gen
ĠS and
Ġe gg
Ġv el
Ġun us
Ġdis pl
Ġacc ident
Ġexpl an
ĠHol lywood
bour ne
d ers
Ġb ases
Ġro ots
Ġequ ation
Ġprom ote
Ġbrother s
rupt ion
ĠWal ter
Ġr ub
Ġunder stand
Ġref uge
Ġtransport ation
Ġamount s
ĠWall ace
ĠS us
Ġst rict
od ium
Ġv en
ok ing
Ġprodu ces
Ġfe et
Ġocc as
Ġrul er
Ġparticip ated
v o
ĠB otswana
ot ten
se x
Ġconf ig
sc ape
Ġens ure
ela ide
ĠEr n
ĠAdm inist
f ather
Ġo vers
ĠB urg
if ies
gl as
Ġra cing
Ġso il
ĠGerman s
Ġorig ins
Ġmass ive
Ġmer ch
Ġprote ins
l ong
n ership
Ġt ests
Ġf ine
ra c
Ġac know
Ġcover age
ĠBron x
Ġmole cules
f ort
ĠG oth
Ġhe ard
ĠO fficial
Ġcl oth
Ġfl ed
Ġcult ures
Ġreturn ing
ĠBr ussels
L eg
o ft
Ġto ols
ĠS ay
Ġre actions
ĠB ow
ĠR os
ĠK ir
Ġexec uted
Ġperforman ces
ĠIm perial
I T
as ure
ĠL ov
ĠW ild
ĠK er
Ġpre domin
Ġgo es
in ally
ro c
ro om
ĠS ax
Ġex erc
Ġsh ut
Ġres ident
Ġsy nd
Ġatt ached
Ġrep utation
Ġsing les
Ġspace craft
Ġcred ited
Ê ¼
Ġm il
Ġas c
ĠD ak
ac ent
ĠO t
Ġr it
Ġdo ing
ĠBal tic
arc hers
pr ise
ĠBah Ã¡
tar io
Ġpasseng er
Aust ral
Ġexped ition
ĠM ill
ie ge
Ġey es
ĠAristot le
Å «
Ġc amer
ĠS yd
Ġre cept
Ġk id
Ġra ces
li um
Ġcol our
Ġmembers hip
Ġhistor ically
ĠHer zegovina
Ġaccompan ied
st e
am ics
Ġas pir
ĠL M
Ġman ner
ĠNor way
Ġsurv ived
Ġcommit tee
Ġrare ly
Ġdeliv ered
Ġt ren
ic as
Ġex ceed
Ġper fect
Ġass ess
Ġrequ est
ama ic
ĠAri zona
Ġopportun ity
T ele
Ġt ennis
Ġst ore
ĠTh ough
Ġmod ule
iven ess
Ġelect rical
ĠSw itzerland
Ġprot ected
Ġeduc ational
Ġperform ing
ibl ical
Ġthe rapy
oc ol
ĠCh annel
ĠV ar
Ġinf rastructure
Ġpolit icians
Ġeng aged
Ġrese archers
Ġmeas ured
cel ona
Ġforest s
Ġbacter ia
ĠCel tic
Ġoppos ite
Ġf aced
ĠS her
ĠM it
ĠAr amaic
Ġag ents
Ġcar rier
Ġexpl os
Ġadv oc
ĠTrans port
Ġsymb ols
Ġdom ain
Ġweap on
m ers
r ame
Ġf ly
ĠA ld
ĠS uch
Ġsh if
ph ib
Ġtra v
ĠAd rian
Ġant ip
Ġdisc over
Ġmusic ian
ĠBet ween
Ð ¾
Ġm amm
ĠA qu
Ġh air
ĠD ur
ell ite
Ġint elligence
Ġen h
Ġpre y
overn ment
ĠComp uter
Ġdi agn
ĠArk ansas
Ġmathematic ian
ĠAnth ony
Ġc hess
ĠA ph
ĠT ay
ĠR el
ag re
Ġle ct
Ġwe b
ĠOn ly
Ġclass ification
Ġcer t
ĠHar vard
ĠBel gian
Ġren ew
Ġdistrib uted
Ġdise ases
Ġcrick eter
i op
ĠI BM
Ġmon aster
Ġsl ave
oss ible
rael i
ĠSim ilar
ĠJac ob
ĠC irc
ĠN ever
ĠCh ampions
Ġfl ood
Ġappe al
ĠOn tario
pect ive
Ġdest ruction
Ġlegisl ation
Ġconvers ion
Ġg ene
ĠD omin
Ġev al
Ġmod er
Ġrem ark
Ġtra cks
Ġsuccess ion
Ġpass ing
ĠAugust ine
ĠMuslim s
ĠStand ard
Ġoccasion ally
l on
re al
Ġf il
ou st
ĠR on
ear s
Ġcont est
Ġvis ible
Ġsubstant ial
P r
o a
Ġs oul
es c
Ġm obile
ĠA th
ol as
ĠW eek
Ġv oted
ĠAn ne
Ġent itled
Ġreb ell
Ġcritic ized
Ġmanufact uring
Ġconcer t
h u
p ower
Ġl aid
Ġex cess
Ġnot e
ĠBe ach
Ġjud ge
Ġarrest ed
z ym
at ics
Ġb right
ĠT ony
ĠP ot
Ġval ley
ĠAir lines
ĠRep resent
app ing
ĠKar l
Ġprefer red
Ġatmosp here
c ock
j i
Ġn avig
Ġcom ed
ok ed
Ġne ither
Ġsub stit
Ġcolle ges
Ġmoment um
Ġpenal ty
b ox
at ab
Ġb orders
Ġv otes
Ġro w
Ġro utes
Ġsub t
Ġterm in
ĠMar ine
ĠNor wegian
ĠMich igan
Ġmiss ile
Ġarm ies
Ġrequire ments
force ment
Ġly rics
O lymp
r un
Ġa qu
Ġo d
Ġc overs
ĠM and
ra ge
Ġres ist
In ternational
Ġcan on
Ġsc enes
Ġrec ip
Ġsupp osed
Ġabs ence
ĠCap tain
ĠDou glas
ĠBern ard
Ġpaint ings
e ast
r ary
Ġe agle
ĠH indu
ath y
ĠPh ys
ĠPr im
Ġsol o
Ġview ed
Ġbehav i
Ġneigh bour
Ġcou ple
Ġnick n
ocument ary
Ġ *
Ġs ter
id al
pe ople
ub le
Ġam mon
Ġorgan ic
Ġredu ction
Ġtreat y
Ġhous ing
Ġconstitution al
Ġconvent ional
ĠBapt ist
b es
Ġf al
Ġh uge
ĠB and
Ġn ode
ĠF ather
our se
Ġcomp ound
Ġdep icted
Ġinit i
ĠTr ade
ĠBen jamin
Ġtour ism
Ġrespons ibility
ĠFreder ick
ĠSymph ony
s ky
on omy
re hens
Ġw rest
Ġm ales
ol id
ul ating
ĠG ran
are t
ĠY ugoslav
ail ed
Ġimp rison
ĠPr in
sh ire
Ġnet works
ĠRev iew
Ġprin ted
Ġcerem ony
ĠNaz i
Ġbapt ism
A N
ĠF ord
Ġsu it
ens is
Ġsp ot
Ġcolle cted
ĠMed ia
Ġden omin
inent al
Ġregular ly
Ġcateg ories
ĠDef ense
he astern
em an
ĠF all
Ġun f
ĠAd vent
Ġpercent age
Ġlearn ed
B o
Ġm as
Ġm orph
Ġ( ;
Ġst im
ĠF al
Ġcar rying
Ġexpl icit
ĠEar l
Ġver b
Ġgod s
ĠJoh ann
m es
Ġst ages
ĠD C
Ġpart ly
ĠHe ad
Ġass istance
Ġest ate
ĠAm b
Ġaff airs
ĠBer keley
Ġpract ical
ĠCa es
Ġcontrovers ial
F ran
Ġs ample
Ġre ar
Ġn oun
ell er
ire ct
Ġsc hed
Ġstand ing
Ġrepl acing
ĠCro wn
Ġtw elve
ĠSec urity
Ð µ
Ġin her
Ġf oss
ĠH u
Ġpar am
Ġsol ar
Ġprison ers
Î ±
Ġth ick
ĠH ab
ĠH ospital
ĠG ib
ag a
av ian
Ġcl im
Ġgener ated
Ġsl avery
sc ale
ĠPe ace
ĠMur ray
Ġcandid ates
Ġcontrovers y
ĠDire ctor
Ġhy per
R es
s es
Ġt ry
Ġt ells
Ġn one
Ġvar iant
Ġimplement ed
imens ional
g om
i ations
it ations
Ġf est
Ġm art
ĠE ll
ĠJ ury
Ġr id
Ġy ellow
Ġorgan isms
Ġredu cing
Ġgra v
ĠAdd itionally
ĠSyd ney
l o
r ors
Ġa thlet
Ġw a
ĠA L
ĠB erm
ĠH al
ĠN ich
Ġun certain
ĠK al
Ġarr ival
ĠSpe ars
tym ology
f e
s ki
ic ation
Ġd iox
ĠI d
ith ms
ener ation
ĠAll en
Ġorigin ated
Ġsuper ior
Ġunivers al
Ġmess age
Ġsubst ance
m outh
Ġs overeign
Ġb ought
Ġp ul
ĠA e
ĠM ain
ĠH op
Ġst adium
ĠW rit
Ġy our
Ġcons pir
Ġgro wn
Ġinter ests
Ġsign s
ĠDef ence
Ġconqu est
Ġbenef it
Ġneighbor hood
n al
Ġt rying
Ġc avalry
Ġm arg
ĠR en
ri k
ens ions
wh o
Ġphilos ophers
Ġquest ions
Ġhun ting
b age
Ġs and
Ġm ir
ĠL ight
Ġinf in
Ġcol ors
ĠGl obal
Ġstri p
Ġpasseng ers
ĠIndones ia
Ġconsec utive
om pl
Ġg iant
our ney
Ġar sen
Ġtrans mission
Ġexp ensive
rick et
Ġemploy ees
Ġsit uated
Ġassist ant
ĠConserv ative
R eg
Ġb ishops
Ġp overty
Ġst orm
ĠD ram
Ġwor th
ens ed
Ġinter ior
Ġcall ing
Ġinv ented
ĠAm iga
Ġlast ed
Ġfac ility
Ġmechan ical
Ġbrief ly
P C
h ard
it arian
ro se
Ġre ality
ĠThe n
ĠF ire
ĠF red
ĠDe ath
Ġind ex
Ġpo ison
Ġstru gg
Ġminim um
ĠCay man
D A
c ap
en burg
ĠF und
ak ed
Ġele ctoral
Ġer ror
Ġclos er
Ġconcept s
Ġey e
Ġpattern s
Ġastronaut s
Ġdoct rine
c os
Ġo ri
Ġo cean
Ġc row
ĠS ix
Ġth row
ĠN on
Ġpl anning
ĠSt ock
ĠĠ Ġ
Ġplay wright
Ġbro ken
ĠRoman ian
Ġrepresent ative
Ġsol utions
ĠDem ocr
ĠYear s
Ġgraph ics
ĠGord on
Ã «
al ysis
Ġc ave
Ġc uisine
ar ant
Ġb ot
ic ular
Ġd ual
ĠM oh
ĠH ou
um ed
Ġsubs id
Ġanx iety
j ection
y g
Ġd iet
th at
um en
ri pp
Ġpro of
ast ers
ĠLeg isl
e enth
Ġp ig
st ances
am an
Ġch ose
so le
Ġcons ult
Ġpol ar
ĠHar ry
Ġrelationship s
Ġtun nel
Ġphr ase
c ow
i pe
it udes
Ġm orning
ĠS T
ĠM aster
ĠL ind
Ġdis k
ep ing
Ġacc ompl
ĠPro p
Ġgen re
Ġtrib e
Ġaud io
ĠDak ota
A lex
Ġh our
ra ine
ĠAr senal
Ġthem es
Ġexp osure
ĠOn ce
Ġgen us
Ġarg ues
Ġvill ages
Ġconcern ed
b urn
y e
ri um
Ġv ice
Ġdis orders
ron s
au er
Ġstat ue
Ġconsum ption
Ġimmig rants
Ġalumin ium
enness ee
A g
u in
ĠS ud
ĠB AS
ĠR ena
ĠL ow
ast e
ust er
ult ane
Ġte acher
Ġup d
Ġacc eler
Ġconst ruct
ĠBo eing
Ġlim its
Ġexec ution
ĠCop enhagen
Ġto uch
ĠB ishop
ur d
ĠI mp
ak i
ang le
Ġwrit es
Ġrece iving
ple te
Ġcle an
rod ite
ĠBus iness
Olymp ic
M odern
ĠN a
Ġv ot
yp es
ty pe
Ġposs ibility
ĠAng ola
Ġindic ated
Ġcry pt
Ġmix ture
ĠLad y
us ing
ĠR em
Ġcon ference
ĠL et
Ġab st
Ġpre f
Ġdif f
ĠAd elaide
Ġcontrib utions
ĠCamb odia
ĠCard iff
Ġhol id
H owever
S outh
p ine
Ġf an
ĠT y
iv ated
Ġg al
ĠP it
ĠR ab
ĠD yn
ak s
Ġsubject s
ĠSerb ia
ĠEconom ic
u ations
ĠS av
ĠC ry
ĠE instein
Ġpl us
Ġvar ies
Ġvar ieties
Ġlong est
Ġclass ic
Ġvow el
ĠMem orial
Ġhypot hesis
Ã ¢
ĠA G
ĠD own
se ason
Ġinf lation
Ġem ig
Ġconst ell
Ġoffic es
Ġtr ust
ĠDav is
Ġindust ries
Ġmach ines
ĠInst ead
S w
an ia
ic ial
Ġe at
Ġg all
ĠF act
Ġcomm em
ĠPh ill
Ġmunicipal ities
r ity
w w
Ä į
Ġin se
il ton
ĠT s
Ġl oyal
ers e
ĠR ica
ĠEn cyclop
Ġdef ence
Ġel im
Ġhundred s
is ers
Ġb ird
ĠO m
Ġapp oint
Ġrele g
Ġalgebra ic
ĠTest ament
gom ery
Ġt all
an as
or ous
Ġm ac
ĠC row
ĠB art
ĠSt ra
ĠSt aff
Ġsy ll
Ġvar iation
Ġdist inction
Ġmin ing
Ġpar ish
Ġfact ory
ĠBen ed
uck y
ĠSqu are
Ġopin ion
p ur
Ġin aug
Ġp ages
Ġd ated
ĠL at
ĠN BC
Ġsh op
Ġag ree
ĠRe port
Ġco e
ock ed
uch y
isc op
ĠBahÃ¡ Ê¼
I P
Ġt or
Ġp arent
Ġst ating
ĠE c
ĠV ill
Ġab und
Ġphys ician
Ġoffer ing
ĠAnt ar
Ġsec ure
Ġdemonst rated
ĠAlban ia
Ġoppon ent
I S
d iv
Ġp ed
as o
Ġcon vention
oc a
ang a
oth y
Ġapp ly
Ġactiv ist
iction ary
ĠSqu adron
ĠDig ital
O R
Ġb at
ĠA venue
ĠB urn
am ents
Ġst ored
are er
ok er
Ġcan n
Ġpre de
ĠGree ks
Ġjust ice
Ġchang ing
Ġpain ting
ĠNor man
Ġmiss ing
Ġarran ged
ĠHit ler
t rans
u v
Ġt anks
in der
ĠB alt
oc c
ew here
Ġcomp lic
Ġsur f
ĠBar celona
Ġinflu ences
ming ham
b us
| }
on to
Ġs ke
or ney
es ium
Ġb es
ĠM agn
ĠD ark
Ġv s
ub a
Ġpart ially
Ġdis miss
enn y
Ġprom pt
ĠMc C
ĠCont rol
Ġpreserv ed
Ġadj acent
l og
ĠA gency
ĠB ack
id ency
ric ted
att ers
ĠNew ton
Ġtra ins
Ġrun ner
ĠThere fore
ĠAthen a
Ġnob le
M L
p a
Ġs ale
Ġl ose
ĠF ri
ĠG riff
ĠL anguage
ĠCh ris
ors hip
Ġinv ent
Ġann ually
Ġcharacter istic
Ġbeg un
Ġt ur
in f
Ġen zym
Re c
ec utive
Ġtr uth
ĠAnd re
Ġfunction al
Ġimplement ation
ĠM as
Ġag ed
ĠAugust us
ĠPol ice
ĠBatt alion
Ġprede cess
S ch
Ġf ired
Ġm ental
ay er
ĠIn formation
Ġdis appe
ĊĠĠ Ġ
Ġart ificial
Ġtrad ing
Ġident ical
Ġcharg es
Ġcrop s
ĠT ai
Ġinst alled
ĠMal ays
Ġmechan ism
ĠClass ical
Ġcurren cy
ĠTay lor
D em
J ew
d es
u et
Ġc able
ĠE ver
ĠJ ane
Ġdec isions
yn omial
Ġown ership
Ġconsist ent
ĠCub an
ĠJos Ã©
ĠAj ax
Ġportray ed
Ġacknow led
A ir
H ung
i ology
Ġf illed
ĠThe od
Ġco ordin
Ġany thing
Ġfin ish
Ġlog ic
Ġprec ip
Ġinvestig ation
Ġbeaut y
ĠAre a
Ġisol ated
d in
r ings
Ġd raft
ĠC ru
ĠT ennessee
ĠB eg
ĠL ast
Ġse ctions
ĠSt one
oy d
Ġpass age
Ġfind ing
Ġlay er
Ġmole cular
Ġprem i
C D
Ġc odes
Ġp up
Ġn ut
ad ow
ri ots
ĠIn n
ric ks
ob a
ĠAp ost
Ġter ror
Ġbig gest
Ġabol ished
Ġconscious ness
E T
u ary
ing ly
ĠA B
if er
ĠO p
og ether
Ġoff ensive
Ġdesign er
Ġsent ence
Ġplan et
Ġreview s
atur ally
yth m
n ight
Ġs alt
Ġp seud
ro lled
ĠA al
ĠA ster
ĠH ong
Ġv ision
te g
Ġam ateur
Ġstand s
Ġsw itch
Ġexperiment al
m ir
Ð ¸
ar an
Ġb rig
iv ation
ĠF ight
od ies
Ġch ance
Ġsh ift
Ġins pir
Ġvis itors
Ġenc od
Ġimmedi ate
Ġbelief s
ĠBir mingham
Ġexact ly
iot ics
Ġdescend ants
ĠNapole on
Ġt ask
ĠS yn
ĠS ox
Ġint ention
ten ance
Ġoper ates
Ġant im
Ġrad ical
ĠRob in
Ġpurch ase
Ġchall enge
Ġuns uccess
S up
b at
b rid
i est
Ġ id
Ġc ul
Ġh its
im ore
ĠH ard
ĠG ram
if ican
Ġhe nce
ĠAr c
Ġsupport ers
Ġann iversary
ĠHer itage
Ġfund s
Ġcontinu ing
ĠMount ain
Ġdraw ing
Ġadapt ation
ifican ce
Ġf it
ĠI l
ĠD om
ĠCh ican
Ġinst ructions
Ġsecond s
Ġsoc ieties
gress ive
Ġden ied
medi ate
oz o
ĠAut hor
Ġh ired
ch t
ĠR oss
Ġj un
li k
ĠOn line
Ġtr ig
Ġmar ine
Ġsurv ive
Ġpric es
ovak ia
C O
it als
ic ate
ot ton
ĠR oy
ĠD iam
out s
Ġsim ultane
omet imes
Ġdifficult y
ĠMet hod
Ġminor ity
ĠWind ows
Ġvel oc
s al
Ġb onds
ĠS outheast
ĠC rit
ĠL ive
av id
Ġbu zz
hem istry
Ġed ited
Ġast rol
Ġcirc uit
Ġâ ĪĴ
Ġstop ped
Ġreplace ment
ĠMos cow
Christ ian
H z
Ġthe atre
ot he
ĠG irl
ĠL og
ĠCh ron
Ġres ign
Ġher itage
Ġrul ing
Ġindic ates
ĠSim on
Ġconcent rated
Ġdetail ed
Ġsynt hesis
Ġstru ck
Ġstrateg ic
Ġapprop riate
Ġs end
ic ts
ĠU pper
ĠĊ ĠĠ
Ġsp oke
Ġown ers
Ġwar fare
Ġang ular
Ġoccup ation
Ġsaf e
ĠRom ans
Ġmedal ists
ĠChap lin
Ġneut ral
onym ous
ĠMicro soft
f oot
Ġto xic
ĠS af
Ġex ports
ap ore
Ġar ray
ren e
Ġag greg
Ġvar iants
els on
Ġmin eral
Ġcal endar
Ġcred it
ĠAlban ian
Ġ ),
un te
Ġcomp at
Ġmain stream
onom ous
ĠAph rodite
S ports
o i
s ch
Ġthe or
ĠC all
Ġre vers
ĠP ed
ĠH ans
if fer
Ġdef ensive
enn ium
Ġobserv ations
Ġdistingu ished
Not able
ĠT an
et he
ĠD ocumentary
ĠJ ord
Ġpol ynomial
Ġestablish ing
Ġrecomm ended
Ġpict ure
Ġc attle
Ġf ictional
Ġd uties
ĠC art
ĠF il
ag ram
ĠN aval
Ġres c
Ġcontin ent
une i
Ar ch
Ġdisp ute
Ġâ Ĩ
Ġvari ations
Ġreform s
neg ie
ĠFried rich
c or
Ġf aster
ĠP ict
ist a
ag ne
ew ork
Ġy ards
ĠAl g
Ġplay off
ĠPh oen
Ġmer ged
Ġcoll apse
Ġemphas is
Ġadult s
Ġrang ing
Can adian
Ġdiox ide
B el
b ach
z ep
Ġm emb
ĠM inn
ĠW is
Ġrel ief
Ġfl o
Ġdep ends
ean while
As s
Ġprofess ion
Ġver te
Ġgeomet ry
ĠLt d
P A
Ġt ied
Ġw ins
Ġp airs
ers ion
Ġv ul
ant on
Ġab b
aw n
Ġinst all
Ġexp osed
Ġart istic
ĠAb out
Ġpo ems
ĠAll iance
Ġeduc ator
Ġground s
ĠArch ae
Ġestim ates
Ġeffic ient
Ġo verse
Ġf at
Ġd rew
Ġl ists
em eter
ĠW alk
Ġres olution
Ġres igned
ĠSp ring
Ġoper ational
Ġrest ored
ploy ment
Ġinteg rated
ĠCap ital
Ġconne ctions
ĠCorn wall
ĠHow ard
Ġencoura ged
D on
V D
ĠA ston
ĠT urn
ĠE xt
Ġsu icide
Ġmed als
ĠBar n
Ġdr iven
Ġhost s
Ġbound ary
Ġcommission ed
Ġdeploy ed
ĠPhilipp ines
ĠBened ict
N ov
p o
ĠA inu
ĠB und
ĠAr n
uss ia
Ġpublic ly
ĠMed ic
Ġmiss iles
Ġnar rative
ĠBuddh ism
ĠI v
ĠR av
ab y
Ġdis cont
ĠZ h
Ġrefer ring
Ġcomput ing
Ġcomplex ity
omm od
Ġalgor ithms
Ġchap ter
C ent
D ef
a ired
b ane
s is
s im
Ð ½
Ġf lying
ri or
we ight
Ġpre gn
Ġrec re
Ġacc um
ĠAnd erson
ĠRec ord
ĠHistor ical
Ġexclus ively
Ġintellect ual
ĠVi enna
emeter y
Ġ ions
st ar
ĠB ush
ch o
ie ce
uro s
Ġsupp lies
ĠChrist opher
Ġla ure
ĠÃ ī
Ġphilos ophical
Ġprob ability
Ġloss es
Ġprovin cial
ĠRena issance
B ar
L a
re le
Ġn an
ĠI b
ĠF ull
ac hers
Ġappro val
ĠRoman ia
Ġsym met
ĠAM D
ĠTerrit ory
Ġunus ual
W rit
f act
Ġa head
Ġw ings
Ġb enz
ot ional
Ġun less
end ment
Ġpart nership
ĠAr tic
Ġtra ined
ĠIs a
Ġshe l
Ġappro aches
Ġfac ilit
Ġut il
ĠEngine ering
ĠNever theless
ĠBerm uda
B r
c ia
d imensional
ĠT un
ol ics
ĠB h
Ġth in
ĠM anu
ot te
Ġreg ime
ĠUS A
ino is
Ġvol can
Ġlab our
Ġsurround ed
ĠDire ct
ĠFurther more
ĠConfeder ate
Ġfranch ise
d ing
Ġm ob
el and
id ers
ĠL o
Ġsub ur
Ġdef ine
Ġexper iences
Ġsk ills
Ġver tical
Ġfem ales
Ġeas y
ĠTele vision
Ġchair man
? "
B as
z o
Ġt et
ĠG ab
ĠG rant
ant asy
ĠK ansas
Ġsc oring
arg o
rain ing
Ġclear ly
ĠMont gomery
Bl ack
ĠKenn edy
Ġcircum stances
Ġstre ets
ĠBav aria
p y
Ġ ere
ĠB T
ĠH ere
ia ceae
ĠO range
Ġun like
Ġall iance
ĠSp irit
ros cop
Ġmov es
ĠNe o
Ġparticip ate
ĠCommun ist
ĠBron ze
F irst
c aster
y ah
Ġm iles
ad os
ut or
Ġst ood
Ġr ational
ĠK ings
Ġme at
ĠRe form
Ġam ino
ann els
ĠWh at
Ġtele phone
Ġemploy ment
Ġdam aged
ĠWay ne
Ġcho ose
Ġvess els
P er
c hers
Ġt as
or i
Ġw ine
ra ce
ĠH ind
ĠD isc
Ġinter face
Ġass ign
Ġinv ited
ĠInd ex
ĠReg iment
ili ar
Ġlook ing
ĠAsh oka
ĠAff airs
h an
Ġl ot
ĠE ric
ass i
Ġspe aking
Ġsign als
for ced
Ġprogram me
Ġcommand ed
Ġcover ing
Ġvari ables
Mus ic
Ġnucle us
ĠCP U
Ġproport ion
Ġretire ment
ly n
ĠL as
ard o
Ġab bre
Ġout er
Ġimp ossible
com ing
ĠWh it
lic ts
ĠLa ure
Ġreb u
Ġlo an
Ġrot ation
Ġliber al
Ġparliament ary
ĠArgent ina
H on
N o
h r
Ġb id
Ġh ole
st yle
ĠB ald
ĠI an
ĠAmer icas
the tic
che ll
Ġsat ellite
ĠSing apore
ĠRh ine
Ġshoot ing
Des pite
Ġregist ered
establ ished
izz ard
Ġphysic ist
ĠP ir
ĠR ud
Ġv eter
Ġsu itable
Ġrec overy
ĠGerman ic
Ġbank rupt
Ġdiscuss ed
ĠDie go
A L
b el
Ġs amples
ĠA ur
ou ri
ol ve
ĠH ug
ac le
mer ce
Ġap ost
Ġcur ve
Ġdescrib ing
lic ation
ĠAg ain
Ġstruct ural
Ġfrequ ent
Ġconcern ing
Ġspect rum
ĠPen insula
Ġcas ual
Ġmanufactur ers
Ġenjoy ed
ĠBalt imore
M S
u able
Ġt ell
ed ed
Ġw ounded
ĠH as
ĠL l
ĠE ug
ĠDe ad
Ġmay or
Ġbu y
ĠNov a
Ġnorth west
Ġess ay
Ġsac rif
Ġbring ing
O ver
f it
re p
Ġs ight
or f
Ġd iver
os l
ĠL iter
ĠW olf
Ġatt racted
Ġtem por
Ġwid er
Ġill ness
ĠBu ilding
Ġpal ace
ĠSerb ian
ĠIndepend ence
ĠHou ston
C o
f eld
Å Ĥ
Ġa ired
Ġb anned
ro ke
ol ith
Ġth ing
ĠM ars
av ia
qu ir
ĠEn vironment
ĠComm ander
ĠBe at
Ġbusiness es
Ġscient ist
Ġrang es
uer to
h and
at ivity
it is
it ime
ĠL ate
ĠL ank
Ġprodu cers
Ġsign ificance
Ġadm itted
Ġdepend ent
ĠAssy rian
ĠPier re
B ack
t rack
on ium
ĠT ar
ĠB ry
ith uan
Ġhe m
ĠO k
Ġpl ain
Ġdes ire
gl ing
Ġel se
Ġspecial ized
comp ass
ĠPubl ishing
P ar
Ġb rew
ation ally
ĠSt ory
ust ion
ĠWar hol
ograph s
Ġanim ated
Ar t
Ġord inary
Ġapparent ly
Ġoppon ents
I N
P ublic
ĠT ol
ĠT am
Ġn aturally
ch ing
ĠM ission
ot ype
ĠL in
ĠE ston
od yn
oc ation
els ewhere
elf ast
Ġrest ricted
ĠMed ical
ĠMc G
Ġcopy right
Ġcalc ium
B ur
E conom
y stem
it ism
Ġb icy
Ġh orn
Ġre venue
Ġst ability
ĠN ow
Ġsu gar
ĠU t
Ġj azz
Ġleg acy
Ġport s
Ġrock et
Ġcou p
Ġenter tainment
Ġdiplom atic
Ġille gal
C omm
u ct
Ġb ones
Ġm inisters
ĠA thlet
ĠB ris
ĠB omb
iv ia
ot o
um er
ĠG il
ĠV ik
ĠUn like
Ġres idence
Ġph osph
ĠBas el
ĠQue bec
ĠLaw rence
Ġcommunic ations
Ġnit rogen
Ġhoriz ont
Ġcommem or
v ation
Ġw atch
ĠC le
ĠF M
ĠG arden
ĠL am
ĠK im
Ġsh ares
Ġacc ommod
Ġrep rodu
Ġclaim ing
Ġren der
ĠReg ional
ev in
Ġcampaign s
Ġpun ishment
Ġvictim s
ĠKel ly
Ġinterpre ted
A ugust
P ort
T e
c m
Ġ elsewhere
Ġw itness
Ġh ors
ĠT rad
Ġwas te
ĠK ane
ress ive
Ġra cial
Ġtem porary
Ġcour ses
Un iversity
ĠKh mer
ĠDou ble
ĠAnton io
Ġpit cher
ĠMov ement
Ġschem e
Ġtiss ue
Ġclin ical
O rig
Ĥ ¬
ĠT rib
id o
ĠP ash
ĠH and
ag les
The se
Ġpart ial
Ġj ump
ne x
Ġsome one
Ġmain tenance
Ġmon itor
ĠAll ied
Ġtour ist
ĠSil ver
ĠIll inois
ĠProfess or
b ody
Ġm atters
ĠS ign
el ine
ĠP ra
Ġne ck
Ġher self
Ġreturn s
Ġport ra
Ġcompet e
Ġser ial
Ġmagn etic
Ġsett lers
ithm etic
d ed
l ater
v as
Ä Ł
Ġh at
ĠT uring
iv ate
ra z
ĠF I
ĠE very
ĠE SP
ĠN ik
ĠV I
ok es
Ġdes ert
ĠRe al
ah n
Ġmet ab
ym b
ĠGu ide
Ġthreat ened
ĠMin or
ĠConfuc ian
Ġnort heast
C al
C areer
E E
in als
Ġb ed
ro id
ĠL is
ĠAl pha
Ġam pl
Ġph arm
Ġsupp lement
Ġret reat
Ġstat ements
Ġhead ed
Ġinteg er
ĠFre edom
ĠDon ald
Ġalph a
ĠAdm iral
Ġcoal ition
Trans port
Ġkil omet
Ġin g
Ġf ishing
ĠC er
ĠH orn
ĠG i
Ġwor n
Ġro se
amp s
Ġkn ew
Ġinter ested
Ġpubl ishing
Ġgu est
ĠBar oque
che st
Ġprop ag
Ġsettle ments
ĠSystem s
Ġreserv es
S he
a eda
Ñ Ģ
or ge
le ys
om ic
Ġn est
Ġ( '
ĠL ib
Ġper ceived
ĠHe art
orm on
Ġfl ights
Ġcontin ental
Ġleg s
Ġsepar ation
Ġvary ing
Ġdistingu ish
ĠAud i
Ġpian o
Ġveloc ity
it ure
Ġto ol
Ġd ress
om es
Ġv oting
Ġr ig
ĠSc ient
ĠSy ria
Ġopt ion
Ġquant ities
aught ers
Ge ography
Ġproced ure
ĠCatal an
Ġdang erous
Ġdrink ing
is em
Ġw et
as hed
il ty
Ġre ct
Ġre ally
ĠJu an
sp an
Ġeduc ated
Ġvol umes
Ġsqu adron
Ġconv icted
ĠMel bourne
Ġexc av
ĠBroad way
Ġmanufactur er
Ġpronoun ced
V ideo
ĠM L
ĠE qu
ĠN ear
ĠK abul
Ġall ies
Ġair line
Ġtri als
Ġsuff ering
Ġcast le
Ġmig ration
Ġproced ures
larg est
g raph
l ad
á ¸
Ġa est
on ne
Ġw rong
ĠC inema
ĠR and
ĠW orks
cre en
ĠSch war
Ġstep s
Ġbenef its
Ġaim ed
ĠEnter tainment
M et
r ish
ro le
ĠS ri
Ġcomp ens
ĠV in
Ġqu een
Ġrem ove
Ġfollow ers
Ġfew er
Ġcond em
Ġarg ue
Ġfind s
Ġdiscuss ion
Ġconqu ered
Ġstreng then
Ġdecre ase
Ġslow ly
J apan
P ersonal
ro t
om ed
il er
Ġre un
Ġg ender
em ed
ĠL ower
ac re
ell ows
ĠLe v
Ġdep ression
Ġant iqu
ĠBar on
Ġcirc le
Ġrebell ion
C ons
E M
c ut
Ġs urn
Ġf urn
Ġto wer
Ġh ill
Ġh yd
Ġg ather
ĠN atural
art a
ect ive
ĠDe c
ene z
Ġorgan isation
ĠBr unei
Ġanim ation
Ġcompet itions
Ġfac ulty
ĠDes ign
ĠBu ck
c ount
or ig
ĠS et
ĠT en
oc ial
Ġcl ock
Ġen compass
Ġcent ers
Ġmain land
ger y
Ġmeet ings
Ġfarm ing
ĠTor onto
Ġcoin s
Ġadj ust
Ġarsen ic
S pe
c en
g am
m us
u its
he rent
ĠA A
ĠC reek
ĠR ap
ĠD ra
ĠF ood
ĠIn it
Ġrec overed
Ġbu ff
ĠCent aur
ĠBar ry
Ġcrit er
bor ough
ĠPat rick
Ġhom es
Ġess entially
ĠFin land
Ġcamer a
Ġ Ï
ĠM aur
ĠF inal
ĠL ud
ĠL ions
ri arch
Ġse gment
ub es
Ġnot ion
ĠWar ner
Ġapprox im
enes is
Ġconserv ative
Ġsust ain
atab ase
ĠCaes ar
' m
ist ent
Ġcon dom
ĠW oman
ri ka
Ġch annels
ix es
Ġleg it
ÃŃ n
Ġmount ed
ĠAbb ey
ipel ago
Ġwithdraw al
Ġsched uled
/ /
v ol
Ġb ridges
Ġm al
Ġd im
Ġd ub
Ġd uty
ĠC old
et ics
ra ctions
Ġse venth
ov iÄĩ
ĠAr med
ock et
Ġcar riers
arm s
ĠCar negie
Ġinvol vement
Ġpers u
Ġwealth y
Ġtherm al
I tal
in ch
on i
ĠA ar
ĠC BS
ĠP oint
Ġcon vert
ĠL an
Ġsu d
ov o
Ġrec ru
Ġbus es
Ġbre aking
Ġsouth west
Ġsw it
ĠÎ ²
Ġgirl s
Ġpropos al
ĠPrin cess
! "
c hen
it o
Ġc ous
og ene
Ġsh orter
Ġra ise
Ġinter action
Ġaut ob
Ġcolle ctions
Ġread y
Ġcr imes
Ġrul ers
ino za
Ġmechan ics
ĠBill board
Ġnomin ated
Ġelectric ity
ĠJord an
B ra
O C
T wo
i otic
s m
u j
Ġw aves
Ġb inding
ĠA y
Ġth r
ĠW y
Ġr anks
Ġequ ations
Ġpass es
ĠEd in
Ġbi ology
Ġax is
ĠGra ham
ĠAst ron
ĠAlger ia
M ilitary
Ġs elling
Ġs odium
Ġb its
ĠS ound
ĠI ron
ĠR ose
and o
Ġpro ve
orm al
ĠSe ven
Ġem pt
Ġvar ied
ĠSp ider
Ġant hem
Ġamong st
Ġhead s
ĠEx amples
Ġpri ze
cript ions
Ġastron omer
Ġalk ali
ĠUp on
ĠAch illes
Ġphenomen on
Ġfal se
iscop al
Ñ ģ
Ġs iege
ĠB D
ĠP ap
Ġpl ague
ĠCom ics
Ġph il
Ġdo ctor
Ġob lig
Ġoper ator
Ġmat rix
Ġreported ly
Ġarm our
ĠIsrael i
ĠDis raeli
Ġjob s
Ġdepos its
Austral ian
Ġan ime
ĠB ud
am i
ĠM ong
ĠF inn
oc ene
Ġne ur
old s
Ġmarket ing
Ġwood en
Ġarrang ement
ĠBris bane
er als
is hers
Ġf ab
Ġp apers
Ġh ip
ĠT el
Ġpl ural
ell o
att an
Ã© n
Ġdep ict
Ġref lected
Ġpo ets
ĠCent ury
ĠAg ric
Ġseek ing
E d
h op
o om
Ġs ave
is ations
Ġc inema
Ġre ven
Ġcl imb
Ġper mitted
Ġj ourney
ix on
Ġloc ally
ĠCl ark
Ġrad ar
Ġindepend ently
ĠServ ices
ĠAlf onso
Ġreserv e
agh d
g i
Ġthe olog
or er
Ġf ran
ĠS ac
ĠB I
ĠB ach
ĠP ent
ĠR out
ĠF ern
um a
ment ary
Ġch ampions
Ġint ers
Ġsp in
iss ions
Ġinvol ve
Ġbound aries
Ġtom b
Ġcogn itive
his att
Ġexplan ation
Ġammon ia
B er
Ġin fer
Ġb ag
Ġb oys
as hes
ĠM ult
ĠW in
ĠN ag
all as
Ġr ising
ell i
ke es
ĠSe e
Ġbl ocks
Ġdiv ine
Ġevery thing
ĠMor ris
Ġnecess arily
Ġbor on
Ġisot opes
ĠChild ren
ĠQueens land
Ġsud den
f ree
on ial
Ġs outheast
om ot
ĠB ure
ĠR aj
ĠF res
Ġco aches
Ã© s
Ġsing ing
Ġland scape
Ġpat ron
apt ers
Cl ass
SC II
ĠMP s
' '
C itations
E l
R ep
S te
Ġt ropical
Ġs in
ĠD a
ater al
Ġrem ember
ĠAt las
Ġgu arant
Ġgu ilty
ĠAnd y
ĠArab s
spe c
Ġdram atic
Ġbor ough
hol m
Ġhy brid
odia zep
ĠHon or
Ġaxi om
ĠMit chell
Ġconspir acy
ĠDiam ond
N orth
f ish
f ire
p at
Ġd ies
il st
ĠM ess
ĠP el
ĠR io
ĠK az
Ġest imate
Ġoccur ring
ibr aries
ĠHigh way
For mer
ĠLegisl ative
Jew ish
ĠâĨ Ĵ
b acks
z ed
Ġp ush
Ġh ang
ol o
ol ly
Ġth or
Ġst ead
ĠG a
ĠL ang
Ġcomp rehens
ens ively
Ġman if
ĠCan al
Ġpublic ations
An t
Ġdem ocracy
Ġinit iated
ĠArab ia
Ġcompet itive
Ġobject ive
Ã¶ r
Ġball s
Ġaltern ate
Ġdisplay ed
AT O
Ġrespond ed
Ġcorpor ate
ĠBAS IC
ĠBahÃ¡Ê¼ ÃŃ
ĠEdin burgh
c ule
Ġf rame
Ġto ler
le ton
ch a
ot er
ĠH ad
ĠH ockey
ĠR ang
Ġus ual
ĠTh or
Ġag ency
Ġsupport s
Ġrev ival
Ġsimilar ly
Ġpossess ion
Ġmonarch y
Ġdiam eter
ĠPhilos ophy
Ġorb ital
Ġconfig uration
ĠSimilar ly
S ever
Ġp rayer
ĠP ont
ist ers
ĠL anc
Ġsc iences
ah man
az ines
ĠBl uet
Ġrecord ings
ĠBo hem
ĠAg re
Un der
ĠRober ts
Ġparticip ation
Ġinj uries
Ġgr ass
ĠEth iop
ĠPalest ine
ĠTai wan
Ġm o
ĠT ok
ĠR oc
ĠF ive
res ident
Ġun con
Ġch amber
ĠAl t
Ġres id
ail and
Ġinter actions
ĠBl ues
Ġsing ers
ĠComm unications
ĠWh o
Ġprot est
Ġtri p
Ġmer ger
Ġcontrib ution
Ġinstrument al
Ġpra ised
Ġcorn er
Ġhappen ed
w ig
Ġ rif
Ġan nex
Ġh ub
ĠB elfast
est one
ĠN ort
ess ions
ĠK evin
Ġsc atter
Ġsy mp
Ġsp ending
Ġbet a
eng er
Ġpar ad
ĠPr incip
Ġprof ile
Ġel der
ĠÃ Ĺ
Ġrecogn ised
level and
an ium
Ġb rom
ĠS I
ĠS R
ut t
Ġas ym
ĠG un
ĠJ ay
In ter
osp el
ĠZe us
Ġsequ ences
h o
k ina
Ġh am
il ib
ĠG ard
ac les
ĠO bs
Ġemer gency
Ġantib iotics
ĠUk raine
Ġnegot iations
ĠAe ge
ĠDram atic
Î ¿
er ver
ur as
id ge
ub ble
port ed
Ġdo or
Ġret ail
bor ne
Ġtax es
Ġbor row
Ġancest ry
Ġconsequ ences
L ife
Q aeda
l ived
Ġthe ology
Ġp ool
ou ver
Ġn erv
et ers
ian o
ort s
up t
Ġinf ection
iet h
Ġfl ows
az a
An cient
Ġstart s
Ġattempt ing
Ġobserv ation
Ġcivil ian
Ġdiss olved
ĠMil an
ĠCzech osl
Ġstay ed
ĠSat urn
Ġexerc ise
Tele vision
Ġstrugg le
S ub
u ber
Ġ Ê
on der
es ota
Ġd a
ĠM i
ay an
ĠR AM
Ġv acc
ell ar
Ġle agues
ĠTh ose
ĠAnd alus
cast ing
ĠÃ Ĩ
Ġtarg ets
bre ak
Ġdistinct ive
Ã¨ re
Ġprin ting
lem agne
ĠYan kees
ĠBluet ooth
Ġ ).
Ġc oun
Ġf lex
ic ut
st ad
st rong
el le
ul us
ann er
ĠBl ood
ane ous
Ġelect ro
Ġbas in
Ġterrit orial
Ġmem orial
Ġconserv ation
Ġlic ense
Ġaccur ate
ĠConn ect
x ual
er b
ar ic
Ġe ighth
ad i
and al
Ġse es
Ġmar ks
Ġcompet ed
Ġkey board
Ġviol ent
Ġconnect ing
Ġabort ion
ĠAdminist ration
enez uel
. ),
P art
Ġd iversity
ĠA OL
ĠS atur
ĠM ember
ĠD aily
Ġpubl isher
Ġrequ iring
sequ ently
Ġmer ely
Ġeth ics
Ġstar ring
Ġacqu is
Ġlog o
ĠMag azine
Ġsynt hes
Ġanthrop ology
M ay
W ill
es ter
ĠA SCII
ĠD ream
ĠL ieutenant
ĠĠ Ċ
ack ed
Ġunder t
Ã© t
Ġext end
ĠAd a
ĠEx p
Ġgrad uated
itch cock
Ġweek ly
ĠHistor ic
ĠDo ctor
Ġmyth ology
Ġvow els
Ġarchae ological
ĠÄ Ģ
Ġegg s
b ound
y o
on al
Ġm entions
ĠC ricket
ĠB NP
ĠP ur
ĠP asc
Ġor al
ĠJ am
Ġsc ores
ĠChrist ie
Ġstr ings
Ġpot entially
ĠTr ust
ĠCong o
Ġpred ict
ĠMatt hew
ĠJon athan
Ġteach ings
Ġrit ual
f emale
v ens
on ies
Ġf ib
om on
il ation
ĠG ary
ĠG ates
Ġro ut
Ġthere by
Ġgen es
Ġbeaut iful
Ġcloth ing
Ġabst ract
h aus
i ast
u ction
Ġf rog
ic ill
Ġre aches
et ween
Ġg ate
Ġpl astic
Ġag encies
Ġgener ate
Ġent rance
Ġany one
Ġel abor
Ġturn ing
hel m
ĠScot ia
Ġconcent rations
Ġdocument ed
Ġmurder ed
role um
' )
Ġc ere
Ġc atch
ar th
ĠP uerto
ow a
ob by
Ġam p
ys ical
Ġpop ul
ris ed
Ġdr iving
Ġstat istical
wh ite
rest rial
Ġsculpt ure
ĠDick ens
Ġpros per
Ġc aves
Ġto t
Ġh ier
ĠC ase
Ġl ie
et on
Ġst abil
ĠF arm
ĠL omb
ant a
up unct
ile y
Ġunder w
Ġmet ropolitan
angu ages
Ġchar ter
Ġel imin
het amine
Ġpred icted
ĠMiss ouri
ĠYugoslav ia
Ġvul ner
c ase
d o
r ise
ro it
Ġn am
ad ers
ĠM ormon
Ġon going
ĠD VD
ĠF C
op ot
Ġr ice
se cond
Ġch ronic
Ġar ithmetic
ass ium
ric e
ubl in
rist ol
Ġadv ice
Ġarg uments
anc ell
Ġgold en
ĠDen ver
Polit ical
: //
h um
or ia
Ġan at
Ġf iled
Ġd ict
ĠB ou
ĠB Ã©
ĠM axim
Ġst em
ĠD ictionary
Ġde ck
Ġde leg
ĠJ ob
art ing
Ġman ip
Ġro cks
ail s
eg ro
Ġmin ute
Ġjoin ing
Ġcross ing
Ġsound s
ĠĠĠĠĠĠĠĠ ĠĠĠĠĠĠĠĠ
Ġfarm ers
Ġenem ies
Ġlif etime
Ġearth qu
Ġchlor ide
Ġinspir ation
ĠMinn esota
ĠESP N
j ani
n ik
u cl
at on
it ter
Ġl iv
ĠB oh
ĠM uch
Ġg one
ĠP rom
Ġcon ven
ĠW ol
ish ments
ĠK u
Ġnot ation
Ġgro ss
Ġspec ified
yn t
Ġremain der
Ġcor ruption
Ġpain ted
Ġsum m
ĠFl ore
Ġstar red
Ġpen et
van ced
ĠEs s
ĠSo ft
ĠRepresent atives
Ġfest ivals
' ll
E tymology
b b
o ard
r h
w ers
Ã ¦
Ã Ĺ
at us
ro us
Ġh ope
ĠC ulture
ĠP a
ul ates
Ġcont em
Ġfl our
eg ger
Ġdep th
Ġconf licts
Ġchild hood
Ġtem ples
Ġmag ic
Ġrecogn ize
Ġagre ements
Ġwhe el
Ġkeep ing
Ġsecret ary
ĠKent ucky
ĠBrig ade
D isc
R ussian
Ġf ix
Ġm arch
ĠA er
ĠB ac
ir th
ĠW he
Ġhe aring
ts burgh
rib ution
Ġact in
Ġunder ground
Ġmon ument
Ġfin ishing
ster y
ĠĠĠĠ Ġ
Ġrev ised
Ġinteg ration
Ġfall s
Ġmechan isms
Ġcomplet ion
Ġrecomm end
Ġcricket ers
Ġpian ist
ĠMot or
Ġdiscip line
Ġmonaster y
Sever al
t z
Ġt el
Ġt ort
or ious
Ġw ire
Ġp and
Ġh oles
ĠR ow
ĠW ed
ĠN ord
ĠY ah
iss ipp
Ġam phib
Ġmet all
Ġent ering
Ġsing ular
ĠMan agement
Ġpat ent
Ġappear ing
Ġstudy ing
ĠMary land
Ġmaintain ing
ĠMat hem
zen egger
Ġbip olar
Ġoccas ions
Ġexplicit ly
Ġvot ers
ilib rium
S m
Ġt one
an throp
ar as
ĠT ower
ur i
iv a
ter bury
um ph
Ġex ile
ĠO z
ĠO ffic
ĠK a
ĠK am
Ġch ron
Ġch ips
Ġwor st
ier i
Ġfam iliar
ĠAd ams
Ġperson ality
ĠMer c
ĠCamp bell
Ġexhib ition
elig ion
ĠBabyl on
Ġfram ework
Ġmamm als
Ġsimultane ously
E ducation
T S
e lect
v ised
â £
ic ip
ol io
ĠP olic
ĠR a
Ġcon clusion
ĠF aso
Ġev il
Ġind irect
Ġprom in
Ġsk y
Ġturn s
Ġaccept ance
Ġarm oured
ĠArch itect
Ġcross ed
Ġarchitect ural
ĠLouis iana
Ġequip ped
Pl ay
uls ion
ĠBall arat
-- --
Ġexclus ive
ĠMarg aret
Ġrestrict ions
ĠEncyclop edia
L ater
R el
i Ã³n
p re
ar o
Ġf ruit
el ian
ol ph
Ġl ake
ĠM ond
ĠP un
ĠH erman
ĠN ation
ian g
ĠEn ergy
Ġdec is
Ġterm ed
to le
Ġrele vant
Ã¡ s
ĠBro ok
Ġdifficult ies
M on
s up
ent ry
ĠS ky
ĠM ig
ow ed
od s
Ġhe ir
ĠK it
ĠSt ew
are st
ĠAl tern
Ġbo at
Ġco ff
Ġmus cle
Ġprev al
mit t
Ġtour ists
Ġopt ical
Ġjud ges
min ster
Ġround s
Ġlegisl ative
Ġcomment ary
Ġsubst ances
Ġdrum s
Ġcab inet
ĠBalk an
Ġdoll ars
ĠAgre ement
R S
in er
Ġthe ater
Ġo ct
Ġc aught
ĠA FL
ĠP rayer
ĠN elson
Ġcl ar
Ġinter mediate
Ġterm inal
ĠMar ie
com mon
Ġbi ography
Ġep it
Ġtrib ute
Ġcompos ers
ĠRom a
Ġkind s
Ġamb ig
Ġholid ay
Ġhorizont al
opot am
P ost
r ass
or ient
ĠC ow
ĠC leveland
Ġbe ating
ĠG ene
ĠL ithuan
ĠV ideo
Ġpart ners
Ġrec over
Ġcap ita
ĠAust ro
Ġpar ks
Ġrev ol
ĠCath olics
Ġeas ier
Ġtheore tical
Ġfer til
comm unications
E v
e or
ĠA aron
ĠC ov
Ġn inet
im m
Ġst ores
ew ise
Ġint ent
Ġte eth
Ġen abled
Ġfl av
Ġext inct
Ġdisp uted
anc ouver
Ġcondu ctor
Ġlo op
Ġremov al
Ġget ting
Ġdecre ased
ĠGreg ory
Ġjurisd iction
Ġsynd rome
ĠSud an
ĠFres nel
B est
O per
n anda
en cing
Ġc otton
ou rag
ĠS port
her ic
ĠE li
Ġj u
Ġcons ent
Ġco operation
Ġtechn ologies
ĠHis pan
Ġpat ient
writ ten
Ġtransl ations
Ġopt im
Ġfle w
ĠBab bage
ĠCur rent
ĠWell es
ĠColl ins
. '
g el
w ald
Ġs av
ĠS aints
ĠB og
ad ic
ĠM unicip
od ge
so on
Ġgovern ed
ann on
Ġed itions
Ġbre ast
Ġbre eding
ĠBel ize
Ġer rors
bo ards
Ġke ys
ĠÃ ĩ
Ġsee ing
Ġcoin c
Be fore
Ġkid n
Ġcann ib
f irst
g ame
m ath
Ã Ł
Ġt ube
he ll
ĠC rus
ĠN ATO
art e
Ġdis app
eg a
ĠPro te
Ġfin ite
Ġprop he
reg on
ĠMor gan
Ġadminist ered
Ġinhab ited
ĠAh mad
ĠPolit ical
f iction
m odern
u cc
Ġf ulf
Ġh az
ue z
pl ed
Ġen forcement
Ġj ew
rop olis
ator ial
Ġvol unte
ĠColle ction
Ġinteg ral
ĠCont inental
Ġhon our
ĠSte el
ĠBah am
Ġchart s
Ġelev ation
iffer ent
Ġmemb rane
ĠIb n
aghd ad
d y
t wo
z es
Ġt ested
Ġm it
ĠP il
ĠN ick
Ġpro sec
ov sky
aw ay
Ġent ity
Ġland ed
Ġcompet ing
ĠBra ves
Ġaccount ing
Ġconson ant
Ġpredomin antly
Ġunsuccess ful
Ġnam ely
issipp i
C ount
G reek
R C
U K
n ost
Ġt ies
is k
Ġc ollo
ĠA round
Ġh ills
st al
us ch
ch ron
ĠI C
ĠR est
ment ed
Ġun em
ub b
ang z
Ġmon ks
Ġsong writer
ĠEx per
sc ript
Ġfem in
Ġgrad uate
Ġhydro x
ĠÎ ±
ĠHam ilton
ĠBre ton
ĠIran ian
Ġcompil ation
ĠAnat olia
ĠCrow ley
ĠLl oyd
B I
S im
Ġw ore
ĠC app
Ġl ov
iz er
ĠV illa
ĠAl m
te enth
Ġins cription
Ġexpl ains
ĠSm all
ĠWith in
ĠSatur day
E P
il ian
ĠS id
ĠB enn
ĠP tole
ĠF el
ĠL inn
ri p
ri ans
Ġde emed
du ct
ĠSt ein
ĠTh ailand
ĠCan terbury
ring ton
ĠPl ace
ĠAg ripp
Ġrelig ions
ĠCo oper
Ġflu id
Ġsculpt or
Ġdog s
E FA
w oman
Ġa f
ing ham
le te
ĠS n
el in
ĠB ey
ĠF rid
ac hen
ab ad
Ġr um
Ġsh ore
ĠV enezuel
Ġro of
ĠSp inoza
Ġmov ies
ĠAd ri
Ġdiv or
Ġcr ash
rain ian
Ġindic ating
ĠPri or
Ġsurv ival
Ġnovel ist
Ġâ Ĥ¬
ĠLu is
Ġbul k
Ġprepar ation
Ġrestaur ants
olith ic
B i
j e
l ie
s ub
Ġb ik
om ber
ĠM ugh
ig ious
ĠP ear
ip per
Ġcl oud
Ġdef ended
epend ent
Ġdem ocratic
ĠMc K
Ġmanufact ured
Se cond
Ġwear ing
ĠCat hedral
H er
M A
w id
in ery
or ian
Ġc ub
Ġb en
om ing
ĠH erm
Ġnot ice
Ġcan al
vel ation
Ġup grad
Ġac oust
ck er
tain ing
Ġext ensively
Ġread ers
Ġsk ull
Ġengine ers
Ġrank ing
ĠColomb ian
Ġbehavi our
ĠNich olas
ĠDemocr ats
upunct ure
I m
T C
a uc
k ara
Ġt ick
it ative
Ġbe ings
ĠE mer
Ġr u
ĠK at
Ġle af
ĠV ic
Ġdevelop ments
Ġrece ives
ele cted
Ġbi oc
Ġeth n
Ġsec ular
Ġjud icial
Ġcounter part
Ġevolution ary
ĠBak u
Ġsusp ended
Ġsle ep
Ġpand emic
B u
b ase
h attan
en berg
Ġc raft
Ġp ushed
Ġd aughters
ĠS in
Ġn odes
ur re
ch i
ĠN ar
Ġse ctors
oin ts
ĠY our
Ġinv ention
ros by
ĠBo x
Ġmin erals
Ġdel iber
Ġconsider ably
Ġpsych ological
unc iation
ĠUnivers al
Ġresident ial
Ġbankrupt cy
d ale
e u
g s
g roup
z ing
Î ½
al c
Ġp y
ĠM S
ĠM Ã¼
ĠE vent
ĠN eb
Ġv ic
ide press
olog ically
Ġunder go
Ġbo ot
St ation
Ġinform ed
Ġdev oted
ĠSup port
Ġfall ing
Ġste am
Ġexhib it
bu ilding
Ġtransform ed
Or gan
Ġcous in
ĠAege an
D F
Q u
b ath
o ons
Ġt ape
er ts
Ġb rick
Ġf iles
ro x
ĠA x
ĠC ra
ĠB ast
ĠThe ory
ĠH ugh
ĠK ash
Ġcont rad
Ġunder lying
ather ine
Ġrad ius
Ġdem ol
ĠÃ ģ
Ġrespect ive
ĠLuther an
ĠBI OS
ĠÄĢ nanda
C urrent
d isc
i em
r ide
s burg
Ġt ight
Ġo w
Ġf ighter
ro at
ĠS ic
Ġg ang
ĠH itchcock
Ġal ive
Ġcon greg
oc ese
ĠO ak
ĠO sc
ĠIn s
ess ed
Ġr ating
iz ers
Ġro oms
Ġinter cept
Ġinter vention
ele ction
forman ce
Ġastron omy
Ġquant ity
Ġmaintain s
oir s
Ġeffic iency
ĠIndepend ent
ĠRet urn
Ġans wer
; "
b ow
u um
ist ing
In f
Ġdes ired
Ġind eed
ins berg
Ġob st
Ġaud iences
Ġbroadcast ing
bro se
Ġcollabor ation
Ġmoder ate
ĠMedic ine
Ġcasual ties
N ep
m aker
ĠB ristol
ĠM eanwhile
ĠH ur
ĠJ ama
Ġhe ter
Ġse ed
og ram
ord e
Ġover t
Ġafter wards
yl lium
Ġrest oration
Ġfootball ers
CA R
ĠRob inson
Ġrom antic
ĠAuthor ity
d oor
n et
Ġs am
it ely
Ġc ash
ĠC ode
ĠC itiz
ĠT a
Ġl ib
ĠM oses
ĠR OM
ear ing
ĠAn im
aw s
arch y
Ġequ ilibrium
ĠNorth west
Ġval uable
ĠAnd rÃ©
Ġmanag ers
Ġcust omers
iro t
cons in
ĠJul ius
Ġthink ing
ĠUr ban
Ġlingu istic
ĠConfuc ius
Ġtas ks
ĠBure au
B ecause
g ments
m ay
m und
Ġa rose
at ched
Ġs aved
il ia
id ance
ĠR ican
ill o
ap or
ĠK l
Ġcomp act
Ġen cl
Ġaut umn
Ġrep ublic
ĠAp pe
Ġpers pective
ogen ic
Ġoxid ation
Ġsurf aces
ĠConnect icut
icill in
A rab
C ap
G u
W orks
at ra
le ctions
ĠD ave
ĠD ragon
ĠG on
est yle
ab out
Ġex ha
qu is
ĠO regon
og s
ge on
Ġsh ield
Ġpre st
Ġreg ulations
Ġfl ower
Ġent ities
Ġoper ators
Ġant isem
Ġdet er
Ġdid n
Ġeven ing
Ġrepresent atives
Ġtop ics
Ġbeh alf
Ġpoin ted
Ġox ide
Ġsit uations
Ġexc ell
Pop ulated
uros awa
G N
V A
h al
Ġa w
it an
ĠL ocal
ĠE ld
op enh
Ġv oy
Ġhe lic
Ġper mit
Ġpop ulated
Ġprov ision
ĠChar lemagne
ĠGu ine
Ad rian
Ġgr ade
Ġneighbor ing
Ġencounter ed
b ul
l s
Ġst rug
ĠL ion
Ġor chest
qu er
ip ped
ph an
Ġper mission
Ġte a
Ġcount ies
Ġdist ant
Ġins urance
Ġsent enced
Ġchem ist
Ġfood s
Ġinteg ers
Ġdefin itions
ĠAh med
Ġvirt ually
Ġfair ly
Ġvess el
ĠMalays ia
ĠChican o
R ad
W omen
Y ear
f ri
Ġt ens
ĠS A
ol en
ad der
ĠM ills
im ed
ĠP sych
ĠD ublin
ĠW right
ĠN ature
ap olis
ib ilities
Ġcl ergy
hen tic
Ġreg ulation
Ġob vious
ĠCar ter
Ġpers ec
SC O
Ġphenomen a
ĠOt to
Ġgal ax
Ï Ĥ
Ġd ens
il der
ĠO ur
ous es
ĠAn na
att y
Ġdef ic
Ġperiod ic
writ ers
Ġbomb ing
ĠPlay er
Ġlabor atory
ĠMun ich
ĠMes opotam
cap ital
Ġelim inated
Ġabbre v
' re
a ic
c are
y ers
es ian
Ġc ad
Ġb ay
ĠH unt
ĠG round
ri ors
du le
ĠUn it
Ġab road
Ġacc us
Ġph yl
Ġass ets
Ġmet h
ĠCon c
Ġins criptions
Ġeng age
Ġexper t
Ġcomb ustion
reg ular
Ġstrong er
ĠOther s
Ġsec ured
ĠMiss issippi
Ġdepart ure
Ġconstitu ency
ĠStan ley
former ly
Ġcomed ian
Ġinfin ite
Ġori ent
ĠWis consin
D S
M e
he ld
on ly
ĠC IA
op ter
ĠN am
ain ing
ib an
act s
Ġrev olt
Ġprof it
Ġgen res
ĠAct s
viron ments
Ġrail road
Ġfall en
ĠVol ume
Ġcust oms
Ġbr ass
Ġconsequ ence
ĠMo ore
Ġmanuscript s
ĠCentaur i
openh auer
a ire
p ers
w ord
Ã ł
Ä ĥ
Ø §
es ch
Ġc up
Ġc ov
Ġb iblical
ĠC ook
ĠM embers
ig ible
ist ant
og ens
ĠV ice
ach ment
Ġj um
Ġph one
Ġtrans p
Ġimport ed
Ġrequ ested
Ġless er
ĠRes erve
Ġimpro vements
Ph ilos
ĠCarl os
Ġseem ed
ĠCE O
Ġarc ade
grad uate
Ġconson ants
Ġintern ationally
Ġanch or
Ġacknowled ged
Ġhors es
n ew
o il
at hered
ĠS Ã£o
ow der
Ġor chestra
ĠV ancouver
oin ting
Ġra c
Ġdisc rim
int end
Ġprot ests
Ġhelp ing
Ġmeasure ments
Ġsac red
Ġopportun ities
Ġabsor bed
Ġmort ality
Ġfoss il
V ID
f ound
l ock
p ent
t is
z i
in ued
Ġf aces
as ant
ĠC ole
Ġn inth
ch ar
Ġfor cing
ĠI SO
ĠL ore
als h
Ġmag azines
sh ine
Ġdisp utes
cel and
ĠMore over
Ġconsum er
Ġce ased
Ġsan ct
Ġdispl ays
Ġshif ted
D I
O ut
h yd
Ġt urb
Ġh ij
ĠC emetery
ĠB aghdad
ad ia
ĠP eng
ĠR hod
ĠCh amber
ĠSt u
Ġte en
Ġim per
Ġqu ad
Ġent hus
Ġback ing
ĠMan hattan
Ġfac ing
ĠAnt i
ĠBur kina
De ath
ĠUl t
Ġchalleng es
Ġlat est
Ġhabit at
Ġfil ter
Ġfab ric
B ah
m i
y ard
Ã ´
Ġf ur
Ġf ill
Ġp H
ĠA F
ĠB illy
Ġfor b
th rough
ĠD ance
Ġpro l
Ġen vironments
ĠY a
Ġpr ince
Ġear n
Ġsupp lied
eg as
ĠCl ar
ting ham
Ġtri ple
ĠBarb ados
Ġcru cial
ĠPit tsburgh
Ġing red
orient ed
Ã ª
Ġt ends
ent ieth
ct ive
ĠD ennis
op l
Ġun st
ĠV el
Ġcol span
elf are
Ġrele ases
ĠAnd ers
Ġdr ivers
Ġcontrol s
Ġactiv ists
ĠHol land
Ġcirc ular
ĠIndian a
ĠGold water
Ġsal ts
Ġcoin ed
ĠElect ric
Ġthir ty
Ġtren d
C rit
T ur
a ism
s a
Ñ Ĥ
or ra
al though
ic ing
ĠC ensus
ir k
ĠD J
Ġv ital
Ġun cle
ran g
clud es
Ġen act
Ġsm ooth
ĠJohn ny
ĠEd ition
Ġvis iting
akes pe
omp son
Ġpot assium
Ġaddress ed
Ġflu or
Ġmess ages
Ġaster oid
Ġneighbour ing
Ġsacrif ice
+ +
P P
h ost
or ic
ĠS S
ĠC ass
ol an
ag ger
Ġpro x
oc ent
ap ped
ĠK o
Ġdis agre
aw are
Ġcons ensus
ark ed
Ġover w
Ġaut onomous
Ġcap abilities
ĠFran z
ĠQ ur
Ġmin imal
ĠEx ecutive
writ ing
Ġinj ured
ĠCa uc
Ġillust rator
ĠGre ater
ĠDet roit
Ġcrow d
Ġere cted
ĠPolic y
D ist
S ax
W ar
h istor
p age
he dule
Ġp ray
Ġd imin
il ateral
ad y
im ir
ĠR at
ĠR ub
ace ous
Ġcan c
Ġcons olid
ind a
Ġsign ing
Ġcommun ist
Ġdem anded
Al f
Ġsk ill
Ġcamp s
ĠX X
ĠEx press
unic ation
Ġdefe ating
Ġtravel ed
ĠRevolution ary
ĠAzerbai jani
Ġimmig ration
Ġmil k
akespe are
G A
h our
Ù Ħ
Ġt y
Ġre ception
ĠM end
ĠM ack
ĠH ig
ys ics
Ġfl owers
au ge
ĠHar ris
Ġdecl aration
Ġcy an
Ġimm un
Ġaccess ible
Ã§ ois
Ġsulf ur
Ġtempor arily
ĠPasc al
ĠStew art
en ess
ar ians
Ġan ts
Ġp ap
Ġre verse
ĠB onds
Ġg rain
ow ing
ĠH omer
fic ial
Ġz ones
ĠMor oc
Ġcivil ians
Ġalt itude
ĠMaced onia
Ġfrag ments
ĠHell en
angel ical
h ar
p op
Ġl as
ot ics
ul u
Ġpro claimed
ard i
Ġint ellig
Ġrel ating
Ġme ets
uc lear
ĠCl aud
Ġgu ide
ĠHer bert
Ġsol ve
ĠNe v
Ġenc ourag
Ġfund ed
year s
ĠArch bishop
iff s
Ġphot ographs
ĠWil helm
Ġconv in
Ġhot el
ĠJos h
Ġchlor ine
Ġpredecess or
ĠIsa ac
ĠBD SM
B iography
F ore
m ates
n ian
w itz
Ġs izes
ĠC rim
el ing
ĠB ot
am ation
ur er
ĠI owa
ĠH om
ĠH ud
ĠR us
ri el
ri ft
ĠO cc
ĠUn iverse
Ġen orm
Ġinv aded
com es
Ġpower ed
Ġmy st
Ġcivil ization
Ġmeasure ment
ĠJim my
Ġrain fall
Ġattend ance
ĠUk rainian
Ġmart ial
Will iam
wid th
E SCO
Ġc ement
Ġb read
ĠA R
ĠC M
et e
Ġg am
Ġg arden
ĠH end
ĠN orm
ĠCh ang
pl ane
ĠAl ps
ĠAn y
Ġapp lies
Ġbl ind
ĠBer ber
ĠGu y
Ġcapital ism
ett a
Ġcost ume
ĠStud ios
aud i
ĠPet ers
ĠVen ice
raf ts
Ġbin omial
ĠFle et
Ġunc lear
Ġadopt ion
Ġinher ited
Ġcul min
Ġjun ior
ĠEston ian
. ).
p m
Ġs ession
or um
et ry
ĠM ans
ir i
ag g
Ġun ity
ult s
out heastern
Ġtrans formation
ann y
Ġfin ance
Ġprom ised
Ġprom oting
Ġlist ing
Ġpri ests
Ġge ographical
ĠTr inity
Ġregard less
ĠEv ans
Ġdon ated
Ġcalcul ated
Ġmuseum s
ĠJeff erson
ĠDor othy
Ġrh ythm
Ġlaure ate
ĠUt ah
ĠFinn ish
â£ ¿
M ajor
V I
Ð º
Ġf old
Ġd rag
Ġl ung
ĠB orn
ĠB eth
ĠR ain
ĠG or
ĠW or
ip er
ĠAl ong
ĠRe con
ĠAd vanced
Ġant idepress
yl ene
ĠAir ways
sh aped
Ġeth ical
inem at
Ġlegisl ature
Ġprogress ive
Ġburn ing
ID S
Ġdrum mer
Ġpict ures
Med al
Ġca esium
ĠCO VID
Ġnickn ame
ĠManu el
Ġempt y
odiazep ines
Nep eta
T L
f ast
g rim
Ġt um
Ġf raction
ut ors
ĠD allas
Ġcom ments
og le
ĠK on
Ġte achers
Ġvers e
de z
Ġopp osing
Ġconstit ute
Ġfight ers
Ġdyn amic
Ġlook ed
ĠNot tingham
ache lor
ĠColon el
ĠRav ens
) "
A A
T O
b ial
t r
or able
Ġp ir
Ġm os
ĠS r
ĠB onn
ig e
ir ms
ĠI van
ra k
ĠD ata
ĠG as
ĠO pp
ĠK os
ĠK urosawa
Ġinf ections
ĠLe ban
ject ive
cy cle
yp ically
ĠInd ians
ĠAd v
ĠMay or
Ġder ives
ĠHol ly
Ġcateg or
Ġwind s
ĠJud aism
Ġbod hisatt
Ġsyn thetic
Ġdelay ed
C H
D C
an cer
it ary
Ġm ild
ĠC ave
ĠT ed
Ġre ly
ĠM oz
ot us
Ġas h
ĠP le
th a
ĠR ick
Ġwh ilst
Ġsh r
Ġact ed
Ġbo ats
Ġco at
Ġob sc
Ġmed ian
Ġsoc cer
Ġtrib ut
Ġcoll aps
ĠBur ton
Ġcreat ive
Ġphot os
Ġlay ers
ĠPo irot
ĠElect ron
ĠSocial ist
ĠSab bath
Ġod d
ĠPed ro
c ore
g rade
l it
l iga
u ating
Ã ¥
Ġs ick
Ġs oph
Ġm ood
ith ium
ĠL en
art s
pl ing
ĠTh ompson
ĠY outh
li x
ĠDe cl
iel der
Ġcap ability
ĠSh aron
arm a
Ġident ification
ĠPol y
Ġel ite
ĠAv iation
Ġburn ed
ĠMic hel
ĠMarsh all
ĠBed e
ĠBow ie
ĠPhoen ix
ĠML B
ĠKash mir
E p
G overnment
Ċ ĠĊĠĊĠĊĠĊ
is p
al in
Ġin ternet
Ġd ream
ĠC hel
Ġl ieutenant
Ġcom fort
cc a
ĠAl bum
Ġdis ch
te ch
ĠEn t
Ġover th
Ġsub mar
Ġfilm ed
ex p
Ġcar ries
Ġimp osed
Ġair ports
Ġconsid ering
ĠBer t
ĠBr un
Ġplan ets
Ġreb els
ĠDan ube
Ġdeliver y
ĠJun ior
Ġdecor ated
Ġconj ug
ĠSchwar zenegger
Ġcomprehens ive
b ridge
m od
v ar
ĠM ind
and in
um m
Ġk ick
ass ador
Ġsp elling
ah l
Ġsub mitted
ĠAm brose
ox ide
oph one
Ġval leys
Ġdem ands
ĠMass oud
col or
Ġwithd rew
ĠOl iver
Ap ril
Ġshell s
ĠAI M
ĠKy i
chang ed
m ade
v et
Ġthe at
an ch
it ting
ĠS ap
ul atory
Ġv ide
ment ation
ĠK ey
ĠSt ev
ĠAr g
ĠHe in
we ed
Ġsub div
Ġtrans mit
ĠAm al
eng ths
Ġback up
Ġdown town
Ġdev ast
Ġmot if
Ġtrib al
Ġheav ier
ĠDis ney
Ġsubs et
ĠTro phy
Ġdoub t
Ġcart oon
Ġbatter y
Ġchalleng ed
ĠInf antry
ĠHot el
ĠVar ious
Ġoverse as
Ital ian
N et
c al
d r
h y
k el
n ames
p erson
s or
v ia
er r
Ġs el
Ġc ort
ar in
ra ys
ĠR ic
ĠG ate
ĠG Ã¶
ĠW ing
per m
ĠAn s
Ġra w
Ġrem ote
Ġno ise
Ġext ant
Ġext ends
omet ric
Ġprop het
Ġport ions
ĠBr uns
ĠPer u
Ġvict ories
ĠAnt ig
Ġyoung est
Ġcomment ed
agon al
Ġmonarch s
Ġmill ions
Ġtrav elled
ĠTurn er
Ġoverw hel
S S
m un
m ale
an im
al ph
Ġd ivers
ĠF if
Ġpos it
Ġfe ast
Ġsur gery
ĠInd igenous
Ġhigh way
ash i
Ġperson ally
ourn als
play ing
Ġcontrib ute
Ġclos est
Ġdeep ly
Ġneut ron
Ġmill ennium
Ġelev ated
Leg acy
ĠAar hus
P aul
w inning
Å ¾
Ġc argo
ĠC rosby
ĠT raining
ĠB un
Ġse ized
ĠV II
Ġab oard
Ġqu oted
Ġappro ached
Ġread ily
Ġaff ord
Ġimpro vement
Ġcitiz en
ĠFin ally
ĠSu u
ĠJo an
Ġbelong ing
agon ist
ĠFour th
Ġabol ition
Ġabsor ption
ĠTal iban
Ġderiv ative
ĠRon ald
Ġmetab ol
A wards
I an
T our
] ,
c ru
Ù İ
Ġf antasy
Ġd op
ĠS ite
Ġl akes
ĠB rab
Ġg ets
Ġhe x
ĠIn vest
Ġpl acing
li er
Ġthere after
Ġpres idency
Ġtra ce
ĠInd o
ĠInd ies
Ġproper ly
ĠPer iod
ĠPers e
part y
Ġfriend ly
Ġbelong ed
Ġcolumn s
Ġveget ation
Ġrepeated ly
Ġassass ination
Ġvac uum
Ġconstell ation
Ġsubur bs
H ar
N on
a ude
m ate
Ġs aint
Ġp ill
as a
Ġh unt
ĠM aj
Ġg athered
Ġst ops
ĠF un
est y
ĠCh air
Ġprov en
Ġgovern ing
ĠSh akespeare
ograph ics
Ġconsid ers
ull ah
ĠBr as
Ġdest ination
Ġparticip ants
Ġmanufact ure
Ġhor ror
Ġcorrespond ence
Ġprec ise
Ġmole cule
ĠAnton y
ĠBrand enburg
ĠBM W
Ġbot an
C P
I M
in os
Ġb are
Ġf action
Ġp ump
ĠA ragon
Ġg if
ĠI celand
ater n
Ġsc hedule
Ġj et
Ġra ising
Ġgener ations
ann i
Ġexp at
Ġfe ather
ae a
com plete
Ġprocess or
Ġpract iced
Ġevery one
Ġannoun ce
Ġliter ally
Ġfind ings
Ġopt ions
Ġastron omical
ĠTer ry
Ġcorrespond s
Ġqual ified
Sc ott
Af rican
ĠErn est
rika ans
Ġnerv ous
D avid
d est
g ate
l ia
he ro
it ars
Ġw el
Ġp ipel
ĠA achen
ĠS now
ĠT on
ĠL ane
ĠN ash
Ġcomp rom
ail ing
Ġac et
Ġext ending
ĠEurope ans
Ġgu idance
ĠPl ato
Ġdr ives
Ġadv is
Ġsk i
Ġanal yst
Ġvol unt
ĠChile an
Ġlic ensed
Ġbacter ial
Ġcatal yst
Ġrival ry
Ġchrom ium
Ġdenomin ations
Ġswit ched
M Hz
i ability
p us
Ġc hest
Ġd rain
ĠC ret
el i
ĠB ent
ĠB rom
ĠH ills
ĠR oth
ĠF at
enn ial
chn ology
Ġreal ized
De aths
ĠMark et
M y
h ill
l ore
z y
at ine
Ġs ending
Ġb ars
Ġd atabase
ĠC ultural
Ġl iver
Ġl ibraries
ĠB our
ĠF ace
ĠF ras
est ock
ord ination
ry s
Ġspe eds
Ġele ven
gl ed
ĠFran ces
int ers
Ġdisp ers
Ġcommercial ly
ĠInt el
Ġancest or
ĠGall ery
ĠIndones ian
Ġprint ers
Alex ander
Ġabund ant
Japan ese
Ġearthqu ake
G C
g un
u y
Ã ¯
en os
Ġc ipher
ar io
ĠS om
ĠS oul
ĠT roy
ĠB aker
ĠM eh
ĠW ard
od d
Ġcom ics
Ġper ception
aw k
Ġmet res
Ġcre ates
ĠFor mer
ĠComm ons
Ġsuccess ive
Ġdet ected
ĠAg assi
Ġevent ual
Ġarg uing
Ġpen insula
ĠUN ESCO
Ġimpl ies
Ġmut ual
ĠAB BA
ĠBruns wick
f inal
Î ¹
Ġ rib
ĠS alt
ĠM A
Ġst ack
ĠG aul
Ġch ains
Ġch apters
ens ing
Ġtrans mitted
Ġaut hentic
Ġart if
ĠPro to
ĠAf ro
Ġter rain
Ġaff air
Ġtop ic
ĠTur ks
Ġstri ps
Ġser ver
Ġsqu ad
ĠMet ropolitan
Ġemer ging
ĠStud y
Ġbroadcast s
ĠInt elligence
ĠAbb as
harm a
Ġaware ness
ĠHop kins
ancell or
angz eb
ĠMugh al
B N
E D
E L
E th
S pecial
s ince
w as
y es
y cl
Ġb ull
ol ars
ĠH at
ĠF ac
ĠL ie
av is
Ġor n
Ġhe ar
ant ed
Ġr ivals
ĠK now
end um
ong o
Ġad verse
Ġcl ay
ĠAr bor
ĠAr ctic
ath a
Ġrec alled
Ġapp rec
Ġqu e
Ġdef ines
Ġpres ents
Ġexp on
Ġhigh light
Ġequ ally
Ġimport s
Ġrun ners
Ġinc idents
astern ak
ĠHar old
rag ue
Ġconsist ently
ĠQu arter
Ġemer gence
Ġprevent ing
Ġesc aped
Ph il
Ġfocus es
Ġdepart ments
ĠBroad casting
Ġproport ional
Ġjurisd ictions
ĠNiger ia
Ġdismiss ed
Cent ral
Ġantiqu ity
ĠObs erv
Ġconvin ced
" :
F ictional
O ct
b oth
c us
f ile
Ġ >
es p
Ġb le
ĠT ob
am ous
im ony
Ġas k
Ġg el
ĠH ipp
ĠR yan
ĠG insberg
ac o
Ġor th
Ġar ist
Ġsh arp
Ġab use
ĠTh om
ach i
ans k
ĠLe o
tle e
Ġcor on
Ġconf usion
Ġhand le
Ġvis its
ffic ients
Ġassoci ate
Ġcirc ulation
ĠBas ic
Ġrequire ment
Ġinn ings
ĠSur vey
ĠChap ter
Ġkingdom s
Ac adem
ĠAal en
Ġvulner able
ĠFlore nce
usch witz
ĠGuine a
b ast
m akers
o fficial
Ġt ip
Ġa ber
re ct
an ies
ĠC u
ĠB es
Ġe ating
et o
ot rop
Ġfor th
Ġ" [
ĠU EFA
The y
Ġsh aped
Ġper pet
ep hew
ĠSe an
ĠRe f
Ġac upuncture
ĠCon st
ĠJohn ston
Ġsmall est
Ġlit urg
Ġreal m
Ad d
Ġbank ing
ĠDel ta
ĠLabor atory
asi atic
ĠAth anas
Ġcoe fficients
Ġprecip itation
Ġastrol ogy
Ġcompat ible
Ġexha ust
A ut
G BT
K ing
f ounded
l ar
Ġa phas
Ġf iring
ĠT ib
ul as
ul um
ĠD al
av ar
if ier
ab apt
ĠO il
ap arte
Ġcomp rises
Ġk ne
iz ard
Ġsp end
emb le
Ġgener a
ik i
ĠCar n
ĠArch imed
Ġclos ure
ĠSpe c
Ġrecon struction
ĠJac ques
ĠMach ine
Ġassemb led
ĠSlav ic
Ġnavig ation
Ġinse cts
ĠFri ends
Ġbrig ade
lik ely
ĠBoh r
Ġcanc elled
E m
H L
K B
y t
Ġb ore
Ġm ine
Ġm aps
st ring
ĠS ut
ĠB rew
ĠL amb
Ġse vent
end a
ne ys
Ġsp here
Ġatt itude
Ġinter act
Ġsur ve
Ġorgan ised
Ġorgan isations
Ġav iation
ink ing
ĠArab ian
Ġattack ing
ĠBas in
rup ted
Ġnomin ation
Ġinterpret ations
imens ions
ĠHaw ai
Ġpan el
Ġplatform s
ĠAlb ion
Ġrefuge es
ĠWalk er
Ġdub bed
O fficial
n umber
is ons
ĠA eg
Ġh oney
ĠS ug
ĠB ug
ĠB ros
ig ation
ut ical
Ġfor g
th al
ĠJ oy
ĠO w
Ġun ex
ĠK ol
Ġint ense
ang ered
act ic
ne o
Ġinter change
the l
ĠPr ussia
Ġadv ances
sp ring
Ġhel ps
ĠHen ri
Ġur anium
Ġpsych iat
ĠSar ah
Ġfeel ing
Ġhop ed
Ġven ues
Ġtermin ology
Ġsovereign ty
Ġupd ated
ĠAntar ctic
ethe less
) )
P ol
U p
h ou
y on
Ï ģ
Ġt ar
ed e
it us
ĠS N
ĠT as
ĠB uch
Ġst ones
ĠR ous
Ġcon gress
ĠF ab
ĠG iants
rom agn
ac on
Ġit er
Ġcent res
Ġrel atives
Ġout break
ĠRe ich
Ġph ases
form ing
Ġcap s
ĠBl izzard
Ġair lines
Ġwill ing
let te
Al bert
Ġsepar ately
Ġdeb uted
ĠGl as
Ġpreserv e
Ġrecon st
ĠBan ach
abul ary
Ġrevolution ary
Ġalter ed
Ġcomplic ated
quir y
H igh
L ike
p rises
ĠB ird
iv an
ĠD h
ĠW W
Ġv ig
ĠK le
Ġsh ots
Ġper f
les h
Ġreg ister
Ġher b
ĠZ ion
ĠAf onso
ĠConf ederation
Ġjud gment
ali yah
ĠGra ce
Ġwind ow
Ġut ility
fin als
Ġpeak ed
Ġswim ming
Ġimprison ment
ĠArtic le
ĠVin cent
Ġcriter ia
Ġclimb ing
H S
m el
z hen
ĠA ung
id i
Ġst roke
Ġcon sole
ĠL och
ĠW es
ĠK Ã¶
Ġag es
Ġcol ours
ick en
Ġaut onomy
ĠMar vel
Ġpar as
Ġeconom ist
Ġprocess ors
Ġfre ed
ĠBer g
Cl imate
Ġdeal ing
ĠMont real
ĠBarb ara
ĠCharl ie
ĠEver ton
Ġresc ue
Ġt ables
re z
ro cess
Ġd ances
ĠS oph
ĠG ospel
ĠL ost
oun ced
qu est
ong s
Ġmod es
ĠSc andin
ae an
Ġhum id
Ġmar itime
Ġcr ude
sh ore
ĠĊĊ ĠĊ
ĠMet ro
Ġassist ed
Con f
Ġgain ing
ĠDyn asty
ĠCry stal
Hung arian
ĠFull er
Ġunem ployment
ĠPtole my
ĠOsc ar
B ig
g ow
p in
p it
u i
Ġt ries
es pecially
Ġin land
Ġg ases
Ġon wards
ĠG ener
Ġv it
ĠCh all
Ġk it
clud e
ubl ished
ose xual
Ġsystem atic
Ġeconom ics
Ġbelie ves
Ġkill s
Ġhuman ity
Ġconn ects
Ġlab els
Ġbur ial
Ġalc hem
ĠRail road
ĠCyp riot
Ġsuggest ing
Ġbra ille
Ġaccomp any
Ġchampionship s
ĠCharl otte
Ġaspir in
Ð¾ Ð
Ġiniti ative
ĠVill age
rep rene
ĠLinn aeus
ĠCra ig
M ult
n atural
u h
Ġt in
Ġthe ological
Ġf et
Ġf asc
Ġf inger
as m
ist ically
ess e
ĠUn til
Ġman age
Ġbo ards
Ġem bra
Ġexp elled
ĠBl ake
Ġdec ide
Ġlast ing
ĠBra h
ett ers
asc ular
CA A
ĠSal v
Ġaim s
Ġillust rated
ĠBol ivia
Ġprep are
ĠDar win
Ġcryst al
Ġrestaur ant
Ġexpand ing
ĠGib son
Ġsubsid iary
Ġappoint ment
Ġnan ot
ĠScient ific
Ġcoff ee
A ct
J une
Y ou
b one
d em
h uman
l ah
l Ã©
p iece
r ath
w he
Ġth rown
ch s
ĠM ath
ul ator
ĠH av
ĠH ob
ĠW here
og an
end ers
Ġres umed
ace utical
Ġen able
ĠY emen
Ġgener als
Ġmon op
ik os
lu ence
Ġconf irm
ĠSch openhauer
St ar
Th rough
Ġbattle field
rel ation
ĠSte ven
ĠEs sex
ograp hers
Ġpoll ution
ĠArm strong
Ġwalk ing
Ġtact ics
ĠGoth ic
Ġenorm ous
a an
a un
h ydro
r ators
Ġan th
Ġp ale
as ury
Ġm ines
Ġre ver
ĠB am
im en
Ġg ift
ĠP ack
ab we
ip ino
ust ers
Ġint ensity
Ġsc ope
Ġsc andal
ĠDe ep
Ġinter f
Ġbo ost
yp ical
Ġgu itars
Ġvers us
ĠEx change
Ġver bs
ĠKn ights
Ġprior ity
Ġspect ral
ĠGo ogle
imb abwe
Ġpet roleum
Ġwrest ler
Ġacquis ition
k ar
m ont
u fficient
Ġ <
re f
Ġd ense
ĠS ah
ĠT otten
ur ated
us ually
ĠP asternak
ĠF isher
ĠF oster
ĠJ ason
all ing
ard ed
Ġsur pass
uss ion
Ġshe et
ey er
Ġleg ally
An g
atter y
Ġtreat ments
ĠSchool s
Ġprevent ed
Ä± n
ĠHel en
Ġban jo
Ġsup ers
Ġadvent ure
Ġmerch ant
Ġimprison ed
Ġmanif est
ĠSoft ware
ĠStu art
P R
d el
n amed
p ose
r int
it ated
Ġc el
Ġf ame
Ġf ract
ĠA ctor
ĠM B
ig o
ĠP y
ĠP ant
ĠH amp
ab a
Ġun w
ĠAn imal
Ġres ort
Ġper m
ach t
Ġsc en
Ġact ively
ĠMar x
Ġfin als
ĠAll ah
Ġgl ac
Ġbre ed
Ġjournal ists
ĠPers ia
spe ed
Ġcard inal
Ġpsych ology
Ġtarget ed
Can ada
ĠUs ing
ĠCr ime
Ġaccord ance
Ġaccompl ished
Ġbuzz ards
ĠWed nes
Medal ists
E astern
M en
d an
g overnment
É Ļ
al is
Ġc ir
Ġin k
ro e
ĠA rian
ĠB ull
ir ts
Ġg ran
Ġal ien
ĠG rad
ĠL ock
Ġsu re
ap ing
Ġun ified
ĠK or
Ġfl own
az i
Ġart ic
ĠAf rikaans
Ġdesign ation
Ġfun eral
amb ers
Ġsw ing
Ġmass es
bor g
Ġtw in
Ġpriv ile
ĠArch ive
Ad m
ĠBron cos
ĠFer din
Ġatmosp heric
Ġcab in
Ġroll ing
Ġarbit rary
Ġdang er
Ġprohib ited
Ġdisappe ared
Ġbicy cle
% ).
B ang
D R
h im
i ar
k g
s he
t un
re ck
Ġw avel
Ġto uring
Ġh orm
Ġre organ
am pton
ter ior
Ġat he
qu et
Ġcomp rising
Ġev ac
Ġthan ks
ĠLe eds
Ġtrans it
Ġprov isions
Ġem otional
Ġrep air
Ġrep roduction
ĠWar ren
Ġant icip
Ġdesc ended
ĠCar bon
Ġwar ning
Ġmar ble
Ġcomb inations
Ġobs erver
Ġrespons es
Ġneigh b
Ġcompar able
Ġcitizens hip
ĠBak r
Ġbattles hips
Ġaccur acy
ĠBalk ans
Ġhousehold s
ĠIndust rial
ĠEnvironment al
ĠBaham as
' ve
g ans
s elling
al one
Ġc rack
Ġb und
st ers
ĠB ear
ĠB ee
ĠI ce
ĠL aur
ĠE ight
cl amation
Ġmet ers
Ġdo ors
cess ion
Ġsur p
ator ies
Ġresp ir
Ġcomb ining
Ġfre ight
ĠHer ald
Ġredu ces
Ġimm une
Ġreb el
ĠDep uty
Ġcontinu ously
Ġceleb ration
Am ong
Ġremov ing
ĠJer em
Ġsus pected
Ġpoor ly
ĠVictor ian
ĠMad rid
ĠBob by
ĠKe ith
Ġancest ors
Ġpurs ue
ĠSus an
ĠMethod ist
ĠBohem ia
N or
b en
b ing
d ist
f our
p unk
Ġc iting
Ġin herent
Ġb on
ĠA uschwitz
Ġbe es
ĠP ad
ist ence
ĠG ust
ĠN ext
ang ular
Ġres ource
Ġdis aster
Ġrel ay
Ġout come
Ġinter v
Ġfe ud
ĠFran co
ĠCl if
ĠBe h
Ġmar ry
Ġexpl oration
Ġband y
Ġren owned
Ġimpro ving
Ġsuff ix
Ġconsider ation
bl ack
ĠTor res
Ġfif teen
ĠOper a
Ġexcell ent
ĠStev ens
D ue
E lect
J u
L iter
b rates
s l
w orld
Ġb owl
Ġf ires
ic us
Ġm arsh
ĠC SM
Ġl ighter
os ystem
ĠD ub
ĠL av
ĠL iving
Ġun likely
ell es
Ġcan cel
Ġspe aker
Ġatt ested
Ġac ute
Ġco oper
Ġinst ances
Ã© m
Ġbel t
Ġeng agement
Ġprot otype
ĠEx pl
Ġsocial ist
ĠNe il
Ġred es
Ġtransport ed
war f
Ġlaws uit
Ġbox ing
Ġgrand father
Ġantib iotic
Ġswe et
ĠLim ited
Ġspons ored
ĠSay y
Ġathlet es
ĠArn old
Ġautob iography
Ġcannib alism
ĠFrid ay
' d
L and
a que
t ers
re tt
Ġw ed
Ġh arsh
ĠP as
ĠP ract
ĠH IV
Ġst yl
per t
ĠV lad
Ġman eu
Ġj ournals
Ġcar b
inc inn
Ġfre ely
Ġep ic
ĠPaul o
Ġmiss ed
Ġexcept ions
min ute
Ġelement ary
Ġfort ress
Ġdra f
Ġhol y
Ġadvert is
Ġrein force
Ġdiplom at
ĠMid lands
ĠBrother s
ĠKir k
Ġencod ing
rele ased
Ġfran c
ĠProte ction
D is
L atin
R ed
R ail
m ium
u ates
u zz
w au
Ġ {
an alysis
ic ium
Ġg ay
ĠP oll
ĠD in
Ġv e
Ġsh aring
aw i
ĠY ale
Ġnew er
Ġra ys
Ġfl ank
Ġdef ining
Ġdist ances
Ġmark ing
ĠAlex ios
Ġintrodu ce
Ġge ography
ush ing
Ġstri king
ĠBay onne
ux ili
Ġgra ve
yr ill
Sp anish
Ġvirt ual
Ġisot ope
Ġvolcan ic
Ġrebu ilt
ĠLank a
Ġdecis ive
wau kee
F ootball
M al
al id
Ġw elfare
ro st
Ġm oon
Ġd in
um s
ĠE aster
od a
ac us
Ġhe ating
Ġout standing
Ġunder graduate
Ġwe aken
Ġfound ations
Ġdire ctions
Ġpresent ation
Ġfact o
Ġcomput ation
Ġarch ipelago
ook ing
St ud
app y
Ġcertain ly
ĠSpe er
ĠAnn ual
Ġhonor ary
Ġcool ing
Ġinnov ation
ĠLiter ature
Back ground
count ry
ĠCzechosl ovakia
names e
G rand
S em
a os
m ember
r ins
Ġb ats
as an
Ġm ent
ĠS i
Ġn aming
ot ions
ra wn
ĠR ac
ĠF itz
ĠG rey
ĠL arry
Ġde als
Ġr ings
ish a
Ġpl ates
Ġle ather
pt ic
Ġcont ra
Ġab ilities
ĠTh ir
ĠSe attle
Ġloc omot
Ġadd s
Ġdec imal
inc eton
Ġwid th
Ġcompos itions
ĠSpe ed
Ġalg ae
Is lam
Ġtend ency
ĠRod in
ĠOri oles
Ġvo iced
ĠCauc as
Ġsoph istic
B etween
E ast
O N
Ġ ic
ar is
Ġf ox
ic ity
ĠA ren
Ġh ur
Ġl es
ĠI ber
Ġbe ach
ac ular
ip es
Ġsh apes
oll a
Ġpre t
Ġev ident
Ġatt orney
ĠDe co
Ġpolit ically
ier ra
Ġpriv ately
Ġz inc
ĠBas il
ĠSl oven
Ġlack ed
Ġsett ings
Ġreason ing
Ġcontract s
pro fit
fl ow
ĠFin ance
ĠOper ations
Ġmonth ly
Ġir regular
Ġcompil er
Ġyield s
Ġpreced ing
ĠBabyl onian
Ġber yllium
ĠFa ith
ĠBurg und
ĠHab sburg
ĠMoh am
Ġtel esc
ĠMond ay
ĠEvent ually
ĠGon z
Ġorient ation
incinn ati
E very
m ill
s ite
Ġs aints
Ġp agan
le ans
ĠS ig
ur ring
ĠP rague
ĠThe ater
th is
ĠR alph
ĠN as
ĠHe aven
ath ing
ath olic
Ġsp ir
ĠBl ock
Ġshe ep
Ġsever ely
Ġtrad ed
Ġmultip lication
ĠMy th
Ġang les
Ġsymb olic
ĠLiber ation
Ġpron unciation
ĠCommission er
ĠAP L
phal ia
Bah Ã¡
ĠPerse us
A tt
M ore
O H
O ld
U r
Ï Ħ
or os
ĠS audi
ĠC arm
ĠT ru
Ġas king
ra ud
ĠR ugby
Ġrel ie
ug s
Ġrem n
Ġend ors
Ġgovern ors
Ġeffect iveness
row ing
ĠGe off
Ġrefer endum
ĠWest minster
ĠSch we
Ġge ographic
Ġcritic ised
het ics
Ġtravel ing
Ġheav en
Ġquestion ed
Ġrein forced
Ġreflect s
Ġaffili ated
Econom y
Ġphil anthrop
C ast
P o
c ourse
i ors
i ago
j ust
t em
Ġt ie
Ġc ord
Ġin comp
Ġb ind
Ġf atal
ic enna
Ġd ust
ĠA w
ĠB ard
im ity
ul ative
ĠN Y
Ġ" ...
ĠV as
ath on
ern er
ĠCon cer
Ġli bert
Ġlaw yers
ĠPl ant
Ġter restrial
iment al
Ġsequ el
hold ers
Ġbox er
ĠJul ian
Ind ian
Ġbrand s
ĠBeng ali
ĠBon aparte
Ġvir us
ĠCab inet
Ġrub ber
Ġshop ping
ĠTok yo
ĠOffic er
F our
P L
m other
r Ã¶
s er
s ur
en c
Ġc ock
ic he
ro ck
Ġd imensions
ĠC ob
ĠC hess
ol ving
ĠM ort
ĠL em
av ers
Ġun ited
per ors
Ġcl ot
Ġatt ending
Ġatt raction
Ġass ert
Ġco oking
Ġem ission
Ġsign ature
Ġmon k
inn ed
Ġdesign ers
Ġconf used
Ġpract ition
Ġgl ob
eth oven
ĠDem ocracy
Ġarr iving
Ġgre y
Ġchemical s
ĠJer ry
ĠBor g
ĠBos nian
ĠCamp aign
Ġfavor ite
Ġdepend ence
ugos i
Ġcosm ic
Ġaster oids
Ġstrict ly
Ġsubstit ute
Ġgrav ity
Ġprompt ed
Ġpregn ancy
Ġliv estock
ynt hesis
ĠFerdin and
A ud
L et
t here
Ġw ound
as is
Ġre ass
Ġre ward
ig s
ul i
ĠG ray
ĠL ag
ĠJ ak
ang o
Ġper ipher
Ġsc r
Ġprodu ctions
Ġkn ock
ĠSc he
abl ing
rican e
Ġship ping
Ġver t
Ġabs ent
Ġsurv iv
Ġhous ed
Ġaband on
Ġhypot hes
Ġconvent ions
Ġexam ination
def ined
Ġnoun s
Ġreleg ation
ĠAthlet ic
urre ction
Sax on
ĠAthanas ius
yrill ic
B B
c ip
l ag
m ail
u ity
w art
is dom
it ational
Ġm a
ĠM ap
ĠM other
ot on
Ġg ap
Ġg ymn
ra pe
th ree
os c
ĠD ays
ich i
ant le
ĠAn abapt
Ġra id
Ġtra ced
ĠAt tlee
Ġap artment
ĠOr leans
ean ing
lam m
Ġmeas uring
orks hire
Ġprec urs
cles iast
Ġreserv ed
ĠArgent ine
Com mon
Ġsust ained
Ġsole ly
Ġreleg ated
Bra zil
ĠAgripp ina
rox imately
â£¿ â£¿
Ġaphas ia
ĠTotten ham
E N
F ield
S oviet
b oy
m aster
Ġt ram
Ġs oci
Ġc ens
Ġin equ
Ġf ru
as ures
il is
ĠC her
ĠC lement
ĠT ree
un ning
ĠH az
ĠR ight
ĠR AF
ĠD og
ĠF ig
Ġres olved
Ġmon uments
ĠFran Ã§ois
ĠOct avian
osp itals
mon th
ows ki
Ar tic
ev o
Ġsuff er
Ġachie vements
fl ight
Ġnomin ations
Ġbit umen
elig ious
ĠMod el
Ġrenew ed
ĠFal cons
ĠGriff in
Ġaggreg ate
Ġrevers ed
B orn
G all
W estern
Ġ ×
Ġb ord
Ġh o
Ġh tt
il o
ĠT ogether
Ġn ephew
un es
ow ell
Ġcon ce
ĠG et
ĠN ad
Ġad equ
Ġall ied
ah a
ĠDe an
aj a
ĠSp rings
Ġnumber ed
Ġext ract
ĠFran c
ĠMar l
Ġmin i
ĠAir craft
Ġav o
Ġadv ocated
ĠChurch ill
ĠAng els
Ġsit ting
At lant
Ġbatt ing
Ġassum ption
Mus ical
Ġnucle i
Ġmel ting
ĠPhilipp ine
Char les
Ġplayoff s
ĠAur angzeb
ĠAgain st
ĠMig uel
Rad io
ĠMesopotam ia
C amb
E xt
K n
L ou
c ode
È Ļ
Ġs or
al ks
Ġl ux
ĠB it
ch ild
ut onium
Ġfor ty
Ġbe ads
ĠR ace
ĠW ag
est ial
ac a
rit ion
ff ield
ne um
Ġrel iable
Ġra ids
az ing
Ġfe e
Ġsur prise
by ter
de velop
Ġcr ust
Ġbroad er
Ġavail ability
ett ys
Ġbattle cru
Ġceleb rate
ĠBor neo
ĠJud ah
ĠSol omon
Ġbelong s
ĠHaw ke
ĠAT P
ĠProdu ction
Ġarrang ements
stan bul
Ġdiscont inued
ĠÊ »
Ġunderw ent
ĠBenn ett
orde aux
Ġavo ided
he res
ĠA aliyah
Ġh idden
ĠS ak
Ġg ard
od ed
od ore
Ġde ce
Ġse eds
Ġch ip
Ġsh ock
Ġcont am
Ġad hes
ack er
ack ing
con duct
Ġdis hes
ĠAm mon
Ġspec imens
ĠCl ay
Ġauthor ized
Ġarch bishop
ĠCo al
eth yl
alt ies
ĠPark er
ĠAnt io
Ġput ting
clus ive
Ġlog ical
Ġscholars hip
Ġsens itive
ĠBir th
Ġperman ently
Ġsubstant ially
Ġpropos als
Ġalleged ly
low e
Ġenh ance
Writ ers
Ġtet ra
Ġaest hetic
orig inal
fri end
A cc
g us
m atic
Ġt ended
in ks
en cer
Ġb omber
Ġf lesh
ro v
Ġm anga
ĠS pect
ĠC atherine
ur st
ĠH us
ĠH ale
ĠD rag
ĠW onder
ount ain
ild ings
Ġam ber
Ġstud ios
ĠZ one
ĠZ imbabwe
Ġcar ved
Ġdec omp
Ġtr ump
Ġdiv ide
Ġsk et
ael ic
Ġcompan ion
Ġgra ce
Ġdram atically
Se ptember
Ġfriends hip
Ġinterview s
Ġconcer ts
Ġign ored
Ġpremi ered
ĠFight ers
Ġelabor ate
R et
b in
e ous
f ive
en i
ĠC ann
ĠT u
ĠT ig
Ġl ip
Ġl ying
ur gy
ĠF iction
ĠW ald
ĠK om
ong ue
ĠCh and
Ġcl er
Ġen l
Ġen erg
Ġcan als
Ġpr inter
Ġem bed
Re ception
ik o
Ġins isted
ĠPl us
ĠPl ate
che l
Ġexper ts
iol a
ĠMon te
ĠMon ten
ĠPri x
Ġclos ing
ĠCorn ish
ĠNAS CAR
Ġpaint ers
Ġsusp ension
ĠKenn eth
ĠAtt orney
Ġthir teen
Ġrecept ors
ĠHind i
Ġsurn ame
Ġacoust ic
ĠWednes day
ettys burg
M arch
R T
h igh
s erv
s ized
v y
at ar
Ġs ung
al ia
al og
ĠS ul
ĠI g
ĠL unar
ac co
ry pt
ram ent
Ġdet ection
Ġcor ps
Ġcomb ine
Ġsimilar ities
Ġaff ects
sc ious
cul ine
Ġexec ut
Ġrail ways
Ġarchitect s
Ġdeterm ining
Ġdomin ance
Ġweek end
Wh at
Ġbatt alion
ĠClass ic
Ġpil ots
ĠEp iscopal
ĠRepublican s
Ġenh anced
ĠCru z
Ġpremi ere
ĠRout e
Ġasym pt
Ġcub ic
G l
U P
c ity
h id
t age
Ġw ish
Ġp in
ou ble
ĠT erm
ct ica
ĠP ale
ĠR overs
ĠCh urches
Ġform ations
Ġrel ied
Ġrel uct
ĠSe vens
Ġserv ant
az ar
Ġrep orter
Ġrest ore
Ġgl ut
ĠBr ight
Ġprot ocol
Ġep id
Ġsw ord
Ġstrong est
ĠReg ister
Ġbar rier
Ġstri kes
Ġcut ting
Ġbomb ers
ĠProv in
Ġantib odies
Ġstrateg ies
Ġarbit ration
ĠDer by
Ġmilit ia
roscop y
Ġtheolog ian
Ġjew el
ĠVenezuel a
ansk rit
lah oma
B ase
M ale
O f
P at
P al
d ig
f ig
n otes
at en
or p
ic ations
il ic
ĠC N
Ġ( $
iv ic
ter ed
Ġal ly
ĠJ ur
ĠK ant
ast ics
ĠSt ill
Ġcl ient
Ġres on
ke eping
Ġcent ered
Ġcount ed
Ġtra ces
Ġsl ot
com put
Ġrece iver
Ġcond ens
Ġel igible
Ġinform al
cast le
bo oks
Ġcommit ment
Ġpay ment
ĠBor ough
ĠCard inals
ĠAk k
Ġtal ent
omorph ic
Ġpione er
ĠPot ter
Ġfurn iture
ĠLud wig
ogene ous
Ġneur ons
Ġunst able
ĠHud son
ĠGlas gow
H O
R ahman
S ing
f old
j ections
l ined
m al
Î »
in ate
in dust
it ol
Ġl ar
Ġl ift
et erm
ĠE ff
ab e
ĠJ ava
Ġse gments
ĠK il
fer red
Ġrel ativity
att i
Ġqu ot
ĠBe ethoven
Ġren ov
Ġtw entieth
ĠDes ert
Ġcommand s
ĠCatholic ism
oul li
Ġradio active
Ġastron omers
Ġfarm s
Ġaddress es
ĠPlay ers
light en
Ġautom obile
Ġsculpt ures
Ġcollect ive
Ġserious ly
ĠViet namese
Ġnob ility
Ġdiam ond
ĠSem itic
Ġtiss ues
Histor ical
Ġinaug ural
Ġresign ation
Ġcondom s
C ulture
G od
f ah
f ilm
o j
w ords
an ic
at isf
or rect
Ġb ald
Ġf ier
Ġd ose
ĠA V
ĠC incinnati
Ġl ithium
Ġst olen
ĠL ap
est e
ĠN ep
Ġcomp iled
Ġcl uster
ount ed
con n
In t
Ġafter math
ĠY orkshire
Ġwe igh
ĠAb ner
ĠAnd orra
Ġprom ise
ĠAll ies
Ġtri angle
ĠMc D
Ġplan es
Ġparticip ating
Ġcreat ures
ĠMil waukee
Ġdemonst rate
Ġvirt ue
bu ilt
Ġindu cted
Ap ollo
ĠMaced onian
Ġpure ly
Ġenzym es
Ġcondem ned
Ġborrow ed
Ġprox imity
: #
H ead
I rish
b ek
p ot
Ġm inistry
ĠA res
st ed
Ġg ly
ĠH um
ĠR ing
ĠE uras
qu arter
Ġle x
du ctor
Ġnot ing
Ġar row
ĠV egas
Ġall oys
Ġatt ractions
ah ar
Ġfl ash
ĠĊĠĊ ĠĊ
ĠPh ot
omet er
Ġorigin ating
Ġintrodu cing
Ġphys ically
Ġmass acre
ĠMart yr
ĠMal ay
Ġbirth day
ĠSen ator
ĠPlay Station
ĠPan ama
ĠRay mond
Ġencoura ge
Ġgram mar
Ġdoll ar
Ġvent ure
ĠDomin ican
Ġster e
Ġcoe fficient
ĠAgric ulture
Ġdiscrim ination
B O
R ober
f ight
j ab
u ag
Ġa uction
Ġw ick
ou p
ĠC and
ĠC reat
ĠT ax
id ad
ist le
Ġst ick
Ġst rand
ĠG ettysburg
ĠN ine
Ġor ange
ĠJ ar
rit is
Ġcont ested
aus s
Ġdef ault
ĠIs ab
Ġmar ched
ords hire
Ġmanag ing
umb ers
Ġcoast line
Ġmur ders
onn es
Ġconsum ed
ĠAh n
Ġreve als
Ġpreserv ation
Ġpurs ued
ĠOd ys
Ġaffili ate
Ġenzym e
ĠAndalus ia
ĠRhod es
ĠCret aceous
Bang lades
K h
L anguages
S U
in is
ĠB ant
ĠH D
ĠR aid
Ġcon ceived
ĠF olio
rom atic
Ġor gans
ate ver
og l
ĠK as
ost a
ov ich
Ġdis crete
ress ing
Ġj ack
Ġsp ite
Ġfilm ing
ĊĠĠ ĠĠĠĠĠĠĠĠ
Ġfe eding
pect s
ĠPr ussian
Ġhand ling
Ġpat rol
Ġcell ular
Ġcompos ite
Ġfif ty
Ġult imate
Ġautom atically
ĠBelarus ian
Ġoccas ional
Ġantip sych
Ġtouch down
Ġaccommod ate
Ġcontem por
ĠMerc ury
. :
B R
L C
R oyal
g ary
re a
at ical
Ġc yl
Ġin clusion
ĠB ass
ĠB aud
ĠM Ã©
Ġbe am
em e
ĠG ot
ĠW alt
Ġpro ton
ian us
Ġv ag
ia e
ĠV III
Ġreg ulated
Ġem issions
Ġaut ism
yn es
iam i
ĠPr inceton
Ġvers es
Ġexpress ions
Ġcontrib uting
Ġacqu ire
Ġcontinu ity
Ġgr ants
Ġconstant ly
ĠGuard ian
Ġcontroll er
ĠMarc us
Ġdispl aced
Ġassess ment
uber cul
Ġvoy age
ĠNev ada
Fore ign
ĠDecl aration
lighten ment
b oys
p os
Ġt aste
Ġw isdom
Ġf u
il iation
ĠC yrillic
ĠP rad
ĠH ut
ĠD od
ĠG ur
ess es
ĠK ap
ast ron
vel t
ĠSe bast
Ġoff spring
Ġmet aph
Ġdo ctors
Ġchar ity
its yn
Ġent reprene
ĠMar lowe
oph on
Ã¡ l
arn ation
ĠMed ieval
ĠTr ump
ĠNor se
mar ks
Ġalign ment
ĠConstitution al
ĠRog ers
kh ov
Ġnumer als
Ġlegend ary
Ġsurrender ed
Nov ember
ĠEug ene
ĠLanc aster
ĠPeng uin
F M
L P
S ocial
T alk
b r
d ec
f olk
Ã ī
Ġa mer
Ġo m
is an
Ġb ell
Ġb ison
Ġb ricks
Ġf itted
le ments
Ġd ish
ĠT ype
ĠB ath
ĠB ills
Ġn avy
th ood
um i
Ġv est
Ġex empt
ĠO ber
all s
Ġun e
Ġpl ains
ĠCh ampion
Ġman ual
we ek
Ġj oy
Ġinf ant
Ġdef icit
Ġcar n
ĠBe ck
ĠUS AF
Ġnorth western
Ġel dest
Ġmer c
ĠFl ag
Ġdi agram
ux ley
Ġpred ators
spe cies
cont rolled
Ġemphas ized
ĠBol lywood
Ġdescript ions
Ġhapp ens
ĠErn st
Ġexcess ive
Ġrecip ient
Ġconstell ations
ĠSaf ety
ĠGab riel
spec ific
Ġthor ough
Ġantisem itism
B ul
B ook
G M
f ront
o an
Ð »
Ġt enth
Ġs essions
Ġp ull
le hem
ĠC hen
et ition
ĠP age
ĠF ul
ĠF ellows
ĠG ill
ĠL ess
ĠN i
oc o
ub s
ph alt
Ġcl ause
ens en
Ġag ar
Ġsc ales
Ġins ert
Ġcor poration
Ġter t
Ġcr imin
Ġfail ing
Ġnever theless
Ġwhe at
ĠQu est
ĠStud ents
Ġprison er
Ġtourn aments
ĠVen us
Ġgar rison
ĠAntar ctica
Don ald
ĠFI FA
Ġdepict ing
Ġamp hetamine
Ġninet eenth
histor ic
ĠArchimed es
i ological
al ine
Ġp ace
ĠC BT
ĠM eg
ir s
Ġg ent
ĠR y
ĠL yd
ĠE is
ĠN ile
oc l
ĠU g
Ġsh ops
pl us
te es
te chn
Ġpre ference
ark ovsky
Ġra p
ific ate
Ġbo iling
Ġdevelop ers
ex ual
ĠBl ade
ĠAnd es
Ġrev ived
ĠCal vin
Ġhand ed
Ġreport ing
Ġhit ting
Ġtravel s
Ġdraw s
Ġautom atic
Ġcalcul ations
Ġdepart ed
Ġsusp ic
Ġtal ks
ĠIndust ry
Ġwa iting
Ġbenz odiazepines
Ġpharm aceutical
Ġrecru ited
ĠChel sea
Ju ly
P roduction
f ly
n ormal
s ing
Ġb io
ro ads
ĠA ction
ĠS oon
ĠS of
ĠB ess
Ġe agles
ra cks
Ġst ake
ĠE P
op tery
ĠW ander
ĠN athan
ĠN CAA
ĠJ enn
ft en
ĠAd olf
Ġassoci ations
Ġphot ographer
Ġdig its
Ġgraph ic
Bl ue
Ġcalcul us
Ġsport ing
Ġsail ed
Ġalleg ations
ĠKen ya
ĠWat son
Ġaxi oms
ĠInit ially
Ġscatter ed
Ġingred ients
zhen itsyn
Ġc ow
Ġf usion
ĠS W
ĠC ond
ĠD est
ĠG rim
ĠL ut
ĠL if
ĠW alsh
ose velt
Ġdo zen
Ġext raction
ĠMar ines
ices ter
ze k
Ġpass ion
Ġbas soon
Ġstat ues
Ġfact s
Ġcolle agues
ĠBro oks
ling ton
Ġperform ers
atin um
be it
ĠCap one
Ġlack ing
Ġpay ing
Ġnation wide
Ġdemonst ration
Ġec osystem
ĠAber d
ĠStand ards
Pop ulation
Ġtru ck
ĠPhill ip
Ġapost olic
B us
C roat
F amily
M P
c at
c ill
g ard
h ad
z an
Ġt ag
Ġo ste
Ġf ate
Ġd oses
ĠC our
et ing
Ġbe aring
ĠP ast
ĠR ule
ĠG Ã¼
ĠL ugosi
ard ing
Ġun ions
ib i
ĠAr min
Ġmet eor
ĠSh ir
Ġmon etary
Ġdep ictions
Ġdep icts
yl an
Ġcur ves
ĠPl at
Ġexpl orer
lear ia
Th at
Ġmarket ed
Ġbar rel
ĠWith out
ras ka
Ġsil ent
Ġmission ary
ĠAthen ian
ĠIsrael ites
Ġfle e
ĠCommun ion
Ġdram at
Ġthreat s
ĠFin ancial
Ġindu ced
ĠShort ly
Ġconj unction
Ġadvoc ate
Ġresist ant
ĠOk lahoma
ĠRang ers
ĠBrook lyn
Ġoverwhel ming
romagn etic
ĠSalv ador
E ach
I X
U N
l ength
p rop
Ġ á
Ġs ax
Ġs outheastern
it ate
Ġc erv
Ġm ere
Ġd il
ĠS hip
ĠS aul
ĠC ad
ĠB ears
ur red
ĠM ol
ĠM obile
id en
ĠH ous
ĠH ope
ĠR u
ĠR ush
Ġcon vey
ĠL akes
Ġcont ing
ex ts
Ġexp ense
Ġdep uty
hor f
Ġbelie ving
ĠHer od
Ġachie vement
ĠPat riarch
Ġinterest ing
Ġlay out
ĠLiber als
Ġcut s
De cember
Ġbomb s
ĠAut o
Ġscript s
Ġmig rated
Ġpet ition
Ġanarch ism
ĠStat istics
ĠForm ula
oft en
Ġshut tle
Ġexplos ion
Ġeat en
Ġnut ri
Ġflo ating
Ġvide os
B at
B oth
L ittle
R V
Ċ ĠĊĊ
ĠS we
ĠB ranch
ur ally
ĠM ust
ĠI gn
ĠG arc
ĠL ik
ĠN um
oc ry
ĠIn teg
ĠSt orm
act am
Ġag gress
Ġrel ocated
Ġinst ant
Ġaut o
ann ah
Ġdisc ipl
Ġins ufficient
Ġeconom ies
Ġlim estone
Th ree
Ġpriv at
Ġver bal
na issance
Ġmem oir
Ġelectron ics
Ġfront ier
Ġdraw ings
Ab du
Ġharm ony
Ġdro ve
Ġadapt ations
Ġple asure
ĠRo osevelt
ordin ate
Ġfeel ings
ĠSong s
Ġmerch ants
Ġdiagn osis
Dem ographics
sim off
Ġfacilit ate
ĠMaur ice
ĠMoroc co
mun ition
ĠAntio ch
J anuary
S D
V ol
Ġt ension
Ġs isters
Ġc oc
ar anth
ĠA FC
ĠS ide
ĠS ometimes
ĠC are
ĠM am
ĠP in
her ical
ĠK ay
ast ing
ĠRe velation
Ġdef ending
Ġbo om
Ġend angered
ĊĠĠ ĠĠĠĠĠ
ĠIs le
ĠBl oom
ĠAd obe
ograph ies
Ġorgan ism
Ġref lection
Ġhand led
ĠShe l
Ġarr ive
Ġdig it
ĠLiber ty
Ġdial ogue
back ground
Ġbreak s
ĠJud ge
Ã¨ ne
ato es
Ġbr ut
Ġpil grim
Ġfast est
Ġisol ation
Ġsufficient ly
Ġpick ed
ĠWork ers
Ġcontroll ers
ww w
ĠBund es
Ġsymmet ry
ĠWy oming
ĠCitiz en
ĠJosh ua
ĠFras er
Ġtert iary
T E
g rand
t us
re ated
Ġo wing
en o
Ġp aved
ĠA K
ent e
ĠB ran
os ity
ĠW ord
av an
Ġun ve
ĠTh orn
ĠSe pt
oth s
red ited
Ġent ers
rop rocess
ĠAb sal
Ex amples
Ġconf idence
Ġexpl ored
Ġprop ri
ĠEd wards
ĠAg ent
ĠHar rison
ote chnology
Ġmean ings
Ġpost hum
ĠAfrican s
Ġobject ives
Ġtro ubl
ĠRich mond
Ġschol arly
En g
ĠBern oulli
Ġec ological
Ġschem es
Ġbip ed
Ġtact ical
Ġrecept or
Ġeval uation
Ġparam eters
ĠPash a
Transport ation
ĠGi ov
Ġlegit imate
Ġru ins
Ġphyl ogen
Oct ober
uxili ary
G B
G P
M a
T er
g art
al ions
ĠC risis
ĠT ang
ur ban
Ġg auge
ĠH old
ĠF u
ĠL oyal
ĠE ra
oc ide
ĠV erm
Ġdis ad
Ġdis establ
iss a
Ġinter ference
Ġgovern ance
ĠZ agre
Ġline age
ĠShe ffield
Ġprim itive
Ġaccount ed
ĠCont emporary
Ġsaf ely
ĠAv icenna
Ġfoot age
fess ional
Ġinnov ative
ĠPolit ics
vious ly
Ġpoison ing
ĠPict ures
Ġcollo qu
Ġcollaps ed
Ġunex pected
A B
F e
G S
b led
c ussion
e per
q i
Ġt ack
al an
Ġw ished
Ġp unk
Ġh a
ĠC ox
ĠB SA
ĠM alt
ĠI ps
ĠH il
ay d
os ely
ĠF olk
ag i
ĠJ oint
ĠSt ars
ĠAn throp
Ġsp ell
Ġout door
oth ing
ĠCom merce
Ġass im
Ġbl ow
Ġem pir
ĠCon sequently
az e
ble m
ĠSouth west
Ġdifferent ial
Ġrepresent ations
mber g
ĠSw an
Ġcomple ting
isc al
ij ing
Ġinvestig ate
ĠLab s
enz ie
Ġneut rons
Ġhero es
heim er
Ġcatal og
ĠGer ald
ĠWell ington
kee per
Polit ics
Ġcryst all
Ġfoss ils
ĠFil ipino
Ġremember ed
Ġpopul ous
Scott ish
- ,
C N
M ac
Î ¼
he ster
Ġc ache
Ġf ever
ic iary
ro ve
Ġh opes
ĠC ord
Ġl umin
ĠB j
Ġn ose
et ically
ch ief
ĠI stanbul
ĠR ound
ĠG aelic
ĠL etters
Ġun re
ĠK ra
ord inary
ĠSt r
ĠV ers
ĠAl ph
und i
Ġdis place
land ers
aus es
ĠSe ason
Ġpol ym
ys on
ĠSh aw
ai ro
ĠPar ad
ĠDav ies
Ġtreat ing
Ġsent ences
ĠEm ir
Ġcy cles
Ġfrequ encies
Ġden ote
ĠSal ieri
Ġvoc abulary
ĠBig foot
Ġir re
ĠTechn ical
ĠPublic ations
car bon
Ġpack age
Ã¼r er
Ġgeomet ric
Ġtru ly
idel ines
Ġaccord ion
Hung ary
ĠAster ix
ĠChron icle
Ġkilomet ers
Ġreven ues
stad t
Ġbik ini
ĠAppe als
ĠClif ford
C ity
K ar
O x
O learia
y ll
Å Ħ
Ġthe rap
Ġf raud
le ge
Ġd ys
Ġd uration
Ġd ancer
om ans
ĠS omers
Ġn erve
iv ities
Ġg rid
Ġby tes
ĠL ux
ĠE t
ĠJ a
ĠO st
ine ar
Ġcl usters
man cip
Ġro d
Ġag gressive
oy le
ĠRe formation
ĠAm es
ĠBo ole
ĠSouth ampton
Ġgu ided
ĠCal iph
Ġinc orrect
Ġsk ating
Ġder ive
ĠArch ives
field s
Ġris ks
mark et
Ġwind ows
pr int
ĠLu ke
Ġmix ing
Ġsuggest ion
Ġhar vest
Ġresemb le
ĠAS U
Ġhapp y
ĠPrim ary
Ġnickn amed
ĠStock holm
Ġgall ery
ĠAlg iers
Ġantidepress ants
Ġcir cles
C op
C atholic
F orm
G old
M ex
T ax
T oday
h t
i ating
m ic
m ain
w ind
Ġt elling
Ġc rafts
Ġp owder
Ġh ospitals
ĠB ordeaux
Ġth rust
ĠM inisters
ĠM IT
Ġas ks
ra ve
th irds
ĠR ut
ĠF eder
ĠG uth
ĠW rest
ag ers
ber punk
ak k
ip ients
Ġres olve
ĠAr uba
Ġcomm od
ĠY et
Ġtra ject
ĠIs les
ĠSh a
ĠCan ary
ĠComm odore
Ġconf ront
Ġnational ist
ĠHer o
Ġevery day
ĠPhil harm
ĠBen in
Ġinstit ute
Ġten ure
He alth
ĠFrank ish
Ġsports caster
Ġprec ision
Ġfocus ing
ĠâĢ ĺ
Ġdecre ases
ĠVer de
Sh ort
Comp uter
ĠMos que
ĠCost as
Ġconstitu ent
Ġaer ial
Ġnom inal
ĠPhys ics
Ġcoordin ate
Ġcompens ation
ĠSic ily
ĠHein rich
ĠHamp shire
ĠSayy af
Ġsophistic ated
ubercul osis
ĠZagre b
L ondon
h n
h anded
j ud
Ġo ra
it i
Ġc ass
ĠC ult
Ġre ef
ch lor
ĠM I
ĠM iami
Ġg ear
Ġbe ef
Ġar ter
Ġout comes
Ġmod est
Ġret rie
conom ic
Ġgu ests
Ġrese ar
Ġpost ed
Ã¶ y
ĠÃ ĸ
sy stem
Äģ n
ĠPer formance
Ġcommand ers
Ġsound track
ĠAtlant is
Ġhealth y
Ġmach inery
Ġcreat or
Ġminor ities
Ġcred its
ĠSant iago
ĠMur der
Ġrat ified
Ġdecre asing
ĠAlban ians
Ġfolk lore
Ġhar bour
Ġbattles hip
ĠBapt ists
Ã± a
ĠCre ed
Ġconstitu encies
Ġcorpor ations
Ġille g
power ed
Ġsyll able
Ġbuff er
Ġju ven
ĠVlad imir
B attle
K O
R L
r atic
Ġo re
or o
it ivity
Ġf iber
Ġf irms
Ġd up
ĠT all
ĠB anu
ĠB BS
ow ulf
ĠD im
ĠG az
ĠL oc
ĠW end
Ġde ity
ĠO S
og o
ĠK an
up s
ĠSt re
Ġsh ar
Ġcont exts
ces ter
Ġra y
Ġra bb
Ġinter im
Ġinter val
ĠLe icester
Ġserv ants
Ġap opt
Ġimp ression
ged y
Ġadv ant
osp ace
Ġden oted
Ġhealth care
Ġoccup y
Ġens lav
Ġcollect ing
osa urs
Ġregist ration
Ġproceed ed
ĠPlan et
Ġcrown ed
Ġattract ive
ĠOrig inally
ĠAlger ian
Ġlect ures
Sw ed
oca ust
Ġcoordin ates
Ġmetall ic
ĠEld er
found land
Ġbodhisatt va
Ġgard ens
P resident
Ġs ad
Ġto ured
Ġl ig
ur able
th y
ĠL GBT
ĠE z
ant i
ber ry
Ġpl utonium
ect ors
Ġall oy
ĠRe cent
Ġapp lying
Ġgener ating
Ġimp ressed
Ġany where
Ġspec imen
Ġback ed
Ġpass ages
ĠComp lex
ĠHar vey
Ġmy stery
ingu ished
Ġarm ored
Ġfav ored
ĠTex t
Ġris es
Ġfavor able
Ġdeploy ment
ĠProdu ctions
Ġnumer ical
ĠRun ner
ĠThrough out
ĠRel ations
odyn amics
Ġmonitor ing
F re
N ote
T rad
m g
m eter
r ically
at ia
at ile
Ġs ultan
Ġp enn
Ġp neum
as p
ĠA ene
st age
ĠC od
ĠC hemical
Ġas ide
Ġg ains
Ġon set
ĠH aving
em pl
ĠF ury
ĠE sc
ĠE agle
ac ulture
ian ces
ĠK ad
ĠK un
ov es
ran i
ass ic
man uel
Ġbut ter
ĠAr d
Ġreg iment
ram id
ind ed
Ġear ning
ond a
ĠNew castle
Ġco ok
form ed
Ġrele asing
yl us
ĠMan it
Ġprof its
Ġadm iral
uk i
ij a
ĠPers ians
Ġinvestig ated
Ab d
iling ual
ĠRo om
Col umb
ĠJeff rey
ĠMic key
ĠHor se
Ġmathematic ians
ĠÅ ł
Ġveget ables
Ġcert ified
Ġmas culine
ĠAmb ros
Ġloyal ty
Ġdim ension
ĠKaz akh
Ġelimin ate
Ġsumm ary
ĠLithuan ia
ucc i
Ġfemin ine
ĠLore n
ĠTas man
Ġadvant ages
c over
g ener
h ig
l ights
n us
Ä ĵ
at ial
Ġb ol
ĠC H
ĠC ec
Ġn urs
ir able
ul er
Ġal tar
ĠR idge
ĠG em
ĠW a
Ġcom merce
Ġse al
up iter
ast ed
ĠCom b
ĠDe uts
Ġass ume
Ġpres um
ĠBe ing
ĠPr ivate
ĠAll an
Al so
Ġarch ive
aur us
Ġobserv ers
ĠArt ists
Ġcrew s
Ġfa ctions
orpor ated
Ġqual ifying
Ġcollect ively
Ġfer ry
ĠAbd ul
Ġpoly mer
Ġuniform s
ĠMaced on
ĠBad en
Ġmonaster ies
Ġremark able
ĠWeek ly
Ġcanon ical
Rec ipients
Ġmob ility
ĠPun jab
Ġdemol ished
Ġdeter ior
ĠBeth lehem
ĠAntig ua
Ġdop amine
ĠTib et
Ġdraf ted
Ġamer icium
D utch
E A
K e
S an
S am
b ass
c ourt
f unction
p res
at che
Ġw ants
ol ian
Ġl obby
ĠB ased
ĠM ut
ĠM ak
ĠM ons
ĠH ear
ĠD ion
ĠG ren
ĠW oll
ri ages
ĠJ agu
ap est
ĠK rist
iz able
ĠAn kara
Ġmod ifications
ll er
ĠSc ots
Ġdep r
ull ivan
ĠMay o
idd les
Ġtele communications
stit u
ĠShe p
sc rib
Ġlist en
Ġsym ph
ĠTr in
ĠSer bs
Ġlo ans
ĠCa uchy
col m
Ġgrand son
Ġbehavior al
Ġsen ators
Ġantib ody
Ġeffic acy
ĠConstant ine
ĠEst her
Ġprepar ing
Ġalleg iance
ĠFle ming
Ġanalog ous
ĠOrig inal
Ġven ue
ĠPhill ips
ĠTun nel
Ġhaz ard
Ġenact ed
rape ut
Ġjewel ry
G en
N atural
T otal
c ard
n els
p ath
s ome
Ġt orn
Ġt onnes
at iv
Ġb oss
ĠS or
ĠC e
ĠC osm
us a
ĠP iet
ĠH arm
ĠR an
ver age
ĠD uchy
and ro
ĠG w
ĠL arge
ĠO g
ĠIn v
Ġr ic
Ġr iding
ĠCh art
ran o
ry ption
Ġcont ents
Ġcont rary
ĠV iew
ass is
Ġad he
Ġne ural
ĠSe ville
Ġqu art
Ġco aching
Ġart work
Ġed itors
Ġprogram mes
Ġident ifies
Ġdefe ats
bra him
ĠInstit ution
ĠCast ro
ĠInt roduction
Ġmom ents
Ġprem ier
ĠBi ography
Ġlif estyle
Ġconsequ ently
Ġbit ter
Des cription
Ġnort heastern
ĠMarsh al
Ġdiscover ies
Ġinher it
Ġmarg in
ĠBeg inning
Ġrig id
Ġsudden ly
Ġmo ist
Ġpreval ent
ĠLeban on
ĠIps wich
L ab
S ur
b anded
h as
s ometimes
Ġt ent
Ġs a
Ġw ake
ic z
Ġn a
ĠM ann
ig raph
ig ma
ut tle
ĠP owers
ĠR ash
ĠD iet
ĠF lem
ĠF ighter
ĠL atter
ĠCh al
Ġk m
Ġall ocated
erv ation
ĠSe ction
Ġmod ification
ĠIs s
Ġsm oke
Ġins erted
Ġequ ality
let t
Ġtechn ological
Ġfact ories
Ġgen ome
Ġperform s
Ġshould er
Ġsum mit
ĠGreat est
Ġaccept able
Ġbar rist
Ġord ained
Ġdefin ite
Ġfa una
ĠTra vel
Ġqual ities
Ġlimit ations
Ġcorrect ly
Ġanarch o
ĠÅ ŀ
Ġfresh water
Ġsed iment
Ġexplos ive
Sup er
Ġveter ans
odyn amic
Ġparad ox
Ġanat omy
Ġpromin ence
ĠNeb raska
Ġpersec ution
Ġaber ration
Ġdisestabl ishments
C ultural
E X
F ar
T op
V ict
d ied
l Ä±
m id
is che
it he
Ġf isher
ĠA ra
ĠS anskrit
Ġth rew
ot ypes
Ġbe aches
ra ined
th ird
ĠR ot
ĠR acing
od ied
ort ion
ell ip
ĠTh under
ob ic
ĠCom edy
ins k
Ġmet ric
Ã© g
Ġcre am
led on
Ġgu ards
ĠPl aces
Ġthough ts
ĠCal gary
Ġrepl ied
ĠHer oes
Ġview ers
Ġwid ow
CA D
Ġphot ography
omer ang
Ġdestroy ing
Ġ/ /
Ġbene ath
ĠDel hi
ĠSol zhenitsyn
ĠJul ia
Ġstra ins
Ġdoub les
Ġsatisf y
ĠProfess ional
Ġshall ow
Ġnom ine
ĠTransport ation
Ġvolunt ary
C ities
J ust
P ers
c end
i ab
on na
al om
Ġb ic
Ġf ing
Ġm ang
Ġd warf
am em
ch ley
id ium
ĠH uxley
em a
ĠR ou
op py
ĠIn g
ew ay
ĠK ur
ure mberg
ĠV irt
ib les
Ġy east
ang i
ts ky
aw ks
Ġam munition
Ġsub urb
Ġqu arters
ick ing
ĠSp arta
Ã© on
ĠBl air
Ġwar riors
Ġconf ined
Ġsk illed
St ate
ĠCamb od
hab ilit
Ġbatt alions
ĠBre ak
Ġconqu er
Ġflu ct
Ġliber ation
ĠTour ism
Ġhabit ats
West phalia
Ġwrest ling
Ġdiff ers
roscop ic
ĠBald win
Ġrif le
Ġgif ts
Ġartif acts
Rober t
D ep
M C
T rack
l ance
n ov
s ol
v or
is a
Ġin cons
as ma
Ġm ail
Ġd ying
el ic
ol and
ĠB au
Ġcon ve
ĠL ear
Ġde ities
Ġr ide
se ction
Ġdis established
Ġen rolled
Ġen abling
ron ikos
Ġover come
Ġqu iet
ĠLe ft
ec hes
oci ation
Ġcommun ion
Ġsuccess es
Ġdifferent ly
omen cl
Ġequ ival
ĠPl ain
Ġgeneral ized
Ġrev ision
Ġread s
sp ace
ĠSoviet s
Ġcolon ists
icro bial
cis ely
met ric
head ed
Ġpath s
ĠDr ive
Ġsyn chron
ĠCard inal
kins on
Ġdoub led
ĠConfeder acy
Ġcalc ulation
Ġopin ions
Ġvocal ist
Ġcontroll ing
Ġremark ed
Ġgrav itational
Ġterror ist
Ġabb ot
Ġdeliber ately
ĠJama ica
Ġmos que
Ġsubmar ine
Ġdrain age
ĠAren a
Ġpractition ers
Ġfru its
develop ed
Ġembed ded
) /
. ;
B re
C ard
G ame
R ich
S E
V P
c art
d istance
e er
l at
z h
Ġt ang
Ġt ale
Ġt ales
is le
Ġm ud
ĠS C
ĠC ust
ĠT arkovsky
ĠB attery
ĠP ut
ra pped
ĠH amb
ĠF lying
um ps
ĠL iv
ri fic
ĠN L
ian ism
Ġhe ated
Ġex cluded
ov ing
ib ia
Ġpart ition
Ġsc ar
Ġpre lim
Ġform ulas
ĠInd eed
Ġbi as
Ġtro uble
ĠFl ash
be ck
ĠMe chan
cher y
ĠBor is
Ġconsum ers
Ġrat ings
Ind ia
ĠSultan ate
Ġcerem onies
Ġpurs uit
ais y
ĠPop ular
Ġstream s
Bur ials
ĠBey ond
ĠPeters burg
ĠRecon struction
Ġtheat rical
Ġcomprom ise
ĠThom son
ĠRous simoff
M B
j ack
Ġt iny
Ġa ug
Ġw art
ar ity
ar ium
Ġm ature
Ġd ancing
om al
ĠS P
ĠT able
Ġn as
im p
ĠP om
Ġst ip
ĠF r
ĠG ent
Ġde er
Ġde alt
ort ed
ĠO kin
ĠK arm
iz on
Ġsh adow
ĠV og
Ġrel ates
Ġoff shore
ĠDe b
ĠNew foundland
Ġpres cribed
ĠSh annon
Ġshe ets
rid or
ĠBe ijing
Ġcomput ational
Ġprof ound
Ġep ist
Ġdest inations
Ġhost ile
ef in
Ġnovel ists
Ġpay ments
ĠInter ior
duc ational
ĠSol ar
Ġcart ridge
Ġpra ise
ĠMov ie
ĠAN C
ĠSax ony
Ġaqu atic
Ġpref ix
Ġabund ance
ĠBarn ard
Ġpersu aded
Ġprest igious
ĠKos ovo
Ġclot hes
c in
r arian
z ig
Ġo l
Ġin ert
ĠT et
ĠT ak
el ace
ol ine
Ġg olf
Ġbe ans
ĠD ylan
ĠF ine
if lor
if erous
oc ate
ĠK ill
rit e
rit ies
ĠAl ice
Ġsub c
Ġem perors
oot s
ĠCol in
Ġed ges
Ġwar ned
Un ivers
ett es
Ã³ rd
Ġz o
Ġdeg rad
Ġcarbon ate
Ġsal mon
ĠTom my
ĠSk inner
ĠTri p
ĠVen et
Ġspeak s
Ġbuzz ard
Ġpolynomial s
Ġundert aken
ĠArchitect ure
Ġlas er
ĠWes ley
clesiast ical
' ),
. âĢĿ
A v
B road
i ov
l iving
m ud
r ines
Ġc ro
Ġp ent
st ead
ĠC oss
ol ves
ĠB ever
am orph
un al
Ġg est
ĠJ eh
Ġun rest
ĠAl ien
Ġne arest
Ġele ph
Ġapp ell
Ġass erted
Ġfound ers
Ġinv as
ier re
ĠCl aude
Ġtrad em
ĠBe owulf
ĠEd mund
Ġsk aters
Ġtop ology
Ġmater nal
Ġlight ing
Ġkey boards
ĠSen ior
Ġâ ī
Ġcommunic ate
ĠIm m
ĠMont ana
Ġconv iction
ĠJust in
Ġmig rants
Ġorbit als
Sp ace
ois ier
Ġcerem onial
Ġaccur ately
Ġmist aken
Ġpredecess ors
ĠLin ux
Ġinfer ior
ĠHispan ic
intend o
ĠHellen istic
Ġfeather s
Ġalchem y
Ġcel estial
rins ic
Gall ery
amem non
H ow
N C
R eligion
W ater
c ott
an z
Ġb ure
ĠB ody
ĠE lement
ac ia
Ġr am
Ġr het
ov an
Ġint ra
Ġpre cisely
Ġatt ain
io let
ys es
ins ky
Ġwhere by
ĠCon vers
ĠIs h
Ġexp end
form s
ĠSh an
Ġhigh ways
Ġcountry side
Ġval ued
Ch ild
Ġprot agonist
aut hor
ĠTur in
Ġship ped
Ġcal iph
Ġbroad ly
bo at
Ġpot tery
Ġcross es
ta ic
Ġcrew ed
Ġdiscuss ions
ĠMil ton
ĠRail ways
Ġreve al
ĠConserv ation
Ġreflect ing
ĠCamer on
mat ical
Ġtren ds
Ġbes ie
ĠApost les
ĠDirect ory
Ġrender ed
Ġgather ing
ĠSet tle
Ġhydrox ide
ĠClar ke
Ġmaneu ver
ĠGiov anni
ĠBoole an
M edia
N I
h l
m o
n an
Ġt ensions
er ting
Ġthe sis
is ible
ar ov
am ph
ĠP ic
ist on
ra red
ĠF ish
um mer
ĠG enesis
ĠE sp
ĠW el
ĠJ upiter
ĠU z
og enesis
Ġk in
ĠAn alysis
ep s
we h
Ġele ctor
Ġrel ax
Ġtra its
cent ral
Ġmet ro
ĠCon struction
cept ions
Ġfe es
Ã© r
to ok
yl um
Ġspecial ist
ert ile
Ġstation ed
ĠBas ketball
Ġpur ple
Ġste ep
Ġdom ains
ĠStud io
Wh ite
ĠCast ile
hol der
ĠChe khov
imb ledon
ĠRock y
uls ory
Ġmountain ous
ĠRh ode
Ġphr ases
Ġexport ed
Ġhoriz on
Ġbehavi ors
Ġneighbour hood
Fran k
Ġmir ror
ĠFact book
Ġelim ination
ĠGram my
ĠBach chan
Ġfrog s
Ġinequ ality
ĠManit oba
J ames
l ay
l oo
he ads
on ents
an ol
Ġs ib
or b
ĠS ad
ol in
ĠM all
ut a
Ġwas n
ĠH es
Ġst atic
ĠD ixon
ĠF uture
ĠG ay
ĠE ve
od ic
ap ur
ib us
pl an
att erson
Ġtra pped
ĠBrit ann
ĠCon rad
Ġend emic
ash ing
Ġtr im
ster ious
Ġeng ra
ĠUS SR
Ġline up
Ġcare fully
ivid ual
Ã¼ ck
Ġdecl aring
mon ton
Un til
be ing
Ġtest imony
ĠGl en
ĠSl ovakia
Ġden otes
Ġconn ector
ij i
Ġcreat ure
ĠPet e
ela ire
Ġbr ings
ĠSab er
ĠPakistan i
ĠCy cl
ĠDev il
ĠIraq i
ĠHun ter
Ġstret ch
Ġmarg inal
Ġinvent or
Ġhorn s
Ġportra it
Ġreven ge
Ġelder ly
Ġtort ure
ĠMunicip al
Ġaf tern
Bu ildings
ĠCrim inal
Ġexpat riate
ĠCaucas us
Ġglob ally
C a
L aw
M ur
P rior
S ah
c ence
r ud
z ens
Ġ icon
ar row
Ġf art
ic ode
ĠA ccess
Ġh ind
ĠS old
ĠS cy
ĠT otal
Ġe ase
Ġth read
ut z
ĠR ange
ĠR NA
ĠE ucl
ĠN uremberg
Ġse ar
ip le
our g
Ġcomp rised
ĠSt ories
ie u
ĠAn axim
act ers
Ġsp ont
Ġcons ort
rough s
ĠRe yn
Ġso ap
Ġgener ic
fore st
ĠSp art
Ġext inction
yn d
to ine
com b
af a
St ates
ĠPres byter
ĠNe olithic
Ġsum mar
off s
ĠPal ma
ols he
ĠJer ome
ĠOtt omans
Ġir rig
Ġattrib utes
Ġharm on
Ġpit ched
Ġproceed ings
ĠMr s
Ġinstitution al
ĠBav arian
ĠOri ental
Ġmor ality
ĠLeon ard
ĠDemocr at
ĠPict ure
Ġsquadron s
Ġlegit im
ĠBÃ© z
Ġstrug gled
Ġexecut ives
ĠSof ia
omencl ature
F ebruary
M ass
r ument
s ix
t ons
v id
Ġo ath
al ar
Ġto b
ĠS L
Ġe cl
Ġn aked
ĠP aper
ĠH ence
ĠD y
est rian
qu ality
Ġun anim
rit z
ĠĊ ĊĠ
Ġen larg
Ġam id
ĠCom par
Ġacc ent
Ġcount s
Ġinv ested
Ġrep ublican
Ġsl ower
Ġref lex
Ġcur ric
Ġcharacter ised
Ġcomb ines
Ġdown load
ook er
Ġobserv e
ĠMon ument
Ġtransl ator
ĠSl ovak
Ġsee ks
Ġgrad ual
Ġsat ir
ĠStud ent
ĠBut ler
Ġreason able
onn ell
Ġbound ed
ĠâĢ ł
pr in
Ġpossess ed
Ġcorre ction
Ġprotect ing
Ġjoint ly
Ġproceed s
ĠStan ford
Ġchap el
Ġnick el
Ġorb its
Ag ric
Ġamphib ians
Ġcyan ide
inemat ography
Ġdisch arge
whe el
Artic les
ĠMonten egro
hid harma
ĠSomers et
M art
S F
S un
V ar
h az
k ov
Ã °
Ġ urg
in ia
at osaurus
Ġs ends
Ġin ver
ĠS yl
am o
ĠM eyer
ut o
ĠW horf
ĠN eg
Ġv ib
up h
Ġcomm enced
ĠY e
ĠY am
Ġac claimed
ĠCom plete
ĠLe ader
Ġtra ct
ash a
Ġins ol
Ġpopular ized
ĠCal tech
Ġcomb in
Ġident ifying
Ġdecl ining
isc her
Ġtri umph
ĠHol ocaust
Ġemploy ee
Ġsal vation
Ġdeal er
ĠHistor ia
Ġprotect ive
Ġpan els
Ġcatal y
Ġswim mer
Ġrit uals
ĠStra it
Ġastrol og
Ġpropag anda
Ġencompass es
Sim ilar
Ġintellig ent
ĠSloven ia
ĠCoal ition
ĠWander ers
Ġprelim inary
C r
j u
s outh
he ts
in qu
an ese
Ġw ishes
om o
ĠC Ã³rd
ĠB ali
Ġg amb
ĠI M
ĠP ay
ĠH off
Ġst om
ĠF ellow
ĠL or
ri ac
od ing
ĠN in
ac ional
ĠJ e
ill ance
ak u
og a
ĠSt ri
ound ing
Ġrec ruit
Ġspe ar
Ġform ats
Ġup rising
Ġkn ight
Ġam endment
Ġsub species
Ġoff ense
Ġpres idents
Ġmon astic
Ġsuccess ors
ĠEd win
Ġinc umb
Ġsimilar ity
Ġgl uc
Ġsouth western
Ġtreat ise
ĠAc ropolis
ĠMon th
Ġge ological
ĠPat riots
asc a
ector ate
ĠVict ory
Ġsynt ax
ĠTro jan
ĠBanglades hi
Ġsail ing
Ġload ed
ĠĊĠĊĠĊĠĊĠĊĠĊĠĊĠĊ ĠĊĠĊĠĊĠĊĠĊĠĊĠĊĠĊ
Ġassass inated
Ġinhib itors
icular ly
Ġintention ally
Ġtheor ists
Ġveter an
ĠNik ol
Ġpharm ac
Disc ography
Ġupgrad ed
Ġcad mium
Ġnanot ubes
Lou is
ĠWag ner
Ġunve iled
E instein
M at
P rim
e ves
l ated
l actam
m ass
n g
t w
Ġt ongue
in as
Ġb old
Ġf ring
ion ed
Ġl ag
ly sis
ĠP rest
ĠH ait
os al
ĠD Ã¼rer
and ra
op p
ĠJ ung
Ġse as
ĠK r
ost al
ost ic
ĠCh ancellor
ĠSt ef
ĠV ersion
ĠAl ber
ater nal
port ant
ĠSe venth
ail able
Ġfl ame
Ġpubl ishers
ex cept
cer pt
Ġleg ends
ĠBe aut
ĠMus ical
Ġadv ised
ped ition
sc ill
ĠBel le
Ġvol tage
Ġdev ised
Ar thur
Ġcomplex es
Ġcapt uring
Ġste pped
Ġord in
Ġess ays
ĠLeg ion
Ġsens ory
Ġcouncil s
ĠUr s
ĠAle ks
Ġexam ined
ĠRoll ing
Ġpref ixes
ĠConfucian ism
ĠEthiop ia
Ġcoun sel
Ġprosper ity
Ġdivor ce
Ġliturg ical
ĠGeoff rey
quarter ed
A st
D r
D iv
H uman
d al
k ind
n ie
x x
he ed
he id
ed o
ic ides
Ġto wers
ĠS ierra
ĠT oy
ur us
ur ities
ĠI A
ĠI li
ĠI brahim
ĠP and
ĠP rison
and ers
ĠG am
ĠL P
ĠL ok
ĠW atch
ill us
ell ers
ĠV o
Ġdis in
ob o
Ġpop e
Ġpubl ish
ĠAm way
Ġdiffer ing
ĠAp oll
rodu ced
ĠWill s
Al bum
int osh
bit ious
Ġproject ed
ĠGl ad
Ġsubject ed
Ġinvest ments
Ġsqu ares
ĠMal colm
clus ions
ĠAthen ians
Ġphot o
Ġceleb rations
bed o
Pro t
ask atche
ĠLeg end
ĠJo el
Ġhar ass
rin ted
Ġconvers ation
And alus
Ġbul let
Af ghan
Ġinnov ations
Ġmic roprocess
Ġdecor ative
produ ced
Reg ional
Ġswitch ing
ĠReform ed
ĠPir ates
ĠRud olf
ĠGil bert
ĠFern ando
Ġinters ection
Ġtoler ance
ĠCurrent ly
ĠChair man
Ġannounce ment
ĠObserv atory
rapeut ic
askatche wan
B ab
C I
M or
O W
T reat
d ays
d orf
l iter
n ut
Ġt rick
at onia
Ġw ait
Ġin complete
om atic
ĠS ed
ĠC ell
Ġre pt
el ia
ĠB enth
us c
ĠI T
Ġst ellar
ĠR ico
os ion
ĠD ifferent
ĠD anny
Ġwh atever
if iers
ess or
Ġch assis
Ġpl ed
Ġar ise
ph i
ang er
ĠAl aric
In dust
Ġj unction
Ġsp r
Ġra pe
att a
Ġsupp orter
rop y
arm ed
Ġtrad ers
ĠĠĠĠ ĠĠĠ
lin ary
Ġsk ater
Ch inese
Ġsol ids
osp here
ĠCo hen
ĠAng olan
Ġoccur rence
ĠPer ry
Ġmem or
lim ited
Ġhon ours
ĠCap itol
ĠSant os
Ġincorpor ate
Ġtun nels
Ġweak ness
ĠForm ation
ĠOb ama
ĠWild life
Ġtrav elling
Ġhier archy
ĠHerman n
Ġcounterpart s
Ġhelic opter
ĠMoz art
Ġmotif s
B ill
J ose
S er
Ġ u
on aut
is ans
Ġd ign
ĠA chie
ĠA IDS
st own
ĠS earch
ĠC ant
ĠT iber
Ġg ri
ĠP ick
Ġst aged
ĠR eligion
Ġby te
ĠG y
ĠW as
ĠW imbledon
ĠN ixon
ber ger
ĠU may
ĠK urt
du e
du ction
Ġper cussion
Ġman s
Ġreg ulatory
Ġam bitious
ĠLe vant
Ġsupp ressed
ock ing
ĠAm E
ĠAm endment
Ġappe als
Ġcur ium
Ġplace ment
Ġsol ved
Ġcompet itors
ĠPark inson
Ġexec ute
Ġcy t
Ġaccess ion
Ġgrad es
och ond
Ġviol ation
Ġhon ored
Ġpred iction
Ġceleb rity
Ġprevent ion
Ġsus cept
ĠFilm making
Ġpeace ful
Ġfort ified
oura ble
Ġsail ors
Ġconduct ing
Ġaffect ing
ĠFall s
Ġpup ils
Ġpregn ant
Ġconven ient
ĠAdri atic
Ġtick et
Ġabbrev iated
Ġprecurs or
optery x
ĠAberd are
D s
E nd
F in
H ere
L ocal
M ain
M ich
M ember
b ie
g color
j ah
Ġ iod
Ġt uberculosis
Ġo scill
at em
ar ound
Ġb il
ic eless
Ġp od
as ia
Ġto oth
ĠA TA
ĠS creen
ĠC ou
ĠC anton
ĠB ond
ig i
ig el
ĠP A
Ġst rain
ri eg
ĠN y
Ġsu ited
pt ions
und a
Ġdis m
Ġim aging
ĠY ellow
Ġreg ards
Ġsub script
Ġmod ulation
ĠLe op
Ġwork er
Ġbl acks
Ġap olog
ĠSc ar
ĠSc ript
Ġdec ree
Ġlin king
Ġhum or
Ġcult ivation
An gl
row th
af e
lic ations
Ġband width
ĠSch olars
Ġpost p
aff e
ĠEm my
ĠSy rian
ĠMart ÃŃ
Ġste al
ĠEgypt ians
Ġhon ors
Ġmission aries
Ġhom osexual
Ġbene ficial
Ã¤ r
Pl ot
Ġquarter back
organ ic
Ġce ase
Ġresemb les
Ġapprop ri
Ġexpect ancy
Ġuncertain ty
Ġantim ony
ĠGirl s
Ġinstall ation
Ġsurn ames
ĠYah weh
ĠReturn s
Ġenthus i
Ġcort ex
eli hood
Islam ic
ĠBant u
ĠPrad esh
ĠEz ra
G reat
M iddle
R O
g reen
k top
l ocked
n om
n ational
Ġt ubes
at ible
it ory
Ġc it
Ġp ine
ĠC ore
ĠC eleb
ĠC hemistry
ĠT ag
ĠT odd
Ġl att
ĠB ag
ĠM aine
ĠP rice
Ġcon e
ĠG eneration
ĠN ote
ac rit
Ġab d
ĠTh ai
ke ys
Ġcan non
Ġsub mit
Ġind efin
aj i
Ġem bro
ĠSh ar
Ġmus cles
ĠFor um
omet ry
Ġland mark
Ġtr il
por a
amed a
ĠGe o
Ġnational ism
Ġtechn ically
Ġdem ographic
ym ns
Ġread er
ĠAg amemnon
Ġcr ashed
Ġsix teen
ĠHar per
Ġide ology
Ġgrow s
Ġtreat ies
ĠAct ive
ĠEl li
ĠPort land
ĠGl obe
anc ers
Ġachie ving
ipp ing
Ġreview ed
ĠProt ocol
Ġamb assador
ĠAud io
Ġbeat en
Ġmotor cycle
ĠMot ors
Ġwarm ing
Ġobtain ing
omorph ism
ez id
ĠJohann es
ĠLet ter
ĠArtic les
Ġassign ment
Hon ours
ĠHug hes
ĠAdmiral ty
ĠCov entry
Ġvic inity
Ġspir its
ĠFlem ish
Ġwart ime
Ġtob acco
ĠCÃ³rd oba
C E
F l
M u
N ow
S k
T P
f a
g eneral
h of
Ï ĥ
Ñ ĥ
Ġt ense
Ġa th
is ot
Ġc am
Ġb ubble
ou k
ad an
iv ian
ĠM ul
ĠM ason
ĠM TV
ĠI de
ĠR um
ĠR up
ĠR ather
ĠD ere
ĠG ang
ĠE us
ĠJ azz
Ġex chang
Ġcont racted
Ġag nost
Ġsp an
Ġsp herical
Ġdef ender
Ġdo zens
Ġdec oration
Ġins ign
let chley
Ġpar ishes
ĠBe ast
ĠPr att
ĠWill ie
Ġprot ons
Ġproduct ivity
Ġpost s
Ġdeb ated
Ġmot ivated
Ġast atine
Ġmer cen
ateg ory
Ġaccess ed
Ġactress es
De velopment
eff ective
ĠAri ane
ĠSing h
ĠNap les
Ġcle ared
Ġbatter ies
ĠProtest ants
ĠWars aw
Ġchrom os
Ġexplain ing
ĠGoth am
occ up
ĠInn ov
Ġsustain able
ĠEthiop ian
Ġfib ers
ĠPear l
Philos ophers
Ġsanct uary
Ġdiscipl ines
ĠDion ys
B en
D o
b ol
f ielder
g on
t ures
Å Ľ
Î ²
re qu
is ch
Ġw ool
le th
ur ai
ĠM ix
ĠP on
ul ent
ĠH i
Ġst ance
ĠR osen
ĠE L
Ġhe aling
Ġr ated
Ġun t
Ġar th
own s
ĠHe ights
Ġpe as
ĠZ amb
Ġfour teen
Ġgovernment al
Ġexpl ore
Ġpresent er
Ġcomple ment
ĠTe ach
Ġhost ing
ĠNor folk
Ġsuper hero
Ġbar riers
Ġinvest ors
Ġconcept ion
Ġrespons ibilities
Ġviol in
Ġur ged
Ġlo ose
ĠGrand e
Ġens emble
Ġenter prises
ĠHistor ically
ĠEv angelical
Ġinvestig ations
iform es
Ġexhib its
ĠMah Äģ
Ġrecon cil
Ġfaith ful
Ġdefend ers
Ġanarch ist
Ġtim ber
Bo oks
Ġprofession als
elect ric
ĠDh aka
Ġcrimin als
Ġenslav ed
ĠCambod ian
d eg
h urst
p ost
p resident
w ill
Ġt ab
Ġa ort
Ġa ided
al ong
Ġm aid
Ġto ll
st orm
ĠS elf
ĠS akh
ĠB uc
id as
im o
Ġg aming
ĠP ars
ĠG and
ĠL ect
ĠN umber
ain ted
ĠJ ah
ap ul
Ġch ord
Ġpl asma
pt ical
ĠSt aling
ĠSt arting
ens on
Ġsp okes
Ġacc idents
uro chs
aj evo
Ġinv entions
Ġlater al
ĠSh uttle
Ġgroup ed
Ġent ries
Ġext ensions
til es
que ous
ĠAll osaurus
Ã¼ l
ĠHar bor
Ġconstit uted
Ġfail s
Ġconcept ual
Ġsil k
olit ical
Ġcontinu um
Ġceleb rities
ĠFilm s
stitution al
Ġlaunch ing
ĠBarb uda
Ġcycl ist
ĠAS L
Histor ically
ĠPalest inian
Ġexceed ed
Ġdiagn osed
Ġpul led
Ġneighborhood s
Ġacceler ation
Ġemig rants
Ġtor ped
Ġgalax y
ĠNash ville
ĠFace book
Academ ic
ĠSug ar
ĠLoch te
Ġweaken ed
Ġsurviv ors
ĠÊ» Abdu
ĠStaling rad
' ).
A I
B al
C onst
F T
f ounder
w ed
he art
in ely
Ġs ang
Ġc ant
Ġf iscal
Ġf ertile
ic ia
Ġh ymn
Ġn ights
ot i
Ġas cent
ay ana
ĠR FC
ĠG P
Ġv apor
Ġex it
ast ies
pp en
ran es
Ġar rows
ĠV iol
Ġint act
Ġint ens
Ġwor se
ne z
ĠEn c
Ġtra il
Ġco ordination
Ġend e
Ġend ings
Ġfe ared
Ġdep osed
iod iversity
epend ing
ĠEd gar
Ġadm ission
Ġcr ater
Ġliter al
Ġliter acy
Ġinstit uted
ĠDep ression
ĠVol ta
Ã§ a
ĠTurk ic
ĠNot able
Ġcomment ator
fect ure
ĠTim ur
Ġrot ating
Ġhun ter
Ġbapt ized
ĠGh ost
Ġsimpl est
ĠHun ting
Ġexplo itation
ĠEll is
Ġthrow ing
sole te
Ġinaug urated
ĠAthlet ics
Ġapproxim ation
ĠMathem atics
ĠFel ix
Ġremn ants
ĠLik ewise
mancip ation
E s
F ree
M ark
T ypes
h ow
p end
y ad
Ġ q
ing o
ĠS M
Ġl engths
ĠB iblical
ce ans
im mer
ĠI st
ĠP yth
ĠH ood
Ġun changed
ĠK ath
Ġcomp rise
Ġcomp ulsory
ĠTh urs
ugh t
ĠHe ath
Ġj ury
Ġam put
ĠCol ony
Ġspec ification
ĠBo er
ĠCar olla
Ġcult ivated
Ġpass ive
Ġdiv ides
Ġdr unk
Ch ina
Ġdoes n
ĠNor wich
ĠGl ass
Ġstandard ized
Ġarm or
Ġpay load
ĠSu ff
Ġextra ordinary
Ġple a
ĠAmaz ons
Ġalt ru
Ġprepar ations
á¹ Ń
Ġvalid ity
Ġgram matical
ĠGran ada
ĠGriff ith
Ġflex ible
Tour ism
Ġpipel ine
ĠKarm al
ĠIli ad
. -
E lection
Q ue
S oft
b est
f lu
g iate
t otal
Ġt ub
ar ist
Ġb ath
Ġf r
Ġf rust
Ġp ac
Ġm ad
ou ch
Ġl acks
Ġn ests
ĠM iles
im er
ĠP apers
ĠR it
Ġcon cludes
ĠD ial
ag ua
od us
ĠN uclear
Ġex agger
ap a
Ġch icken
so ver
man y
Ġdis banded
Ġcomm ut
Ġne o
Ġcons cription
arg ed
Ġinf ected
Ġinter ven
Ġtrans f
Ġsim ul
ĠCar r
ĠWh y
Ġrun way
Ġseason al
Ġhead quartered
Ġbi ographer
Ġgen ocide
Ġdeb ts
Ġ[ #
ĠPal mer
Ġcontain er
Ġfav oured
ĠBur ma
min ton
Ġlo oks
Ġcou pled
Ġcust ody
ien ne
Ġdiss olution
Ġconver ts
ĠRom ance
Ġspread ing
Ġemp ires
Ġqual ify
Ġemb ass
Ġpark ing
Ġseem ingly
then die
ĠCre te
Ġrob ust
Ġdescend ant
Ġsup reme
Ġadvoc ates
ĠCirc le
Ġmart yr
Ġstead ily
Tur k
ĠHig her
Ġkne e
thendie ck
C or
G I
L iber
R ock
S chool
] .
b as
g reat
g ins
l ate
he a
st ick
ĠS ard
ĠC F
ĠB andy
ĠB olshe
ĠM ang
Ġg rap
ĠThe ss
Ġcon ferences
ĠF i
Ġde eper
ĠJ en
Ġsu ed
Ġse cre
ĠK in
ĠK et
ĠK and
Ġch orus
ord inated
ĠAl pine
Ġsc roll
amp ed
ĠCom mercial
Ġbo omerang
Ġinst ability
air craft
ĠMar io
yl on
ĠOr d
Ġref ined
ĠPr iv
Ġelect romagnetic
ĠĠĠĠ ĠĠ
idd ing
ĠEd monton
Ġdirect ing
Ġfunction ing
ara oh
Ġtri ps
Ġjoin s
ĠÃ ł
play er
Ġpress ures
Ġcoast s
Ġapprox imate
Ġacid ic
En vironment
ĠBur roughs
ĠLaw s
ĠAC T
ĠEp ic
Ġemb ry
Ġextra cted
Ġreact ive
ĠNic ol
Ġnegot iated
Ġdefend ant
Ġselect ive
Ġpreced ed
ĠBrad ley
Ġderiv atives
Ġdetect ive
Ġcustom ary
Austral ia
Ġlect ure
ĠBenedict ine
Ġstead y
ĠMunicip ality
ĠOak land
Ġforb idden
ĠAnders son
Ġsel en
ĠGust av
ĠConcer t
ĠHerod otus
Bat man
Ġtraject ory
Ġath lete
A ber
B eg
E st
P ierre
T im
V er
m onds
t or
Î ¯
Ġt ier
an al
es on
Ġb ust
Ġf ed
Ġp el
Ġm ourn
le ase
ĠS askatchewan
ĠC oc
ĠC ars
ĠT iger
Ġre he
Ġre de
ĠM ater
ĠI CC
ay e
Ġst ems
ĠR ams
Ġby pass
ĠL ig
oun ce
oc ols
Ġr ally
ĠU b
Ġun common
Ġcl ips
con taining
ob y
ug g
Ġmet a
ĠSp encer
Ġnumber ing
ĠFran ks
ograph ically
ĠAb yd
Ġsl opes
Ġeconom ically
Ã¡ h
ĠAir bus
ĠPar ks
lin er
ĠMan ager
Ġadm ir
Ġcr us
ĠX I
Ġlim bs
Ġmer it
itect ure
ĠEm il
Ã³ k
be at
ĠPri est
Ġarr ives
Ġsem icon
Ġdyn amics
bre aking
Ġcou ples
ĠChe ster
ĠAbb ot
Ġdark er
Ġcru iser
Ġimmig rant
cell ular
ĠÄ °
Ġsimpl er
Ġplate au
Ġexplan ations
Ġsyll ab
Ġrecre ational
Ġguarant ee
Ġannex ed
ĠNort heast
Ġben ch
Ġadequ ate
ĠBright on
ĠLux emb
ĠJagu ar
" âĢĶ
B udd
c i
m ith
p ret
y ar
Ù ħ
Ġ ump
Ġs erm
ed uc
Ġw atched
Ġw inters
Ġin ning
Ġb eds
Ġf o
ĠA esch
Ġh ull
ĠT ank
ĠT omb
Ġl over
ĠB letchley
am ount
Ġe tymology
ch ten
ot ted
Ġas phalt
Ġg lands
ĠH ank
ĠR ivers
ĠR ank
ĠD oll
ĠD alm
ĠF landers
ĠG ut
ĠJ in
Ġsh irt
ph ones
man s
hen d
ĠAl ameda
erv ed
ĠAr ms
Ġac ry
Ġso ils
Ġcount ing
ĠLe ad
Ġsign aling
ley ball
enn on
eb raf
yl er
Ġgu err
ĠWh itt
pect ives
Ġstr at
Ġopen ly
ĠGu ards
ĠHol mes
Ġsum mon
ators hip
ĠMc L
uk h
Ġindic ation
ĠSer ge
Ġput s
Ġdomin ate
Ġopt imal
ĠTra il
Ġpath way
ĠTele graph
Ġincorpor ating
add le
Ġcalcul ate
Ġwithd rawn
ĠAch a
Ġpeak s
Col omb
Ġrob ot
ĠPubl ishers
Ġpitch ing
ĠLov elace
Ġiniti atives
Ġshel ter
ĠHug o
Ġstrengthen ed
Ġbrom ine
Ġrecommend ations
Ġpromin ently
Ġmetabol ism
ĠBes ides
ĠChall enge
Adm inist
Ġredes ign
ĠBaud elaire
B all
F rance
S W
z one
Î µ
ar ius
Ġf ores
Ġp orn
Ġh atch
ou g
ĠS le
ĠT ab
Ġl anes
ĠB order
ĠB irds
ad en
ad ier
ad ows
im eter
Ġg host
ĠP seud
ĠR af
ĠD id
Ġwh ale
Ġpro c
ĠJ orge
Ġse greg
qu in
ĠU C
ap hor
ren ts
Ġdis gu
Ġpe er
ĠCom bat
ĠAb original
Ġrequ ests
Ġelect roph
Ġprocess ed
ĠEd die
ĠEx pedition
ĠPart hen
rain ts
ÃŃ s
ĠAng k
Ġplan etary
stand ard
Ġinteg rity
rug u
Ġdeterm ination
... ]
Ġche ap
ĠSun shine
ĠMag ic
Ġsearch ing
Ġgraph ite
Ġalph ab
Ġattrib ute
Ġlif ted
Ge orge
Ġhop ing
neg ative
ĠWork ing
ĠFal con
Ġdisappe ar
Ġtrig ger
ĠVik ing
ĠGard ens
ĠÃĨ thel
Ġindirect ly
Ġambig uous
ĠCrus ade
Ġlux ury
Ġdece ased
ogl ob
Ġcontempor aries
ĠHamb urg
ebraf ish
C s
E F
I TA
M in
P eter
g io
g eneration
p es
v ae
Ġ Ø
Ġ Âł
on ent
at hetic
Ġin quiry
Ġb is
Ġf itness
ro oms
Ġd rought
Ġh omin
Ġre habilit
ĠB urs
Ġe uro
Ġe ternal
Ġe cho
ur se
ad ays
ĠI X
ĠP ul
ĠH ots
ĠR oh
ĠD uc
ĠF am
ĠF Ã©
ĠG M
ĠG aut
ĠN ab
Ġpro long
Ġv ass
Ġex iled
Ġse aled
ĠO ften
Ġr ans
ew ard
ĠK um
Ġch alc
ge b
Ġcomp aring
Ġar rays
ĠTh race
ok k
Ġcan cell
Ġyear ly
Ġatt ained
ond e
ins ki
Ġinv erse
Ġfilm maker
Ġprov iders
Ġvar iance
Re cent
Ġbro w
Ġwar n
amb a
Ġconf ron
Ġprom ising
Ġdr inks
Ġtele graph
Al umni
Ġprof itable
ĠX V
Ġactiv ated
ĠComp uting
Ġpost er
cast s
Ġbroad caster
Un like
Ġred ist
Ġox ides
Ġdam ages
Ġmagn et
Ġess ence
Ġcard iac
cont inental
Ġcust omer
Pro gram
Ġop ens
ĠSu ccess
Ġancest ral
ĠCharl ton
ĠTw enty
ĠWat ford
Ġcryst als
vo iced
Ġmorph ology
Ġathlet ic
ĠWrit ing
Ġholid ays
Ġske let
Ġske leton
ĠAal to
Ġsubur ban
Ġvolunte ers
ĠFrances co
Ġrespir atory
ĠLav oisier
ĠPhilharm onic
Ġapopt osis
ĠOkin awa
Ġbure auc
Ġbesie ged
Ġaftern oon
apul co
Ġende av
A round
B D
C ivil
J ean
N orthern
b irth
g ood
h istory
n is
n ick
p here
t ank
Ġ ellip
Ġc av
Ġc anton
ar se
ar ine
Ġin ev
Ġb rack
Ġm aj
ĠA ure
ĠS ter
ĠT ourn
ol er
ĠB ren
ĠM oor
um ing
ĠL ic
Ġwh ales
ĠW it
res istant
ĠU se
ĠSt ad
Ġab stra
Ġdis abled
Ġman ages
Ġen v
olog ne
Ġspe eches
ob l
rib e
ah o
ah u
Ġcol ored
ĠZ ub
erson nel
til a
Ġeng aging
ĠBer ry
ĠChar ter
ĠX II
Ġsol ving
Ġactiv ation
ĠCor inth
Ġsum mers
Ar gent
Ġcirc uits
ĠRes p
uk o
Ġexec utions
Ġlik ewise
Ġcolon el
ĠVal ent
Ġoccup ies
uck er
Ġesc al
wer p
Ġpossess ions
Ġrecon naissance
Comp anies
ĠOrgan isation
Ġemb arked
ĠCP Us
ĠTw elve
Ġflag ship
Ġbad ly
Ġconsec rated
Ġcurren ts
Ġanaly zed
Ġmand ate
ĠSax on
Ġexerc ised
ĠTheod ore
ĠHas an
ĠJob s
ĠAltern ative
Ġlov ed
Ġcongreg ation
Ġpray ers
ĠBrun o
ĠBrab ham
ĠHawai i
Ġtelesc ope
Ġempir ical
ĠScy th
A li
D i
M c
j oin
m eaning
Ġt rem
Ġa queous
Ġp ant
Ġm ile
Ġto x
ĠT weed
el ite
ĠM ing
Ġg ates
Ġbe e
Ġon ward
Ġal beit
ĠL ac
âĢ ī
Ġex terior
og ie
pl it
ren al
ĠHe avy
amp a
ob acter
Ġsub ordinate
Ġfl oppy
Ġsupp ress
Ġadd itions
ĠAm p
Ġdec ides
ĠCl air
vent ions
com ed
Ġref in
oph ones
An n
Ġfun gi
Ġexpl or
Al tern
Ġbi om
Ġproduct ive
St at
As sy
Ġtro phy
Ġemploy s
Ġtemper ate
cont inent
Ġax on
ĠParliament ary
Ġmedic ation
ĠFer r
Ġharm ful
Ġcru isers
ĠYou T
Ġwild life
ĠAz ores
ĠAdvent ure
ozo ic
Sports people
ĠArchae opteryx
ĠDiamond backs
Ġpreval ence
ubb les
Ġgalax ies
Ġencourag ing
Eth nic
Bus iness
D T
D ay
O F
f ar
f ordshire
g ered
Ġt ap
an mar
en ary
Ġm im
Ġto uc
ĠT ales
ĠM ik
im ar
ist e
ul in
Ġcon form
ĠD ost
ĠG iven
op f
ag ar
ri en
av ior
ill i
ĠK id
ov ed
ĠCh ange
Ġnot orious
Ġcl ients
ĠUn icode
ĠAn aly
ĠTh rac
ubl ics
Ġsp elled
Ġreg ained
Ġher ald
Ġinf lamm
Ġinter course
Ġwe aker
ĠLe x
uc le
ĠSh ield
ĠBl ind
Ġspec ulated
ĠCan aan
ĠMar ÃŃa
Ġsl aughter
Ġref ere
Ġes p
Ġpat riarch
Ġcare ers
Ġcr ashes
Th ough
ĠSy riac
Ġexpress ing
Ġge ology
Ġcop ied
Ġsex ually
ĠMy anmar
Ġnecess ity
ĠTra ck
ĠDou g
Se ason
Ġcompar ative
ĠConserv atives
ĠUl ster
ĠAI X
á¹ ĩ
ĠWeb site
Ġpione ered
opt ers
ĠBM I
App le
Ġaccident ally
Ġsupposed ly
Ġid ol
Ġbicy cles
Port ug
ĠAstron omical
Ġambig uity
Ġsam pling
Ġfluor ide
Alf onso
Ġtribut aries
ĠBard ot
oton in
Ġbattlecru isers
ĠRaid ers
Ġpresum ably
Jose ph
ĠAchie vement
B or
C M
H ome
P res
b ird
d ependent
f s
g ement
p oints
r s
u ador
z ade
Ġa uxiliary
Ġc os
Ġw ives
Ġf als
Ġm ouse
Ġd ressed
ĠC ities
ĠT ake
el ly
Ġl ob
ĠM old
ĠP owell
ĠN egro
ĠN intendo
av ier
Ġex empl
ore st
ĠK ids
ĠSe x
Ġkn ows
Ġra pper
Ġtrans actions
ĠBrit t
Ġest ates
Ġem otions
air y
Ġwar rior
Ġpo le
An ti
par ag
Ġadv ancing
Ġkill ers
sp apers
Ġbre eds
Ġsent iment
iforn ium
Ġprincip ally
Ġwhe els
Ġcolon ization
Ġdeterm ines
ĠConf essor
Ġguitar ists
Ġsal ary
Ġdocument ation
ĠAC M
Ġreform ed
Ġcomment ators
Ġassum ing
Ġbass ist
ĠAmaz ing
Sc ience
miss ions
Ġnarrow ly
Ã¸ n
emen id
ĠAcc rington
ĠFather s
ĠAG P
Ġcompat ibility
Ġreprodu ctive
ĠBent ley
Up on
Ġaccompany ing
Through out
Ġinterv als
ĠMarl borough
Ġenerg ies
Ġposthum ously
Sah aran
Album s
ĠAbyd os
C hemical
D an
E c
S ongs
b ons
d ire
e ur
g as
h all
l ist
l ain
l ane
s creen
al am
Ġin cl
Ġb aby
Ġp iv
Ġp ix
ĠB A
im s
ut ory
ers h
Ġg ray
ĠP resent
ĠH aus
ĠG iant
ĠJ ess
Ġhe lium
cl osed
ĠSt alin
ight y
Ġcl ade
Ġen ables
ĠAr s
ne cess
Ġsp atial
ĠAs hes
ual ity
ton ic
Ġdevelop er
ĠBl iss
inn ings
ĠAp atosaurus
Ġdep iction
Ġcontin uation
Ġpo etic
lect ive
ĠPl ains
Ġhead ing
Ġvarious ly
Ġcr ushed
Ã¼ k
udd in
ĠTe ch
Ġabs cess
Ġfire arms
ĠAcadem ic
ĠMet al
onn y
ĠDel aware
Ġalcoh olic
ĠSk ating
iy ama
ĠSar ajevo
Ġimpl ications
ĠLad en
comm un
ĠAlc ott
Ġswe pt
ĠOri ent
Ġmand atory
ĠBurg ess
Ġemig rated
ĠFact ory
ĠApost olic
ĠStein er
Ġsurpass ed
Ġadvertis ements
uag int
ĠAbsal om
Ġdisplace ment
ĠGuth rie
A sh
F S
G overn
H F
M er
O s
f amily
f urt
f rame
n m
p ella
on ing
Ġs perm
is ode
ar bon
Ġf ights
le z
st reet
il us
ĠS ony
ĠS elig
ĠT alk
Ġre jection
el ius
ad al
ch annel
Ġas part
ĠP i
ra h
ĠR id
ĠD ir
ĠL il
ĠL az
ĠL ords
ri otic
Ġhe ct
Ġun h
og ues
Ġpl aque
Ġcomp ression
Ġrel ies
orn o
Ġsub stitution
Ġunder m
Ġinf ect
Ġtra ctor
Ġbl amed
Ġinst ructed
Ġdevelop s
Ġcap itals
any on
Ġfam ine
Ġfam ously
ĠMar cel
ĠBo oth
Ġgu idelines
Ġsoc io
che t
rict ion
ĠX III
Ġlight s
Ġobserv ing
ĠRich ards
Ġopt ional
Ġlo osely
Ġche aper
onn ie
Ġprin cess
Ġalk anes
alo ids
Ġliber ty
ĠEconom y
Ġcollabor ated
Ġexped itions
Ġanaly tical
Ġdepos ited
Ġdiscip les
Ġretain ing
ĠAcc ount
ĠChron icles
Ġverte brates
Ġsymmet ric
ĠTrad itional
Ġexcav ations
Ġdies el
ĠBast arn
Ġrac ism
ĠBundes liga
B L
B ut
C ricket
H ol
I mp
P rop
S N
W ork
h re
t ree
t ically
w hen
Ġt une
Ġo v
at z
Ġs olic
al ities
Ġw ages
Ġf illing
ro ved
Ġm apping
Ġh ide
ĠS ons
ĠS lam
ĠT oll
ĠM orning
ĠM asters
un y
ig m
ĠP Ã©
op atra
ĠW ick
res hold
ber ra
ip hers
ĠV ick
ĠAl most
Ġab elian
ade qu
Ġrec urs
ember g
Ġfl ora
Ġcap pella
ĠZ en
Ġimp air
ĠBl itz
inn ess
Ġcre m
eng ine
Ġins pe
ival di
ĠRuss ians
Ġpresent ing
Ġprev ents
ĠComp ut
Ġide als
Ġpost season
ĠCro ats
ĠMon etary
hib ition
Ġcompan ions
ĠSl ov
Ġgrad uating
Ġacadem y
rol ogy
ani as
Ġcast ing
Ġbomb ard
Ġaddress ing
ĠLeg al
Ġexhib ited
Ġdu o
ĠCam us
Ġdemand ing
ĠGh ana
Ġsimpl ified
Ġtru cks
ĠTit ans
Ġfeed back
athy roid
ĠRen Ã©
Ġinse ct
ĠMagn us
ĠZh ou
ĠLank an
ĠWin ston
Ġcoun cill
Ġwire less
Ġprophe cy
Ġdispers ed
Ġbon us
ayd ah
ĠElement ary
Ġarth ritis
B ir
B att
O h
R ivers
S port
S cient
h orn
o ire
Ġs acked
ar r
Ġp or
st ory
ĠS ep
ĠC hes
Ġre per
ĠB ash
ĠP S
ul ous
ĠH od
ĠH ave
em ate
ĠF emale
ĠG ide
ĠG iac
ĠW ool
oc y
Ġhe red
ber y
ĠCh uck
Ġnot iced
Ġad oles
pl ate
Ġcl an
ĠAn ch
Ġpre historic
ĠY ang
Ġmod ules
ern an
Ġtra p
Ġmet er
Ġimp ressive
Ġspec ulation
Ġappe aled
Ġlong time
yl ic
Ġins ight
let ter
Ġpar ade
Ġkill er
ĠBr E
sc apes
Ġlim iting
Ã¼ n
ĠSup erman
ĠPresident ial
ĠPat riot
ĠMac intosh
Ġpath ways
Ġbig ger
ĠMah mud
Ġethnic ity
Ġbal anced
Ġpal m
Ġcat hedral
ĠCP C
ĠDar ius
ĠEngine ers
ĠMod ule
Ġbond ing
Ġchalleng ing
á¹ £
Ġlat itude
ĠEnter prise
Ã¸ r
ĠAN SI
Ġimag ery
Ġrenew able
Ġflood ing
Ġaqu aculture
Res earch
Ġacceler ated
fact uring
ĠLib ya
Sm ith
ĠClaud ius
number ed
Ġmonop oly
ĠSchwe itzer
Ġphilanthrop ist
ĠAkk adian
Ġlar vae
Ġstom ach
D er
E U
H am
M ah
M ont
S l
c ision
e i
e conomic
f und
h alf
i u
i ative
Ġ ri
Ġw ard
ĠT ow
el ong
Ġl ap
ĠB t
iv o
ĠM ead
ĠM ih
ĠM ikh
id ay
id ian
ĠP L
Ġal bedo
ĠR ahman
ĠD io
ĠD awn
ag ogue
ac ious
Ġ" "
Ġhe ll
Ġex cerpt
ĠU rugu
ĠV ision
act ivity
Ġper pend
Ġcons oles
Ġrel ate
aus ole
ĠSe g
Ġac res
Ġob solete
ĠPro cess
Ġspec ify
ĠCl aus
Ġprogram mer
ull a
.. ."
ĠMan or
ray ed
Ġmag ical
most ly
ĠBel t
ĠDiv ine
cret ion
Ġemploy ing
ĠRed s
Ġtax ation
Ġgra ins
Ġsal am
Ġbod ily
ĠâĢ ¢
Ġdemonst rations
ĠChe ers
Ġtex tiles
ĠWater loo
Ġpronoun s
ĠAssy ria
ĠNiger ian
Ġstrugg les
ĠJane iro
ĠIl ly
ĠLiter ary
Ġguarant eed
Ø§ ÙĦ
Ġlung s
Ġcancel ed
Base ball
Ġentreprene ur
Ġcarn iv
ĠSept uagint
ĠWrest ling
ĠKazakh stan
D ark
H ouse
M ad
S aint
W A
b ank
d ington
Ġa urochs
in ating
is eries
Ġb ould
Ġf ron
le ader
ĠC ors
im id
ra x
ul g
ĠH im
em es
ĠG aud
op ened
ĠW ells
ĠW itness
est on
ĠN avar
Ġpro jection
if ax
ĠIn side
ment ioned
ĠK ub
Ġch ore
Ġch ambers
end e
Ġle m
Ġle v
ĠAn a
Ġper former
ced ented
Ġag on
rib le
Ġwhen ever
Ġass erts
ĠNew port
Ġind oor
ject ed
Ġloc k
Ġprov ider
Ġpublic ity
Ġorgan ize
Ġright eous
Ġhand ful
Ġcrit ically
Ġaff iliation
Ġcomple mentary
Ġbre asts
Ġdecl are
Ġtri o
Ġconstit utes
ari os
ĠMor rison
Ġpoin ting
Ġjud iciary
cis es
Ġspecific ations
Ġhom eland
Ġdig est
Ġnation ally
ĠMad ison
Ġassum ptions
acc io
Ġhot els
Ġdu ke
alm ud
Ġunp op
Ġspons or
Ġfranch ises
ĠSay ers
ĠNon etheless
ĠBurn s
ĠFight ing
Def in
Ġvacc ine
Ġrout ine
ĠCase y
Ġflour ished
ĠAlm or
Arab ic
Ġfold ed
Ġperm its
Ġhorm one
Ġbund le
ĠJerem iah
Ġic onic
ĠMoham mad
Ġma ize
Ġfu els
Ġinherit ance
ĠPom pe
Ġfart her
) (
B ro
E gypt
I EC
J ud
S il
T om
d ep
i ens
i aries
Ñ ı
à ¤
Ġo mitted
Ġp our
ĠS SR
ĠC airo
ĠT ale
Ġn atives
ch air
ĠH ed
em er
ĠF oot
ĠG ott
ĠE du
ĠN at
ac cess
ab as
oc or
Ġun int
ĠCh ase
ran ged
per ate
ust ain
iz a
ass an
ie v
Ġcl o
Ġab normal
hed ra
ors ki
Ġrec ycl
ob s
Ġreg iments
ve z
Ġinst ruct
ĠMar athon
ĠCar roll
Ġread ings
Ġpat ch
ĠChar acter
Ġcare ful
ĠTr ue
ĠTr uth
ĠAnt werp
Ġaccept ing
Ġconc urrent
ĠQu ad
ĠBay ezid
Ġpred ictions
ĠBab y
Ġlength y
Ġtable ts
Ġimpact s
ĠMiss ile
Ġgrand mother
Ġincorpor ates
stone craft
ĠBelg rade
Ġmel ody
cell ence
Ġcho ices
Ġwalk ed
Ġwaters hed
Ġfavour ite
Ġphysic ists
ĠCirc uit
Ġrecip ients
Ġbes ides
Ġmob il
ĠLis bon
Ġprophe ts
Ġaccus ations
kel ium
ĠBrom wich
Ġwed ding
hig hest
ĠBau haus
chten stein
B apt
c ian
n ation
n ear
s ource
t rad
à ¸
Ġ `
en an
en heim
Ġm asters
ou b
om i
ĠC ologne
ĠT ir
ĠB R
ĠB ing
Ġn ull
ĠM ile
ĠM ade
ig ration
ĠI P
ĠP ros
ul hu
ĠH undred
ĠH aven
Ġal igned
ĠR ules
ĠD oc
ĠD rug
um my
âĢ ¦
ĠW inn
ĠK re
Ġar ising
ĠV oy
ph is
act ical
Ġinter active
Ġbl ess
Ġem otion
form atics
ĠSh adow
Ġimp ly
Ġmon ster
elf th
ĠCl are
ĠComm unication
oph anes
ĠAnd ronikos
Ã¡ r
Ġrepl ay
Ġpract ised
Ġdel ta
ÃŃ o
ĠCo operation
ĠAc orn
ĠArt illery
Ġcy berpunk
ĠNor a
Ġlik ed
Ġgrad uates
ĠBay er
ĠTrans lation
Ġscreen ing
Ġplant ed
Ġfinancial ly
Ph ysical
Ġpun ch
Con stitu
ĠSing le
ĠTri angle
Ġillust rations
ĠOut standing
Ġflow ing
Ã¼r tt
Ġcho osing
ĠAle ut
Ġovers ee
ĠPhys ical
Ġantim icrobial
Ġtrig gered
Ġabb ey
Ġwatch ing
Ġwitness ed
Ġtheolog ians
Ġsynthes ized
ĠFac ulty
Ġanticip ated
Ġperipher al
Swed ish
Ġirrig ation
Ġcurric ulum
B ern
C m
C oll
G E
n ame
r als
v ance
{ |
Ù Ĩ
er cises
re ens
Ġc ats
Ġw alks
Ġin cent
Ġin ability
Ġb achelor
le e
ĠS ie
ĠS ikh
ĠC ly
ĠB achelor
am ate
et z
et ri
ch ant
Ġg land
ĠI S
ĠH T
ĠH ern
ĠH emis
Ġst ressed
th ulhu
ĠR P
ĠD B
and als
ĠL ingu
ant o
ore nt
ĠV ale
ount ers
In it
Ġpre ferences
Ġsp or
aus anias
Ġinter rog
Ġwe ights
Ġdef ects
Ġtra gedy
Ġbl ank
Ġadd itive
ĠCl ipper
Ġoper as
Ġdep osition
Ġgame play
ĠPl aza
Ġorder ing
ĠMan ual
ĠBro oke
Ġassoci ates
ĠEl is
ĠEmp ress
Ġposition ed
Ġenc ounters
Ã³ w
uk es
ĠGl enn
Ġsec uring
Ġforeign ers
Ġproblem atic
ĠHistor ian
ĠEv il
Ġgrant ing
ĠTim othy
Des ign
ba um
ĠTre asury
ĠLyn ch
Ġaffili ates
Ġans w
Ġcamer as
ĠAdvent ures
Ġparam eter
ĠBart Ã³k
ĠEc uador
log ical
Comm un
ĠBox ing
ĠUlt imate
ĠOw en
Ġfier ce
ĠIsab ella
ĠReyn olds
ĠBÃ©z ier
Ġlatt ice
Assy rian
ĠBastarn ae
Ã¼rtt emberg
C he
C el
M id
O P
S ource
f ried
g ia
h ra
l if
s ay
v aeus
Ù Ī
Ġs ake
Ġw age
Ġw ax
as ium
ĠA ces
ĠA ug
iv ial
iv ier
ĠM iddles
im an
im ated
Ġst ap
ĠF ool
ĠF BI
ĠG ul
ĠG lor
ĠL iga
ĠW i
ĠW aters
Ġv end
ab el
Ġpl ug
Ġpl atinum
ge ons
Ġk ern
Ġcan vas
Ġsp are
ĠRe ading
gl omer
Ġpos ed
Ġmet aphor
Ġloc als
Ġem itted
ĠPro per
Ġdesign ing
Ġcommun al
Ġcor pus
ĠBar ber
Ġappro aching
ĠEd en
Ġaff inity
Ġhuman itarian
Ġstruct ured
Ġreal ism
Th omas
Ġspecial ly
Ġagre es
Ġsuper vision
Ġfund ament
Ġexcept ional
Ġnorm s
Ġconsider ations
Ġcommit tees
Ġche ese
Ġgra ves
Ġimplement ations
Ġcontrovers ies
Ġanthrop ologists
Ġpan ic
rec ord
Ġcosm ological
Ġunp re
Ġvo ices
ĠBod hidharma
Ġshif ts
ĠDur rani
Ġdenomin ation
ĠWrit ers
Ġencod ed
Def unct
Ġtot ally
Ġfertil ity
Ġhelic opters
Ġabbrev iation
ĠFif th
ĠAeg ina
Ġreconst ructed
uzz le
ĠHale y
Banglades h
Ġgent le
ĠAlber to
ĠThurs day
ĠHots pur
ĠHemis phere
B enz
H en
L ong
M ag
O T
a q
b ral
c row
g ang
w alk
y right
er ian
es a
it Ã©
Ġc emetery
Ġin adequ
ic able
as urer
ĠA ES
ĠS ource
ĠC oun
Ġl ord
Ġl ens
Ġl ymph
am en
iv ism
ir ling
ĠThe bes
em ia
ĠE h
ĠN iel
Ġpro to
ab h
Ġex ercises
Ġr ites
ĠU P
Ġar tery
ĠV ul
ĠV ivaldi
ĠAl am
Ġper ce
Ġen roll
Ġj e
gl ass
Ġam ines
Ġdef unct
Ġpres umed
Ġed s
Ġed iting
ĠCan berra
ĠAd en
ĠAd vert
Ġsm art
ĠBo Ã¶
Ġins cribed
ator ium
ole cular
ĠPar ish
omb e
Ġwon der
ĠGu ild
Ch ap
Ch ief
Ġmult ic
Ġassoci ative
Ġgen etics
ĠCo ch
Ar men
Ġcop ula
Ġdi as
rel igious
Ġang els
het ical
Ġbirth place
Ġfle eing
ĠBab ur
Ġens uing
ĠRom antic
Ġmedic ations
Ġchief ly
Ġstep pe
ĠChap el
Ġrain y
ĠGre co
Ġalt ogether
Ġflag s
Ġly ric
Ġcosm ology
ĠAlb any
Ġstre ak
ĠOrig in
ĠOb ject
ĠMax well
Ġstret ching
Ġpolar ization
ĠLind a
Ġcomplic ations
Ġutil ized
Ġhem isp
Ġjump ing
ĠBuck ingham
gam mon
Ġcongreg ations
Ġculmin ating
Ġcategor ized
Ġbare ly
ĠScandin avia
ĠIber ian
ĠPlate au
Ġconting ent
ĠLuxemb ourg
ausole um
Ġunpop ular
Ġunpre cedented
D E
R oad
T ime
j ug
t urn
Ã ®
Ù Ĭ
at ro
at aka
Ġc ater
Ġc eded
Ġb ry
Ġp ard
ro zen
ĠS hen
ĠC rist
el age
el ux
ol ation
ur u
ad ors
us er
et us
ĠM ilit
ot or
Ġas hes
ĠI F
ĠI N
ĠP os
ĠP DP
ĠF atal
ĠG auss
ĠW ire
ĠN BA
Ġv ectors
ip ment
Ġch im
Ġbut ton
Ġro ok
Ġsp ots
Ġkn ights
Ġpr ide
ĊĊ ĠĊĠĊ
any a
Ġair field
Ġown s
ble ms
Ġsl alom
ĠCar th
Ġfin est
Ġref usal
ĠBar nes
epend ence
Ġshort ened
umb ria
Ġdecl ares
St and
St ructure
ĠEm ily
Ġoffer ings
Ġill um
ĠQu ant
Ġten or
Ġdom est
ĠRichard son
ĠSuper order
with out
Ġcompar atively
Ã¨ ge
Ġsecret ly
Pl aces
Ġblock ed
Ġlic ensing
Ġcommission er
ĠAndrew s
ĠAdd itional
Ġnob les
umber land
Ġcas ino
Ġarbit rage
Ġcycl ing
ĠLuc as
ĠEuro pa
ĠDun can
Ġpredomin ant
ĠDur ham
Arch ae
Ġrender ing
ĠQur an
Ġgam ma
Ġsurve illance
Ġlocomot ives
Ġvert ices
ĠAene as
ĠLeop old
ĠAcha emenid
* *
D NA
M il
N ame
O A
g il
n Ã©e
p ark
r ill
s ided
v ine
v antage
z yn
Ġ ~
er os
Ġthe rapeutic
Ġs hed
Ġan onymous
Ġto ad
Ġto pped
Ġh ollow
ĠC I
ĠC ort
ol utions
ur ium
os ius
ĠF est
ĠL it
âĢ ²
ĠN aj
Ġpro se
Ġde af
Ġse ct
Ġse iz
ĠK amp
pp ers
ĠV eh
ĠV oice
Ġad vers
ob ia
rib es
Ġatt itudes
Ġup grade
Ġapp le
Ġapp rent
Ġkn ife
Ġwhere in
Ġhigh lands
ĠCl iff
ĠPh D
ĠAustral ians
Ġtr unk
ĠCanad ians
Ġpar ody
Ġdet ention
Ġdiv is
Ġbas al
de hyd
Ġbus y
ĠGu atem
ĠAc apulco
ĠPort s
Ġcapital ist
Ġstory line
Ġunivers ally
isl av
Ġviol ations
Ġapplic able
ĠMy stery
Ġoccup ying
ĠSpe cies
Ġdam s
Ġhom ogeneous
Ġround ed
ĠBal och
bour g
Ġesc ort
Ġdiscuss ing
ih ad
Ġpun ished
Ġavoid ing
Ġrepe at
Ġcru ise
ĠHel m
Ġdoub ling
ĠProgram me
Ġlingu istics
ĠMir za
Ġhal ted
Ġvir gin
Ġrow s
Ġbrig ades
ĠHand book
omed ical
Ġcriter ion
Class ical
ĠMaxim ilian
Rel ations
Ġfulf ill
capital ism
Ġwel comed
Ġski ing
ĠAbbas id
Ġneighb ors
Ġendors ed
ĠProvin cial
ĠOdys sey
Ġaggress ion
ĠPresbyter ian
ĠMikh ail
Ġperpend icular
C ross
D ec
E r
I ce
R oy
R ussia
S ir
l ook
p ie
s un
u pe
u ke
v ian
Î º
Ġ iv
ed ic
ro vers
Ġd ent
Ġd ancers
ĠS ent
Ġl oses
im edia
ri o
ĠN T
ish able
Ġch oir
Ġch aos
Ġpl under
ĠSt o
ĠSt rat
Ġhas h
Ġres pected
ep pe
ron gh
ener ife
Ġpe pt
Ġsub group
Ġsub scrib
Ġinf rared
Ġqu ar
Ġqu otes
Ġsever ity
Ġland own
let ion
Ġpar ach
Ġconf isc
Ġprom otes
Ġdiv iding
Ġmake up
Ġprot ocols
ĠGeor gian
ĠSch um
ĠSch mitt
Ġer osion
ĠCor b
Ġobserv ances
Ar ts
Ġfail ures
Ġcost umes
Ġcapt ive
Ġaltern ating
Ġdefin itive
ĠBut t
Cl ub
Ġenter prise
Ġconver ting
Ġwebs ites
bro ther
ĠCur tis
Mus eum
Ã± o
ĠEven ing
iox id
ĠTerrit ories
Ġadvent ures
Ġspons ors
Ġexpect ations
ĠPhilos ophical
ĠNapole onic
ĠSher man
Ġcert ificate
ĠOm aha
Ġtheor ist
feld t
Ġexcav ated
Ġaest hetics
ĠBud apest
Ġpenet ration
ĠEss ays
---- ----
Ġdivor ced
disc ip
Ġovert urn
Ġstrug gling
ĠNam ibia
ĠMB TA
Ġsurp rising
Camb ridge
ĠVerm ont
Ġora cle
Ġenlarg ed
ĠTiber ius
ĠYouT ube
! ,
A z
A bs
H A
J D
M iss
R E
S ign
b ot
c ross
he x
re aux
an us
or ical
Ġin e
Ġb ary
Ġf us
le ted
st ates
Ġg em
Ġg reet
Ġal ike
Ġal pine
os er
ĠD ale
ĠD idd
ĠF on
ĠG ed
ĠG av
ĠG raph
ĠE ye
Ġwh olly
op rano
ĠN umbers
Ġv iable
Ġit em
ran k
Ġint rinsic
ress ions
ĠEn lightenment
Ġrec urring
Ġcons cript
Ġam ended
Ġinv itation
ĠAt tila
Ġdist urb
ock ets
Ġsur g
air d
Ġmon oc
inist ries
ful l
Ġback ward
ĠQ ing
Ġcur ved
ove lette
Ġtele vised
Ġident ities
Ġsol uble
ĠCo ach
Ġfunction ality
Th ird
ĠAng u
Ġmass ac
Ġmy ths
Ġtransl ate
ĠRes ources
Ġpress ed
Ġvict orious
Ġdi ocese
Ġball ot
ĠArch ipelago
Ġvill ain
Ġbur st
Ġstop ping
Ġspect roscopy
ĠTown s
Ġcreation ism
Ġtun ing
Ġfer mentation
Ġdro pping
Ġimpl ied
Ġimpl icit
Ġnit ride
ĠAnglican s
ĠEconom ics
Ġparallel s
ĠWeb b
Ġdoct rines
Char acter
ĠHart ford
Ġori ented
ĠAG M
ĠCrit ics
ĠTun is
á¸ ¥
ĠAgric ultural
Ġuncon scious
Ġrif les
Ġflex ibility
Oper ation
ĠAdri Ã¡n
Ġcontam ination
ĠSwe et
Ġtradem ark
ĠAesch ylus
ĠZub aydah
ĠBritt any
F lor
F ellows
U T
c urrent
h tt
i ya
y rus
Ġ umb
er k
Ġthe aters
Ġs unk
or rh
ĠS ym
ĠC lear
ĠT ao
Ġl ion
id ine
id able
ĠI RA
Ġst up
ĠR aw
Ġcon clusions
ver bs
ĠD j
ĠD as
ĠD Ã©
ĠL ep
ĠL ines
ĠJ ut
Ġex otic
ill as
ĠK yr
Ġres isted
Ġro de
Ġag enda
Ġform ulated
Ġout law
Ġapp l
Ġac claim
Ġra b
ĠCom ic
ĠSh op
ax is
ĠAp ache
ox ic
Ġconf ident
.. ..
ĠAll ison
Ġadm ired
Ġsomet ime
Ġview ing
arn a
alt z
Ġsw orn
Ġmy sterious
Ġadminist rator
Ġrock ets
ĠCong reg
Ġser otonin
ĠGro thendieck
Ġpen icillin
ĠMy cen
Ġeight een
ĠCont inu
Ġsil icon
Ġacqu iring
Ġmagn esium
Ġdyn asties
ĠSun der
ĠSuper ior
Ġadapt ive
ĠStat istical
Ġinput s
Ġans wers
Ġexplo ited
Ġkid ney
Ġmamm al
ĠHal ifax
ĠDram a
Ġunsuccess fully
Ġtoxic ity
ĠCle opatra
Ġmetab olic
ĠAnim als
Ġtribut ary
Ġhighlight ed
Atlant ic
Ġantipsych otics
bled ay
Ġtherap ies
Ġfing ers
Mich ael
Ġcancell ation
B ol
C onn
E arth
G o
L ove
M od
M eanwhile
S al
b eth
g irl
p ace
r ism
u ce
in yl
an or
Ġs its
Ġc iphers
Ġp amph
Ġto urs
ou x
st en
st ock
ĠS arg
ĠT almud
ĠM ini
id on
id ered
ĠP or
ĠP ius
ĠP ole
ĠP ret
ĠP ike
ĠH yd
ĠH okk
em on
ĠF erm
ĠG est
ĠL ars
ĠE uler
op us
ĠW inners
Ġpro st
Ġpro be
ĠJ ain
ia o
ill ation
ill iant
Ġun official
ĠK em
ell ites
iz ards
ass igned
Ġsp rings
Ġele g
Ġrel iability
ĠRe agan
li ked
Ġbl izzard
Ã© l
Ġent ropy
ĠPro f
ĠAm y
Ġdep ressive
vent ional
arm ac
ruct ive
ham pton
Ġstat ute
Ġrad ial
Ġaff ection
ald red
On ce
Ġorigin ates
Ġreal ised
Ġannoun cer
Ġball ads
Ġinteg rate
ĠSer ver
oul ton
Ġstri pped
asc us
enh ower
Ġinn ocent
Ġtrack ing
Ġinvestig ating
Ġconqu ests
Ġmis conduct
ĠAnton inus
Ġexhib itions
Ġpron e
Ã¡n dez
Ġthink ers
Ġdiam onds
Ġlabel ed
ĠIll ust
Ġresemb lance
Ġsun light
Ġgoddess es
Ġretain s
ĠColon ial
ĠId ol
erse ys
Nov els
Over view
Ġpersu ade
Ġconsolid ated
Ġsubdiv ided
Ġgran ite
ĠJak arta
ĠMalt a
ĠStr ateg
Ġincumb ent
ĠWhitt aker
Ġdias pora
ĠHokk aid
B ay
L anguage
O ff
R eligious
b eg
d ia
h ang
t re
t hem
w ave
z ew
Ð ²
ã ĥ
Ċ ĉ
re present
al er
al ach
Ġin ches
Ġf oul
Ġp aired
as se
ro val
Ġh ung
ĠT ik
ĠM is
ĠM ick
ĠM oney
un i
ot ive
ĠH ist
ĠH alf
th an
op y
ĠW id
ab akh
se at
ĠU m
Ġun related
ĠK oh
ĠV at
ass er
Ġad ul
pl er
ĠAl ess
Ġwor sen
In ternet
hed ron
Ġen forced
Ġro ster
Ġro oted
Ġj ail
Ġsp anning
Ġup set
oth ic
Ġunder water
red it
Ġtrans action
Ġret ro
ĠAm ber
ĠCl imate
to ire
read n
Ġgl obe
Ã¼ d
Ġdel ays
aken ing
Ġenc ryption
ĠDay ton
ett i
Ġ[ ...]
Ġcivil izations
Ġcost ly
Ġcontrib utor
Ġstri ker
ĠWe ap
Ġscreen play
ĠVol ks
ĠMer it
Ġdiss atisf
ĠEv idence
ĠPan zer
Ġpreserv ing
Ġfort ifications
Ġdon ations
Ab out
ĠDo ct
Ġcontact s
AR C
Ġcat atonia
ĠNic ar
Ġindu ce
Aust rian
ĠArgent inian
ibl ings
ĊĠĊĠĊ ĠĊ
Ġrom an
Ġstret ches
Ġpseud o
EE E
Ġkilomet res
Ġreun ited
Ġscatter ing
ĠAndalus ian
ĠNord ic
ĠLithuan ian
ĠHur ricane
Ġprest ige
Ġhij ack
ĠLen in
Ġreinforce ments
Ur ban
ĠEis enhower
ĠVog t
iflor ae
Ġtril ogy
ĠDere k
ĠInnov ation
Constitu encies
A h
E ven
R ob
U l
a ft
b rate
c ro
i ographical
m oon
s by
Ġt ut
ed ience
Ġb arg
Ġp av
Ġp ocket
Ġp aternal
Ġd inner
ĠS ang
ĠC C
ĠC anyon
ĠT ract
ĠT rain
Ġl ords
Ġl oud
am y
ĠH ors
Ġst iff
Ġst rongh
ĠR as
ĠR ice
ĠR ise
os itions
ĠD ol
op en
op ers
rom eda
av i
Ġsu cc
ia z
ich o
ĠK ot
ĠK arn
ĠCh rys
Ġcomp ute
per ed
ĠV e
ib a
Ġad jective
ĠUn ix
ĠTh ings
Ġdis ability
Ġen force
ath lon
ious ly
Ġout ward
Ġme g
ild e
Ġam end
Ġunder going
Ġunder took
Ġoff ence
ĠAt omic
Ġprov ing
Ġair plane
Ġant igen
oss ibly
Ġinc idence
ĠBC D
ĠBC G
Ġpat ents
Ġless ons
ĠMed ina
Ġdi acrit
Ġpers istent
Ġpen alties
ror ism
Ġemer ge
ĠDist inguished
Ġmatch ing
part icularly
ĠCarl o
ĠEv olution
ĠOut side
Ġrein forcement
ĠProgram ming
Ġabsor b
ĠChief s
alm ers
German y
ĠCatal onia
Ġcompil ers
ĠLes lie
Ġtom bs
erg ic
Ġintellect uals
ĠLy on
Ġinterpre ter
Ġcompl ained
Ġsyll ables
Ġrecre ation
Ġphosph ate
Ġhat red
Ġsymp athetic
ĠMack enzie
ĠWor cester
Ġbotan ist
ĠTon ight
ĠMeh med
Ġwavel ength
Ġbord ered
comput er
ĠLut on
Ġresear cher
Ġdup lic
Ġshar ply
Ġconve x
Ġgamb ling
Ġrept iles
Turk ish
ĠBurs a
M I
S outhern
W K
b ig
b ard
c ole
h ouses
s ize
t ail
Ä ĩ
Ġt ill
or as
al gebra
Ġc um
Ġw ounds
Ġin ception
Ġp ants
ĠS z
ĠS amp
ol fer
Ġth reshold
Ġ( +
Ġ( â
us ions
ĠM aid
ĠP s
ĠH itt
ĠD ent
ĠD ise
ĠF ate
ĠW izard
od or
ĠN ero
pe z
ant ics
ĠK ab
Ġar ises
ĠV il
Ġres urrection
Ġdis ks
Ġdis rupt
ress es
ĠRe id
Ġsub tle
ve h
tain e
ĠAt kinson
oot ing
ĠZ ar
the y
gy z
omet own
ĠOr well
Ġorgan izing
ott a
Ġcomput ed
Ġbi otechnology
ĠComp an
Ġbre ath
ĠArt ist
Ġmer ge
Ġmodel ed
ĠHigh lands
ĠBudd y
Ġsit com
ĠIr ving
Ġens ured
bre cht
ĠCop tic
ĠCamp us
Ġalk aloids
add y
ĠMah ar
Ġqual ification
ĠNaz is
ĠUs ually
bell ion
ĠGal ile
ĠEth ics
Char acters
Ġattract ing
ĠLi bert
produ ct
Ġexplo it
Ġrid ic
raz y
Ġborough s
ĠRoberts on
Ġvolunte er
Ġtransp arent
Ġprol ifer
ĠLie chtenstein
ĠLock heed
Ġlex ical
Ġjuven ile
cart es
Agric ulture
ĠSakh arov
Ġtransf ers
Ġrehe ars
ĠSunder land
% ;
B P
B BC
F inal
J ac
M ary
O ur
T D
b ands
d ated
d aughter
g one
g ars
i oc
j et
u ition
w ere
Ġa ard
en cia
Ġs ab
al on
Ġd os
st ones
il ated
ĠS tern
ĠS ites
ĠT oul
ur ations
et itive
ĠM ant
ĠM ull
Ġg ut
Ġg olfer
ĠP av
ul ators
ĠR ig
ĠR if
ĠF antasy
ĠL us
ĠE g
ĠE rik
ĠN A
ĠN acional
Ġor thodox
Ġsu ite
oc us
ĠO wn
Ġcomp ass
ff ord
ide an
Ġcl ash
ĠAn toine
ru ce
Ġte aches
te le
we b
ĠY u
Ġme al
ĠRe ef
ys elf
li ers
oh ol
Ġtrans m
Ġtrans cription
Ġret iring
Ġconst raints
ĠCl ock
Ġterm inus
Ġcontin ually
Ġocc ult
ris k
Ġant agon
Ġsl ope
Ġdisc oura
Ġdisc ourse
omet ers
son ian
Ġcommun e
Ġcor ros
Ġval ve
Ġopp ose
Ġinflu x
aster y
Ġarch aic
Ġbi ologist
Ġhel m
Ġphys icians
Ġsepar ating
ĠMc N
Ġball istic
Ġsurv ives
Ġsuff rage
Ġneg atively
ĠCamb rian
iff e
Ġnar rator
Ġimplement ing
Ġbreak down
Ġbreak fast
Ġtarget ing
Ã¨ s
Ġbox es
ĠKar p
Ġmig rant
Ġsucceed ing
Ġpossess es
Ġsen ator
Ġcru el
ny tsky
With in
ĠElect ronic
Ġmut ually
Ġarchae ologists
ĠJan et
Ġoverl ap
Ġstret ched
Ġintern ally
Ġsubstit uted
ĠDisc overy
ĠLaure n
ĠEston ia
Ġadjust ed
Ġthr iller
ĠRout ledge
ĠCzechosl ovak
ĠMathem atical
Ġmit ochond
ĠEmer gency
ĠHend erson
ĠAragon ese
Ġsurve ys
ĠDod gers
ĠSebast ian
ĠGaz ette
ĠSettle ment
Var ious
ĠParthen on
Ġalphab ets
= #
F emale
G ood
H D
H ig
d or
g rass
l ord
p rim
s u
w il
w ait
Ġt iles
Ġm ate
Ġd ragon
ĠC thulhu
ĠT in
ĠT ell
Ġl on
ĠB ates
Ġn omenclature
et ed
ĠM ist
ĠP ann
ĠP ersonal
ĠH ast
ĠH avel
Ġst ran
ĠR ib
ĠF en
ĠF ra
ĠL anguages
ĠE C
ĠW ords
est inal
ĠN ancy
Ġv ibr
ort al
ial es
ish i
pt ics
ĠSt oke
per cent
Ġsh oes
ĠV it
ĠV ern
ĠV ery
are l
Ġcl own
Ġdis g
ob iles
Ġreg ulate
ĠRe ed
Ġoff set
ars ity
ĠCom mentary
ĠLe Ã³n
Ġwork force
Ġmet ope
Ġfe as
ĠSh ire
ĠAm ph
ĠAb el
ator ics
Ġsoc ially
rew s
Ġjust ified
Ġlim b
Ġconstit utions
Ġhard er
Ġgrad uation
ĠLou ise
Ġmother s
ĠMal i
Ġknow ing
met ry
Ġboard ing
ĠBab e
Ġdiscuss es
Pro fessional
ĠProv idence
Ġsens itivity
ĠTechn ologies
ĠUN ITA
Ġstay ing
Ġec clesiastical
Ġpack aging
ĠOver all
Ġhero ic
ĠUl vaeus
Ġsomew here
Ne ill
arat us
Ġion ic
ĠCas p
Ġcompl aints
ĠVis ual
Ġvo iceless
Ġtalk ing
Ġmac ro
ĠAndre a
ĠMalays ian
Ġpup il
Ġflo ors
Ġefficient ly
ĠBry an
ĠBomb ay
Ġprosper ous
ĠLomb ard
ĠMÃ¼ n
Ġencl osed
Ġflower ing
Ġdisagre ement
Ġpsychiat ric
ĠHav ana
Ġlibert ies
Ġsket ch
Ġcyl ind
Mex ican
Prim ary
Beg inning
ĠTourn ament
necess ary
B os
C amp
L M
S oc
S erb
T r
W ind
w ear
z on
Ġa romatic
Ġs aving
Ġb ilateral
Ġp ic
Ġp ounds
Ġm uc
le ading
Ġd ried
Ġd well
ĠA rag
st op
ĠT ram
ĠT aj
ĠT ask
ĠT enerife
el o
ad in
ĠM aking
Ġg ig
ĠP ausanias
ĠH ir
ĠH ydro
Ġcon ject
os o
ĠF ou
ĠW ave
ĠN im
ĠN inet
Ġsu its
gh am
ĠCh in
Ġar id
ass oci
act ing
Ġdis par
Ġsc reens
Ġdes p
ĠY ounger
ĠNew man
ĠPro gressive
ax ia
iew icz
Ġexpl oring
co al
Ġpat ented
ĠSw ift
Ġpract ically
ĠGeor ges
Ġsix ty
ogn itive
Ġgen etically
Ġreal istic
Ġvol leyball
Ġdeb ris
ĠBlack adder
Ar m
Ġbar ley
Ġfem inist
Ġcontrib utes
ĠQu in
Ġacadem ics
ĠSim ple
Ġdestroy er
Ġsett ling
Ġsyn onym
ĠLu ft
ĠChe ro
rif ied
Ġautom ated
ĠJul ie
ĠFer gus
ĠChap man
ĠAud ience
ĠMem ory
ĠAj anta
Ġsan ction
Ġeditor ial
Ġpros pect
Ġsatisf ied
ĠFront ier
Ġdeliver ing
Ġcert ification
Ġbright ness
ĠRepresent ative
Ġcrow ds
Ġsacrif ices
Econom ic
Ġcommemor ate
sm all
Rep ublican
Ġdeleg ates
Ġoverth row
mel nytsky
Ġhtt ps
ĠBit ola
Ġreluct ant
ĠAmbros ius
Ġprolong ed
geb ras
ĠKyr gyz
) âĢĶ
A k
B ob
B ox
I ts
M uch
S et
T ra
W eek
a er
g iving
m ese
r ÃŃ
Ġ riots
it imate
Ġc af
Ġf el
Ġf atty
Ġm old
ĠS ina
ĠC ut
ĠT ong
ĠT ypically
Ġre nt
ĠB ose
id an
ĠP am
ĠP od
ra ul
ĠH ul
th or
ĠR T
Ġcon g
ĠF ritz
Ġare na
ical s
og e
ary n
gh a
ĠCh an
ĠSt yle
Ġk et
Ġad iab
ĠAn ast
Ġres ide
ok o
ne ath
Ġup coming
ug u
Ġac re
ah idi
ond o
Ġdef enses
abl o
ĠAp art
Ġdisc overs
inc orporated
Ġcor al
Ġnational s
Ġinc arnation
Ch ile
Ġgl ory
Ġide ological
Ġemploy er
Ġsuper natural
ĠDes cartes
Ġimm ense
oul t
Ġtext ile
Ġamount ed
Ġlog ar
Ġax es
Ġblock ade
Ġir rad
Ġfort une
Ġburn t
rie ved
Ġhol der
Ġrang ed
Ġrein st
ĠAch ill
ĠEst abl
ĠFar rell
Ġportray al
Ġanaly tic
Ġclim ates
Alex and
ĠArchae ological
Ã©t at
ĠGene va
ĠMÃ¼ ller
Alf red
ĠAdv ance
Ġobsc ure
Ġcartoon ist
Ġarist ocracy
Ġsupers eded
ĠLaur a
Liter ature
ĠBess el
Ġnutri ents
ĠWoll stonecraft
Ġmans ion
Cel tic
ĠChero kee
F I
P ac
R em
U se
b les
b gcolor
f i
n en
n est
p roduction
s um
t ailed
Ã ²
re cht
en stein
Ġs iblings
Ġf ilt
Ġp ink
ĠC A
ĠC inematography
ĠT ac
ur ers
ĠM ord
ĠM int
ĠM ention
ĠP ose
her d
ĠR ag
Ġcon cluding
os hi
ri z
ĠN I
ĠN ame
if iable
Ġex cluding
Ġnot ions
ĠV esp
Ġcl auses
Ġres in
Ġen velop
Ġup right
ĊĠĠ ĠĠ
hem iah
eg u
ason ry
ĠAm ir
ĠAm ateur
ĠAd vis
ĠWh ites
Ġcor relation
Ġexper ien
lic ted
Ġcolle ague
ĠBer gling
On ly
Ġbi ographical
ĠGu adal
sp ir
Ġtri angular
ĠIndian apolis
chan ical
ĠRober to
Ġconsist ency
Ġcritic isms
Ġnetwork ing
Ġche cks
Ġlay ing
aren cy
fl ation
Ġconv ince
Ġsens ors
Ġshare holders
Ġemphas ize
IV B
las m
ĠPop ulation
indu ced
ĠLuc ius
Ġload ing
Ġneuro trans
Ġpione ering
Ġconstruct ing
pur pose
ĠPhoen ician
Orig ins
ymb ol
Ġsupplement ed
ĠMong ol
Ġannex ation
Ġrecommend ation
Ġepit het
Ġprosec ution
Ġcov enant
ĠKnow ledge
Ġcoron ary
Ġinsert ion
ĠNum erous
Ġappell ate
ĠUmay yad
Ġrefere e
ĠDidd ley
ĠJut land
C orn
E le
R un
S eries
T or
g overn
k rieg
r iver
Ð ¼
Ġa ids
at ism
Ġs ou
Ġan te
Ġp est
Ġp ub
Ġm un
ĠS ara
ĠS iege
ĠS ullivan
ĠB az
ad h
id us
ĠP ath
Ġst uff
ĠR ox
ĠD um
ĠD ud
ĠD art
ĠD raft
um atic
ĠL on
ĠE agles
ĠE aldred
Ġwh ites
op ing
op olis
ag in
ĠN TL
qu al
ill on
ess ment
ak an
ov ic
cl air
ĠCh am
ĠSt age
ĠV eter
Ġover view
ĠRe in
ĠRe ference
Ġbu ying
cept s
its ch
Ġret reated
ec a
Ġant ioxid
ĠBe an
Ġcor rupt
Ã¡ il
Ġstat utory
ĠEd dington
ops is
Ġanal yses
cul iar
ari at
Ġtransl ates
ĠGovern ors
ĠTrans it
Ġtax i
Ġens uring
rown ed
Ġconver gence
Ġreve aling
Ġpun ct
ĠVer reaux
Ġconsequ ential
Ġreact s
ĠMat th
ĠUr du
ĠMid land
fin ished
uther ford
Ġarchae ology
ĠPhilip pe
Med ieval
Polit icians
ĠBoy d
Ġsubt ropical
Ġrid ge
ĠBAS E
othe rapy
ĠCart oon
ĠIv ory
Ġwitness es
Ġactin ium
ĠCov enant
Ġkidn apped
Ġdimin ished
Ġculmin ated
Ġconjug ate
Ġdevast ated
Ġparas ites
Ġwavel engths
ĠRac hel
ĠEuras ian
Ġdisad vantage
Ġcolloqu ial
Ġarter ies
iov ascular
ĠGlad stone
Ġtorped o
ĠCoc os
Ġreper toire
B aby
G R
L ow
P ad
d rop
f red
m ajor
p ol
w yn
w elling
Ġ \
Ġt il
in ers
re fer
Ġo ak
is ure
Ġc ivic
Ġan ten
Ġf are
Ġp estic
Ġm akers
Ġd ot
st ep
ĠS iber
ĠC ome
ĠC apt
ĠC ert
ur ious
et ter
ch ard
ĠM ale
ĠM ets
ĠThe rm
ĠH em
ĠH ap
ĠH ector
ĠN an
ĠN eum
Ġpro ud
Ġcom a
Ġv iral
Ġpl ag
ĠCh i
ĠSt rong
Ġar te
Ġint ensive
Ġint entions
ke ep
Ġsc an
Ġdes irable
Ġsp y
oin formatics
Ġrel ativ
ĠAs parag
Ġapp end
Ġkn ocked
ject ives
Ġinv isible
Ġsur plus
Ġhigh lights
ae ans
ĠFor bes
ash ire
ĠAb i
Ġmin iseries
Ġfin ancing
Ġref ract
ĠBe er
Ġvers a
Ġvers o
Ġconf luence
Ġrefer enced
Ġbas ins
Ġbus iest
Ġinc ap
ĠBy ron
ploy ed
ink i
Ġel astic
Ġcompet itor
ĠCo ff
Ġproject ive
Ġemploy ers
ĠAnt iqu
Ġaccept s
Ġbar ium
Ġhard ly
Ġprob able
ĠSam aras
Ġjud ged
ĠSpe aker
Ġhom eless
Ġinj ection
Ġsurround ings
ĠKn ox
Ġsus pect
ĠOtt awa
ĠClass ics
ĠTor ah
ĠLeg acy
ĠProt ectorate
ĠHow e
Ġpit chers
ĠJack ie
Ġalcohol ism
Ġpack ed
comm unication
ĠArist ophanes
Ġbackground s
Ġrob ots
ĠÄ Į
iat ric
Ġphon etic
ĠMill ennium
atab ases
Ġvot er
Ġabbre vi
Ġreprodu ce
Cal ifornia
Ġpush ing
haus en
ĠWol ver
Ġcontem pl
Ġcontrad ict
exp ensive
Ġdevast ating
ĠScandin avian
ĠGener ally
Ġprivile ges
ĠPract ice
Ġmerc ury
Ġecosystem s
ĠParad ise
ĠCec il
Rich ard
haz en
ĠToy ota
Ġsuscept ible
ĠPars ons
D en
F F
S lav
b etween
g rav
l ich
m oral
s chool
Î ³
Ġa ven
on ts
at an
at omic
Ġs id
al ent
Ġc her
ar ie
Ġan ger
Ġb ark
Ġb ilingual
ing en
ro b
Ġm aker
ĠA ang
ĠA ck
Ġh ometown
ĠS ue
ĠB il
ĠB oot
ĠB amb
ĠB ront
ĠM az
ig ens
Ġg ast
ĠH oll
ĠH els
ĠH ume
ĠW erner
ĠN inth
ac iÃ³n
Ġv eto
ain es
ab aster
ud ed
all a
Ġr ite
og ly
Ġk ins
Ġsh ores
Ġsh rine
ĠAl z
Ġsp iral
Ġform ulation
Ġev id
Âł Âł
Ġafter life
Ġreg ain
ram a
ĠDe e
Ġfl ies
Ġtra uma
ĠBrit ney
Ġap ocry
ĠSh u
Ġconst ants
ec raft
yn thetic
ĠMar ple
ĠOr bit
Ġland scapes
ĠAnd romeda
Ġbus h
Ġdevelopment al
ink er
sequ ent
Ġsepar ates
Äģ na
Ġchem ists
Ġlower ed
Ġsubject ive
Ġball ad
Ġlik elihood
ĠBen elux
Ġden y
Ġdisp atched
Ġadop ting
Ġfar mer
Ġmeaning ful
ĠWe i
ĠMac beth
Ġbank er
Ġdestroy ers
ĠInter active
ĠAnn ie
Ġpurch asing
Ġchief s
Ġir rit
Ġprogress ion
ĠGo i
Ġprem iers
Ġindu ction
Ġcatal ogue
Ġanarch ists
Ġfram es
Ġhapp iness
Ġperfect ly
ĠRab bi
Ġrect o
ĠBahÃ¡Ê¼ÃŃ s
oter ic
Ġprol ific
Ġcomfort able
Ġdin osaurs
ĠThir ty
acker ay
Ġreson ance
Ġhazard ous
Ġadhe rents
Ġhered itary
A rist
L i
M el
W eb
b ore
b red
c ur
e ven
l en
m ol
n ote
v ir
in ov
es ome
Ġp ension
Ġm es
Ġm ol
Ġd ots
ĠA Z
Ġh ook
Ġh urd
ent ric
ĠS ales
ĠS ait
ĠC ran
ĠC raw
ĠT R
Ġl od
Ġth umb
ĠM are
ut arch
ĠI EC
ĠP ly
em y
Ġst range
os ophical
ĠD aw
um ped
ĠG T
ĠL oth
ĠE ur
ĠW orth
ĠN otes
ac etime
oc es
oc les
oc occ
Ġr all
up p
gh ai
Ġle thal
Ġar che
cc an
ĠAr r
Ġag rarian
Ġj aw
Ġne gl
Ġapp aratus
Ġinf ring
cre asing
Ġrem arks
erman n
Ġinv alid
ex ecutive
ĠSh iv
ĠWar riors
Ġcar box
Ġmon o
ĠAm st
Ġair ing
ĠJohn s
ik ido
ĠAb s
lu enced
ruct ures
Ġwar rant
ius eppe
An imal
Ã¡ d
Ã¡ vez
ĠGu itar
Ch urch
umb ai
ĠNe vis
ĠMor row
Ġpress ing
Ġentire ty
Ġmother board
ĠAssoci ate
Ġdam aging
Ġsat ellites
ĠAut om
ĠMur phy
Ġamb ush
ĠPo etry
ĠSund ays
Ġcondition ing
ĠPre fecture
Ġrain forest
ĠNic olas
ĠDi ocese
Ġjur ist
Ġlingu ists
Car bon
Ġfrag ment
ĠField s
Ġmort ar
rust ed
Ġca ution
ĠDam ascus
ĠHy per
Ġhall s
rell a
ĠFa ire
ĠFa ust
Ġexceed ing
ĠPrim era
Ġammon ium
Bas ic
ĠTam il
ĠLis a
Ġswit ches
Î¿ ÏĤ
Ev ents
Organ izations
ĠJama ican
Ġforg otten
Ġembra ced
Ġcock pit
Ġhypothes es
Ret urn
Ġepid emic
ĠCreat ive
ĠUz bek
ĠHait i
Const ruction
ĠDalm atia
ĠThrac ian
Portug uese
Ġhect ares
ĠNTL M
B E
F O
F er
M D
M r
P u
W here
c ost
e a
e astern
g or
i w
i ator
v iol
w ash
Ġa ro
Ġa kin
in ence
on is
Ġo ceans
en b
Ġs au
Ġc ables
Ġf Ã¼r
Ġm ice
Ġm ask
Ġd uc
ĠC ul
Ġre ed
Ġl amb
im us
ir ie
ir ming
Ġg arn
Ġg ras
ĠP orter
Ġal mond
ĠD ew
ĠG ir
ĠL ara
ĠE uch
ac ons
ĠIn ternal
end orf
ast rous
cl er
ĠAr ct
aw ar
ĠEn s
Ġcons ul
Ġover head
ĠY as
ĠY us
ener gy
Ġinter fer
ident ified
Ġtra ctors
Ġfilm makers
ĠCan on
ful ness
ĠAb ram
ĠMar tha
Ġsl ots
rid es
Ġprogram mers
Ġprom ulg
Ġposs ibilities
Ġnational ity
ĠAss istant
On line
Ġport able
Ġcamp uses
ĠPart nership
Ġbre athing
Ġlight ning
Ġjoin ts
Ġsum s
cul a
ĠRes erv
Ġmodel ing
be cca
och rom
Ġcoll ision
Ġviol inist
Ġaltern atives
ĠFrank furt
oz a
ĠSte phan
ĠCa o
ĠMag hre
Ġthreat ening
Ġspect ators
Ġcompar isons
Ġsens ation
ih ar
Ġgraph ical
Ġprin ts
ĠPo ems
ĠSur rey
Ġsubst rate
Ġanthrop ologist
Ġlingu ist
Ġsup rem
Ġload s
Ġmic ros
ĠHan over
Ġpione ers
ĠLov ell
ĠAmb assador
Ġthick ness
Ġathlet ics
ĠId ent
Ġdiet ary
ĠWhit ney
ĠPent ec
Ġhang ing
ĠNort on
ĠMi G
ĠAustro asiatic
ĠRest oration
ĠCitiz ens
Ġexpert ise
Ġjum per
ĠNorm andy
Ġneighb ours
dist rict
ĠFranc isc
Ġpneum onia
ĠHear st
ĠConvers ely
ĠStef an
Ġpeas ants
Ġvass al
ĠClipper ton
Ġexperien cing
A IDS
C omb
I ran
J er
M E
b earing
h ist
k ers
n as
r ase
t ypically
w agen
at is
at io
Ġw itch
Ġp uls
Ġd ome
ĠA ve
ĠS ib
ĠS uez
ĠC AR
ĠT actical
Ġl amp
Ġl enses
ĠB ore
ĠM ud
ĠM ouse
Ġfor um
ĠH yp
ĠH ull
ĠH ole
Ġst ir
ĠR C
ĠR ij
os ophy
ĠD ag
ĠD uck
ĠF ay
ĠW ake
ag us
ri que
est ead
ian e
oc als
ĠO val
ie ve
Ġab alone
Ġab acus
ru ctor
Ġdis abilities
Ġro pe
Ġrec ession
Ġsp ans
ism atic
Ġafter ward
Ġpe culiar
Ġinf ants
Ġbl end
uc id
Ġsupp lements
Ġair borne
Ġworld s
Ġteam mate
Ġpar ity
Ġcor ridor
au f
ĠAnd ean
ĠAnd aman
Ġmark er
ĠPar amount
Ġrest ruct
ĠWest wood
ym e
Ġarch ives
ĠHer acles
Ġanal ogy
Ġlow lands
Ġep iscopal
Ġindivid ually
isc overed
Ġbar ter
Ġball oon
Ġrock y
Ġrank ings
ĠCongress ional
ĠÎ ¼
Ġdiss em
ĠDen is
Ġwood s
Ġcoin age
Ġsac rament
Ġassum es
ĠCarol ine
Ġcalcul ating
ĠTri ple
ĠBir ka
Ġcru c
Ġmut ation
Ġgreen house
Ġcurren cies
anth an
Ġsle eping
ĠLyn n
ĠLyn don
Ġtact ic
Ġber kelium
Ġimag inary
rac use
ocol ate
Ġcontest ants
ĠHindu ism
Fran co
Ġsuperior ity
Ġclean ing
Ġnoble man
des ign
ĠTheod osius
Ġportra ys
ĠHonor ary
ĠLanc ashire
ĠSI G
Ġrout inely
Ġdict atorship
ĠAer ospace
Ġdefic its
ĠBorn holm
atern ity
Conf uc
Ġscen ario
ĠCarbon iferous
Ġsurp rised
ocl ass
Ġá ¼
Ġpropri etary
Ġilleg itimate
ĠShep ard
Ġdegrad ation
ĠSL RV
Ġcommut ative
Colomb ia
B ell
F ood
G reen
L D
M em
S o
a qu
b ably
i ates
m ere
p al
r er
r era
w affe
Ù Ĳ
á º
Ġ riot
in ae
er un
is en
it ches
it aine
Ġin organic
Ġf ederation
ic ist
Ġd ictionary
ĠS it
ĠC s
ĠC ic
ĠC ool
ĠC aves
ĠT ucker
el m
Ġl am
Ġn urse
Ġth rows
ad ar
ĠM otion
ĠM anning
ĠP ere
ĠH ier
her ty
ĠN u
ac ial
Ġpro claim
ĠJ oker
og g
ĠK w
ĠK af
gh ans
ĠCh o
ect es
Ġen vision
Ġev angelical
Ġcons ume
ĠY az
ĠSe le
oy a
ĠRe ver
erm ost
Ġmet opes
Ġdec iding
Ġcontin ents
ĠMar co
for ward
Ġref uses
An y
An ton
Ġann ih
ĠAnd roid
Ġprom otional
ĠAugust e
vision al
Ġrepl ication
ĠX L
less ly
arian t
ĠHar bour
Ġvol atile
Ġaddition ally
uk u
Ġmem ories
Ġdisp ro
ĠRec ording
omm i
ĠPat ric
Ġparticip ant
Ġconcent rate
Ġcard iovascular
Ġsports people
pro v
Ġbreak through
ĠCyp riots
ĠBrown ian
ĠUnder ground
Ġprogress ed
ĠPre viously
Ġinterview ed
iy e
ĠOut line
ĠWood s
ĠRod rig
Ġarchae ologist
Ġalt itudes
ĠAz ad
Ġregist ers
Ġfirm ly
Ġyield ed
Ġfear s
Ġworship ped
Ġtim ing
Ġcompl iance
Ġderiv ation
Ġanch ors
Ġnom adic
Ġgall eries
ĠLat via
ĠDark ness
Ġtur ret
Ġterror ism
sch ild
ĠBeat les
vol ume
ĠPel op
Ġhier arch
Ġmanip ulation
Ġactin ides
Ġkidn apping
ilder ness
Ġmeth yl
ĠConc ord
Ġjum ps
Crit ical
ĠOcc up
Ġposit ively
Ġble eding
Ġcongress ional
Ġiter ation
ĠSah ara
ĠCour ts
ĠLoren zo
ĠGem ini
ĠRou ge
Ġincons istent
Ġlegitim acy
Ġinver te
ĠPrest on
occup ied
Soft ware
Ġabstra ction
ĠKarp ov
A th
A qu
C zech
D el
F oot
G iven
O b
R ugby
U SA
b irds
k t
u ine
v ich
Ġa ce
Ġo lig
ĠA ires
ĠS ou
ĠC W
ĠB ark
ĠM ob
Ġfor ts
ĠH ew
th ren
ĠR andy
ĠR utherford
Ġcon clude
ĠD iplom
ĠF o
ĠF an
ĠG ross
ĠG amb
ĠW ess
ĠW ein
ĠN ou
ac et
qu o
Ġun in
Ġun av
Ġch ances
Ġcomp are
ear ly
der ived
Ġint ake
are a
Ġcl ad
Ġsp aw
Ġout lined
ĠRe bellion
Ġfl ux
Ġtra vers
ĠBrit ons
Ġob li
ĠSp ani
Ġexp ulsion
Ġcap ac
ĠMar itime
Ġmat ched
ull us
Ġref using
ĠBe ano
ĠMay a
Ġnon etheless
ĠAugust a
Ġhistor ies
Ġbelie vers
ĠGu inness
Ġprev ailing
Ġtop ological
Ġpot atoes
Ġpur ported
ĠMe cca
Ġviol ated
ĠSim p
Ġphot ograph
orph ism
ĠSecond ary
pro file
ĠDou bleday
Ġprogress ively
acc ur
Ġaim ing
Ġreact or
ĠFort ress
Ġexclus ion
Ġauthors hip
Ġfair y
LA N
ĠTre vor
Ġconduct ivity
Ġpreced ent
vi ks
Ġsulf ate
ĠRoll s
produ cing
hard t
Ġemig ration
Sw iss
ĠAndre as
Ġsimultane ous
Ass ociation
Ġaccum ulated
fact s
Ġportra its
ĠCer tain
Count ry
ĠSid ney
ĠAx is
Ġpir ates
ĠSN K
Ġvit amin
ĠDrag ons
ĠFellows hip
ĠJenn ifer
Ġcass ette
Ġnas al
Ġmercen aries
Ġrehabilit ation
dehyd e
ĠGuatem ala
ĠCorb ett
B rown
D B
N AS
Y oung
c u
r ina
Ġa z
in ational
er i
Ġo st
is se
Ġc rane
ar id
Ġb anner
Ġp ipes
le ague
ĠS oci
ĠC rom
ĠC ister
Ġre join
ĠB rain
am ar
Ġe ars
Ġn ucl
ch in
ĠM oss
ĠP sal
ul se
ul ae
ĠH Ã¶
th us
ĠD iana
ĠF em
ĠG ian
ĠL ar
ĠE VA
Ġcom eb
ab s
Ġr amp
Ġun iqu
ĠK ate
ĠK rish
ell ant
ĠCh Ã¡vez
ran n
ĠV ent
ĠV inc
Ġad renal
ph s
Ġab rupt
und ers
ne apolis
Ġsp arked
Ġout s
Ġsub continent
Ġunder way
Ġunder gone
Ġdef orm
Ġtrans itional
Ġco oked
Ġloc ality
ll a
ĠIs mail
ĠSh ore
ĠAm ati
ĠAf yon
omet hing
por us
inc ing
let ic
Ġeconom ists
line ar
Ġcer amics
Ġevery where
Ġcond itional
Ġer otic
isc ount
ĠPres idency
Ġdeb ates
Ġcal ifornium
app rop
ĠMc Donald
ĠEm ma
ĠApp lied
Ġmid night
Ġfig ur
Ġarm ament
ĠQu int
uns et
ĠMil k
Ġscript ure
uls ive
Ġsexual ity
Ġlands l
abet es
Ġnegot iate
Ġce iling
ĠInst rument
ĠDer leth
Ġmist ake
osph ate
ĠBod min
ĠSus sex
Ġstorm s
Ġplaywright s
Ġfacilit ated
Hon orable
Par is
Te chn
Ġrect angular
Ġsymp ath
Ġbrom ide
Ġdeleg ation
Ġamphib ious
Play ers
ogram s
ĠAlbum s
Ġtransmit ter
ĠInvest ment
Ġconfirm ation
mill an
Ġhtt p
Ġvest ib
ĠThorn ton
ĠLoyal ists
ĠCaliph ate
ĠVenet ian
Ġspont aneous
Ġgluc ose
Mat hem
Ġiod ine
Ġexchang es
ĠCasp ian
ĠFergus on
B AS
D O
E qu
F R
G OL
K Ã¶
L ate
L ead
N a
P ersonnel
g em
p ra
p rom
Ï ī
Ġt rop
Ġa pe
an ian
Ġs ins
Ġc ros
Ġin ex
Ġin mates
Ġin effective
Ġb out
Ġf ut
Ġf res
Ġf rig
Ġf riction
Ġp ose
Ġp ipe
ro kes
Ġd ental
st ore
ĠS U
ĠC um
Ġre int
ĠB om
ĠM its
ĠM umbai
ig uous
ĠI ommi
ĠH ep
Ġst icks
ĠR S
ĠR ite
ĠD atabase
ĠF ant
ĠF iji
ĠL ives
ĠN one
ĠK hor
Ġpl ots
ast es
ĠCh oice
ĠSt rab
ĠSt irling
per ature
ĠTh anks
ren ia
Ġper t
Ġdis ag
Ġdis liked
Ġpre jud
olog ic
Ġrec ount
Ġrec apt
Ġsp inal
Ġunder neath
ĠCom oros
Ġob ey
ĠCan cer
ĠAd al
ruct ural
ries thood
Ex p
lect ric
ott i
Ã¡ b
ĠMan ila
Ġactiv ism
ps y
work ing
Ġer upt
Ġcame o
St arting
Ġlist ening
Ġke en
ari i
ĠMon astery
Ġpriv acy
ĠKh melnytsky
Ġden ounced
ĠSer ra
ores is
Ġtre asury
Ġwest ward
Ġopt ed
Ġopt ics
Ġang ry
ĠFre ud
Am azing
ĠSmith sonian
Ġenter tain
ĠAnn ales
ĠAut onomous
ĠBor land
Ġcounter point
ĊĠĊ Ġ
ĠCarol ing
Ġprem ature
ĠJes uit
Ġharm onic
ĠOs wald
car bons
Ġmut ations
ĠAnglican ism
fin ite
Ġarc hers
bi ology
Ãº s
Ġrestrict ion
ĠBrad ford
ĠYan kee
ĠLov ecraft
Ġrecip roc
ĠHead quarters
Ġpul se
Ġtall est
ĠLat ino
ĠHard y
ĠVik ings
Orig inally
Ġelimin ating
Ġapprec iation
Ġinterf ere
Ġcens orship
conn ected
Ġlisten ers
Lab our
Ġdisin teg
orent ina
Ġinadequ ate
ĠSchum acher
ĠVesp ucci
B rian
L ine
T erm
c ultural
p he
t an
v ald
Ġa fore
an ing
al ous
it ives
Ġin con
Ġf used
Ġm ast
Ġm asc
le igh
le vard
Ġd orm
Ġh iding
Ġh obby
ĠS AD
ĠC it
ĠC ounter
ĠC ernan
Ġre velation
ol us
ĠB anks
ur gency
ig hed
Ġbe aver
ra ble
Ġst amp
ĠR CA
ĠF ast
ĠF AP
ĠF DA
ĠG iuseppe
ag ain
ag asc
av enny
Ġun necessary
Ġpl um
mer ged
rit es
iz ational
ks h
Ġdis astrous
Ġro lled
ĠHe at
Ġag ing
Ġout lets
Ġmod ify
Ġrem inis
Ġinv ading
Ġgener ates
Ġbu ck
Ġret ros
ĠBl acks
til ity
Ġdiffer ed
lu x
Ġhum orous
ĠWh ig
Ġrun ways
Ġmar riages
Ġfore most
Ġpract icing
Ġjust ify
sp aper
Ġsol vent
Ġmethod ology
writ e
mon ary
ĠDiv is
Ġpri zes
ĠMc Car
Ġphilos oph
Ġchem ically
ma el
Ġver n
ĠSan ct
Ġsuper v
Ġcentral ized
ĠApp alach
ĠBas ques
Ġdi ary
Ġmem oirs
ĠKh al
ĠBu enos
medi ately
Ġhom age
Ġceleb rating
Ġdyn am
Ġâ Ī
aren ce
ĠInter state
ĠAC E
ĠDel phi
owl s
ĠDr um
Ġsyn onymous
Ġsac ram
ograp hed
Ġcollect ors
Ġdark ness
ĠByzant ium
Ġdiplom acy
ĠGal ax
ĠSat an
Ġsnow fall
ĠEle ctoral
ĠGar ner
ĠWeb ster
ĠAssy rians
Ġstream ing
Ġapart ments
Ġinhib itor
Ġconfig urations
Ġsoul s
Ġtermin als
Ġupd ate
ĠCry pt
ĠBarn abas
ĠIsa iah
ĠWolf gang
ĠBomb ard
Ġpropag ation
Ġvacc ines
ĠKu wait
Ġheir s
ĠPil ot
ĠAF B
ĠIceland ic
ĠBuch arest
Ġinterf aces
unning ham
child ren
Ġtrump et
Ġenl isted
Croat ia
Ġphylogen etic
ĠEmir ates
Ġump ire
Ġsummon ed
Defin ition
Ġstap le
Ġlogar ithm
Pac ific
ĠAlz heimer
Ġevid enced
Foot notes
A V
B ank
D ire
G as
H T
H y
S ix
T ex
U C
b ear
b rand
f al
j am
m ile
s in
v ous
x es
Î ·
× Ļ
on ation
Ġs oprano
or row
al bum
Ġw ilderness
Ġan em
ic ious
Ġp ens
Ġh inder
Ġh ymns
ĠT up
Ġl ac
Ġl ined
ĠB enny
ly s
ĠM ek
im ates
ut ely
Ġg y
Ġg rab
ĠI EEE
Ġbe ers
ĠH ann
ĠH MS
ĠR oland
ĠD w
ĠD ru
ĠF alk
ĠL ah
ĠE k
op ol
ĠW itt
ĠN ass
ĠN avig
av ids
ĠJ ensen
Ġex changed
se ven
ĠK orn
ary a
end i
ord ial
ran king
ĠAn al
act or
ĠHe enan
ced ed
Ġdes ktop
ĠDe velop
Ġqu it
Ġbl ade
ĠBrit tonic
Ġend uring
ann ers
uch i
ĠZ ero
Ġcar cin
Ġimp aired
ĠBl an
Ġcre st
enn es
omet ti
ym metric
tic o
Ġshort age
ĠAg nes
Ġfore ver
ĠCount ries
ĠComp anies
Ġneed les
ĠHar ri
Ġarg on
ĠSoc cer
Ġmot iv
Ġcirc ulated
Ġfac ial
ĠPal m
Ġsch iz
ĠMal aya
Ġfell ows
pro t
ĠMil ne
oo ids
bro ok
Ġprin ces
ĠTele phone
ĠCop a
ortun ately
Comp osition
ĠHaw k
Ġauth ored
Ġhab its
Ġmotor way
roll er
ĠGre ene
Col lege
ellect ual
ĠJon ah
Leg al
ĠMand el
ĠBahÃ¡Ê¼ u
ĠLog ic
Ġloan words
ÅĤ aw
Ġampl itude
Ġdens ely
Ġearn ings
ĠOpp osition
Ġexhaust ed
Ġperf ection
ĠSoph ia
Ġhorm ones
Ġglut amate
prop elled
ĠGarc ÃŃa
Pers ian
ĠKand ahar
Ġcomeb ack
Ġafore mentioned
B ron
D ig
S erv
T w
W in
c s
l ace
l ayer
m ons
n u
n orth
p ublished
v ity
v ik
Â ·
Ġt on
Ġt ones
he e
in to
Ġthe ft
Ġo ught
an ed
at as
Ġc ure
Ġan k
Ġb iodiversity
Ġf ountain
Ġp ars
Ġm ound
Ġm yself
Ġd ors
Ġd rift
ĠS ali
ĠC os
ĠC yn
ĠT at
ĠT ut
Ġl ub
ur bed
us p
ĠM ode
ĠI B
ĠP all
ĠP ied
ĠP oin
ĠP red
ĠH ague
ĠR eligious
ĠG erm
ĠN atal
Ġv ener
qu i
all ic
ore an
ip zig
ĠK i
Ġus ur
The ir
ĠCh adian
ĠSt range
Ġar chery
ect ing
Ġcont raction
pl ant
ĠTh ous
ĠTh ought
port ion
ric orn
ok u
Ġrec all
Ġsp ark
urn al
ĠRe y
Ġsub mission
arg er
att ack
Ġbl og
ĠSc ene
Ġsm oking
ec ombe
Ġcould n
oint ment
Ġsl ide
Ġmat urity
Ġcommun ism
Ġequ als
inc ome
che z
Ġprop oses
Al c
Al ong
Ġla ugh
Ġorigin ate
ĠComp etition
arian ism
ĠSch ne
Ġfinal e
ĠBra ve
Ġreal ms
Ġattack er
play ed
ĠMon roe
ĠEm manuel
Ġrecogn izes
berg avenny
Ġmultip lic
Ġdisp osal
Ġaccording ly
Ġste aling
Ġtre ason
Ġpast oral
ĠBur undi
Ġang el
ĠCont est
ĠSal am
pro of
Ġpsych ologist
ĠBos porus
Ġspect rom
Ġded ication
Ġrat ios
umin ium
ĠMin neapolis
ĠSub sequently
ĠBet a
ĠTre k
Ġresemb ling
ĠFried man
Ġalumin um
Ġwars hips
Ġmerch and
ĠEll en
Ġwa ist
Ġpig ment
ĠSav oy
Ġinvent ory
Ġverte x
ĠLaure nt
Ġoblig ations
ĠPent agon
spec ified
Ġlib el
Cap ital
Ġpap al
Ġtum or
ĠBert rand
Ġpill ars
Add itionally
Ġunw illing
indust rial
ĠNep al
ĠSwan sea
Ġsymph ony
ĠTrin idad
ĠLear ning
Ġrhet oric
Ġsemicon ductor
Ġacry lic
Batt les
ĠWitness es
ĠPly mouth
Ġvern acular
G ames
S L
b il
c irc
d eterm
l oss
o astron
u ably
z ar
Ï Ģ
Ġ }
Ġ uter
an an
Ġc ath
Ġc oh
ion ics
le w
Ġd ich
ĠS andy
ĠS isters
Ġre iss
Ġre lying
ur rence
Ġfor c
Ġas cribed
Ġst ays
ĠF ischer
Ġwh is
ĠW on
ĠW ang
Ġv ine
Ġv inyl
Ġse ab
ĠO le
ip ed
ast on
Ġcomp elled
ĠSt on
ĠSt ore
ĠV iscount
ib ald
are z
hen e
ĠTh ames
ens itive
Ġsc out
Ġsp o
ug ging
ĠRe becca
ys c
ĠDe uter
Ġinter ventions
Ġco ordinated
Ġfe els
ĠSh arma
Ġgroup ing
ĠPro gress
Ġterm inated
Ġequ ity
Ġclass ify
ĠPl anning
ĠAnd hra
Ġcharacter ization
idd ecombe
ĠHer cules
ĠSw ab
Ġiss uing
Ġhel met
ogn ition
Ġep och
Th us
isc hen
ĠCor por
bo ats
Ġrecogn ise
Ġlaun ches
Ġexpress es
Ġz ebrafish
Ġsuper st
Ġbar oque
Ġindic ators
ocr at
ĠGro ve
Ġtre asure
Ġdomin ation
amer ican
ili ated
atch ing
ĠMac millan
Ġjournal ism
Ġquant itative
Ã§ o
Is raeli
ĠJul es
Ġbal let
Ġsplit ting
Ġindu ct
ĠEst ate
gu ard
Ġminim ize
ĠDev on
ĠTerrit orial
ĠVis ig
ĠAnat olian
Ġunus ually
ĠAdminist rative
Ġasc ending
Ġod ds
ĠMand arin
ĠAdvent ist
Ġmorph ological
ĠLet o
ĠArchae ology
Ġcommemor ated
Ġhyd raul
'' '
ĠBohem ian
ĠJam ie
Sm all
ĠPoly techn
wart z
Ġdecomp osition
dig it
Ġthorough ly
ĠHil bert
ĠTibet an
Ġaug mented
Ġepist em
ĠEucl idean
Ġharass ment
Ġaspart ame
Ġcouncill ors
Ġkern el
ĠHokkaid o
ĠDoct rine
C am
C osta
D ata
E G
F ort
H ay
M unicip
T R
a unch
b ad
e o
e val
k on
l io
l ift
m ante
n ard
v olution
w rote
x i
Ð ´
an ne
Ġs ack
is i
it ud
Ġc inem
Ġb ab
Ġb idding
Ġf ission
Ġf ooth
Ġp ork
st roke
st ellar
il on
il aus
ĠS plit
Ġe ager
ĠM om
ĠM ell
ĠM ennon
Ġas ylum
ĠP ure
ra it
Ġal monds
os ynthesis
ĠD OS
ĠG A
ĠG ymn
ĠN ur
ĠN ames
Ġat op
Ġhe d
Ġex amine
Ġse ated
ĠIn ner
all o
ant es
Ġun named
ak y
ĠCh ambers
ass es
Ġwor ried
ely n
ron y
we iser
ĠSe xual
Ġpe ers
cre ation
ĠDe ck
Ġco ached
Ġserv ers
hem e
Ã© es
ĠAm aranth
Ġconst ructions
Ġsim ulation
ik ova
Ġvis ibility
ĠAg atha
Ġadm it
Ġmag ist
ĠPol es
ĠEx c
Ġgen uine
Ġtake off
Ġspecial ised
wh at
Ġbroad band
Ġmot ivation
ĠMon ster
ĠPer forming
ĠRes istance
Ġaver ages
Ġindic ator
Ġtext ual
Ġhydro electric
Ġpers isted
ĠBook er
Ġpersonal ities
ĠFore ver
Ä± r
Ġdivision al
ĠHam mer
ĠTor iyama
ĠPet erson
ĠArmen ians
ĠTurk men
ĠLu igi
Ġcontrast ed
Ġsac rific
Ġexperiment ed
Ġdead ly
Ġemphas izes
Ġdistingu ishing
EC D
Ġcat cher
Ind o
ocal y
Ġanthrop ic
Ġpoll en
Ġmyth ological
Ġproport ions
Ġcycl ic
gest ion
ĠBa iley
Ġdiscip le
Ġcogn ition
roph ic
Ġprohib ition
Ġaspir ated
Ġspot ted
umen ical
Ġtas ked
Ġnest ing
Ñģ Ðº
ĠPrincip ality
ĠConc ern
intend ent
Ġrelie ve
Ġcerv ix
Ġpilgrim age
Ġpolym ers
ĠCod ex
ĠVirt ual
Ġinvas ions
ĠElli ott
Ġaort a
Ġbombard ment
ĠGaud ÃŃ
ĠAngu illa
ĠVat ican
Ġcorros ion
ĠHast ings
ĠPose idon
Ġabbrevi ations
A j
B rand
C ave
H or
M icro
N ob
P M
V ill
W ashington
b ourn
c ience
c ope
h ole
i oph
n ar
u aries
Ġ Ø§ÙĦ
Ġs ocket
es que
al ore
it ous
it ano
Ġc ob
Ġw ield
Ġan agram
Ġf ool
Ġf ielder
ic um
Ġto ugh
ĠC ott
ĠT ort
ĠT ampa
el ves
Ġl anthan
ĠB ram
ĠB oss
ad ius
ĠM SA
ĠM VP
ers hire
ist ocene
ĠH P
ĠH uss
Ġst amps
ĠR Ã©
ĠD ry
ĠD aim
ĠG olf
ĠL ip
ri ates
ĠN GC
Ġat axia
ab r
ĠJ et
ĠJ ourney
Ġhe ights
ĠK lan
Ġch alk
ov ah
ell ular
Ġle ase
pl anes
ĠUn ity
Ġsp ray
Ġout line
ild a
rad a
Ġinter rupted
Ġbl ast
Ġexp enses
Ġrep ly
eg al
ĠBl oc
ĠAm Ã©
Ġsm ug
Ġestabl ishes
Ġprogram med
Ġorgan ist
Ex ample
vers ion
Ġlit igation
Ġlit urgy
Ġbas ket
Ġprop ulsion
Ġjust ification
ink el
BC E
sh ort
osp els
ĠBra ille
eth yst
Ġsw ift
Ġcirc a
ĠMon mouth
ĠPer th
ĠPer cy
ĠSy racuse
Ġcapt ivity
anc a
Ġhydro carbons
Ġsil ence
Ġphot ographic
Ġfa Ã§
Ġvari ability
Ä± k
Pro per
ĠTown ship
Ġdemonst rating
ĠMad agasc
ĠBrown s
New spapers
nia k
Ġalk aline
Ġburn s
ĠAst oria
ĠByzant ines
Ġtrain er
Ġhun ted
ĠBapt ism
ĠMic he
Ġadvance ment
Ġglass es
ĠGh az
Med ical
Ġexam ining
|| âĪĴ
Ġabort ions
ĠSand ers
Ġovers aw
Ġdiscover ing
ĠDirector ate
Ġconsult ing
Ġdiff usion
ĠSyn d
yah u
Orig in
Spe c
ĠInit iative
Ġneur on
ĠSac rament
Ber lin
Ġthor ium
ĠBlood y
Rel ated
Ġcloud s
ĠSin clair
Ġorchest ral
Ġtens or
pent er
ĠCole man
Ġhex agonal
ĠBras ilia
Ġadvis ory
ĠHawai ian
Ġkit chen
hydro gen
Ġanth ology
Ġartic ulated
ĠJerem y
Ġbowl s
fig uration
Ġtouchdown s
Ġunre li
Trad itional
Ġelector ate
Ġecl ip
Ġdign ity
Ġpod cast
Ġselen ium
Ġguerr illa
ĠRaf ael
Ġbry ozo
Ġiv ory
discip linary
ĠCompan ion
ĠSimp son
H eb
P I
V is
d f
n orm
n ovelette
p hen
r ater
r atives
v re
Ä ĳ
in st
or an
or ie
or io
Ġin coming
Ġb ills
Ġm isc
Ġm osa
Ġd ia
Ġh alt
ĠC un
ĠT eh
ĠB old
ĠH imal
ĠH idden
Ġal abaster
ĠR he
Ġcon ferred
ĠF ly
ĠG es
ĠE y
ĠW inc
ĠN ah
ĠN FC
res cent
ĠJ unction
ort ic
ĠO bl
ore g
ew ater
ew ays
og ical
ĠK J
ov Ã¡
ĠCh arg
ĠCh almers
ff er
ence phal
pl ays
ĠAl leg
act ory
te ger
ĠAr row
ĠHe inem
Ġsc arc
Ġj am
iet al
orth y
Ġchar itable
ĠAd el
eng ers
Ġmin ers
ĠPar agu
Ġstat utes
Ġcolle ctor
Ġcolle giate
empt y
alf our
Ġbre ach
Ġer up
Ġgen ius
udd y
Ġshould ers
ĠAng us
ĠNe ed
app a
bor o
ĠÃ ĺ
Ġdi abetes
Ġfund ra
ĠRev olt
anc ies
omm e
Ġpen cil
rig er
me z
Ġbur den
pro gram
ĠMag dal
Is fah
Ġblock ing
Bl ood
Ġbr illiant
Ġincorpor ation
Ġmicro organ
ĠBol ivian
Mus lim
Ġund ers
AF TA
Ġmel odic
Ġhypot hetical
ĠCam den
Ġcool er
Ġmilit ias
Ġign or
idel berg
Ġped estrian
Ġbes ide
Air ports
ĠCrit ical
Ġverte bra
Ġcompens ate
Ġdoctor ate
ĠSac red
ĠCow boys
ĠVenezuel an
Ġnotice able
Ġdeliber ate
iem ann
Ġorchest ras
Ġdisagre ed
ĠBrab ant
Ġexpon ential
Ġtar iffs
Ġbord ering
Ġagar ose
zek iel
Ġcrystall ine
Kar abakh
Ox ford
ĠBritann ica
Ġpostp oned
Ġexagger ated
ĠPriv y
Environment al
Ġrans om
ĠProper ty
ĠVeh icle
ĠNicar agua
ĠLuft waffe
ĠWolver hampton
ĠHels inki
ĠCaroling ian
ĠFAP LA
Ġreminis cent
Ġlub ric
) ",
C at
G ener
N G
O cc
P an
R ay
R od
c oll
g ir
g ae
g ross
k il
k irk
l isted
u ously
Ġt ender
in it
in ium
in ology
re ts
Ġc ube
Ġin expensive
Ġb ob
Ġf oster
Ġm ath
Ġd Ã©
Ġd atabases
st ud
ĠC unningham
ĠT ran
ĠT arg
ĠT rent
Ġl av
ĠB ish
ĠB out
un ting
ir us
Ġg ospel
ĠP ain
Ġst ain
ĠR ie
ĠF ear
est ag
ĠN C
ĠN iz
ac ies
Ġat e
Ġv iz
ĠJ esse
ore tic
ĠSt ream
ĠSt oker
pl aced
Ġall iances
te am
Ġsc orer
Ġev apor
Ġrel ics
Ġatt en
Ġinf l
Ġcol oured
Ġtrans itions
Ġdist ress
ement ia
Ġwell s
Ġrep rinted
ĠCol ts
Ġcar riage
ĠPro visional
Re al
ĠMar ian
Ġsl ogan
Ġtr unc
Ġref use
Ġcor p
Ġcor rel
ott om
Ġcrit ique
ĠShe ll
Ġtit ular
ĠX IV
Ġprot ector
Ġsol v
Ġreal ize
As ia
Ġhost ages
Ġtw ins
Ġtransl iter
ĠAnt hem
Ġinstit utes
ĠBur mese
Ġsouthern most
ĠBul let
ĠIr vine
ĠZe it
Ġclear ing
Ġlab elled
Ġlo ops
acter ial
Ġplant ation
pro cess
Ġcou rage
ĠTra cy
Ġprec ious
ĠCop yright
Ġautom otive
Ġbenef ited
ĠTim my
Ġillust ration
Ġillust rate
ocal yp
Ġelev ations
ĠGer ard
Ġcool ed
Ġanaly ze
Ġmilit ant
Ġmor ale
Ġsulf ide
Ġoverl apping
Ġbow ling
ĠGoth s
Ġsynd icated
Ġadvoc acy
Ġshif ting
ĠGib bs
ĠAndre i
ĠTan z
Ġtempor al
ĠTol edo
Ġparad igm
ĠBÃ© la
Ġmonument al
Ġrecover ing
Ġdefic iency
ĠXX X
ĠLeban ese
Ġsubmar ines
Ġsel dom
ĠRic ardo
Ġexpon ent
Ġbats man
Ġlocomot ive
ĠAnabapt ist
ĠTig ers
Bul garia
Eng land
ĠDeuts che
ĠIss ue
Ġfluct uations
Ġexpend iture
ĠAleks and
Angl ican
Ġpac if
ĠArct urus
ĠMaghre b
A w
C er
C yp
H el
L O
L es
R OM
S ol
S ystem
b eh
e ve
g ren
h m
h art
p ox
Ï ħ
er ia
es ity
it ious
Ġc ites
Ġin accur
Ġf rozen
Ġm m
Ġd ice
ĠA ven
Ġh iring
st rÃ¶
ĠB ene
am on
ĠM C
ĠM atch
un ion
ot ation
ĠThe ore
th ol
Ġal ert
ĠL ot
ĠL ink
ĠW HO
ĠN ut
ac erb
Ġse af
ess a
ĠU pp
ĠU mar
ĠK ind
cl ub
ran ging
ign y
Ġad here
ĠAl nus
Ġres ides
Ġbut tons
erv ille
ced es
ne ction
Ġreg ret
ug ged
Ġam al
Ġra pt
li us
ern sey
Ġpres ided
Ġinv ade
Ġsupp ression
Ġob jections
Ġrep ublics
ĠAm os
ĠMar cell
iod orus
ĠPh ry
for cing
Ġfin anced
Ġref raction
Ġpar ab
ĠUS S
Ġwater ways
ĠWill is
ĠEd ge
Ġimportant ly
ffic iency
ourn ikova
Ġbody building
ret urn
Ġdev otion
Ġpain ts
Ġtake over
Ġlight weight
Ġsocial ism
ĠColle ges
val ue
Ã¶ l
Ã¶ n
Äģ d
ĠPe el
ĠQu art
pir acy
Ġfoc al
Ġdistrib utions
ĠWe ber
Ġur ine
Ġord ination
Ġsat ire
Am endment
Ġplant ations
Ġfa ult
ĠTV RI
SA T
ĠSant o
Ġinn oc
Ã¤ l
Ġexc it
ĠCur t
Ġalcoh ols
Ġalk yl
Ġsculpt ors
ID E
Ġlic enses
Ġdebut s
Ġvirt ues
Ġmyth ical
Ġcircum cision
ĠAz te
ĠAT M
non ectes
Ġselect ing
Ġsatisf ies
ĠCas a
ĠRet rieved
Ġtim eline
Us ing
ĠIndust ries
Ġdrop s
Ġeval uated
Ġocean ic
Ġbat ted
Ġnut rition
Writ ing
Ġere ct
ĠHind us
Ġphosph orus
ĠNag orno
ĠMotor ola
Ġintent ional
quer que
Ġquad rup
Dist rict
ĠBour bon
Ġcoron ation
Ġadvertis ement
Rail way
Ġment or
Ġcontam inated
Ġadhes ive
ĠKom n
ĠMust afa
main ly
Ġpenn ant
Ġdepr ived
Ġmoist ure
ithe cus
ĠShan ghai
Ġsib ling
ĠStri ke
Ġinsign ia
Ġaltru ism
Ġembass y
ĠFi orentina
ĠGaut ama
arbon ate
ocor relation
Ġhemisp here
ĠBaloch istan
ĠStrab o
ĠMcCar thy
Isfah ani
( )
B an
H E
J ack
S y
T I
U k
a Ã§
b ecause
d ate
d Ã©
f olio
g uez
g rowing
m b
n esty
t elling
u en
v ideo
Ġ ub
Ġt ricks
er en
Ġo urs
en ne
Ġs ands
ed ar
or ide
or neys
Ġw reck
Ġf ake
Ġd ess
ĠA i
ĠA val
ĠB le
ĠB ihar
Ġn iche
Ġ( #
ut able
ĠThe ron
ĠH our
ĠH ond
ĠH ours
Ġst agn
ĠF rag
ĠG ore
ĠL Ã©
ĠL odge
ĠW oz
ac cept
Ġv om
Ġse aw
ĠO re
art ed
ĠIn ver
ant om
ear chers
ie ft
Ġcl iffs
ang les
ĠAl gar
ke f
Ġro y
Ġcent red
Ġele venth
Ġout right
Ġpe asant
Ġam aranth
Ġsub way
Ġinter medi
Ġfl ute
arch ive
ject s
Ġloc ks
Ġem ail
az ep
Ġchar iot
Ġimp lying
ĠAf ghans
Ġmed all
ĠWorld s
ĠCl arence
Ġland ings
Ġfin ishes
que z
Ġval ence
Ġrece ivers
Ġdr illing
Ġplace bo
Ġprop ose
ĠNov el
ĠCal v
ĠItal ians
Ġvis ually
Ġkill ings
Ġpat rons
Ġbi ke
ĠHer a
ĠHer at
Ġintrodu ces
Ġbeh ave
ĠSch wartz
ert ation
Ġhost ilities
Ġtw elfth
Ġge ographically
Ġcommand ing
mar ried
amer al
orph ous
ĠSun ni
ĠGra yson
ĠTra vis
Ġdemonst rates
iller a
Ġbra ce
ĠMid west
equ ivalent
ĠMir ror
ĠCre ation
ĠAlb oin
ĠKel ley
ĠPlan ck
ĠLim nonectes
Ġnumer ic
Ġmist ress
Ġexpect ation
Ġrom ance
Ġexplo its
ĠSlav s
Ġdiagn ostic
Ġster oids
ĠStaff ord
ĠLat vian
Ġprompt ing
ĠFri end
ĠBund estag
Te am
Ġrecru its
Ã¶r n
cha ft
Ġcere bral
Ġflav or
ĠEli jah
Ġrum ors
Ġdens ities
Ġaccus ative
Ġmeth ane
ĠElectron ics
dr iven
Ġadvis or
Pol ish
government al
Ġevac uated
Ġcooper ative
ĠMoham med
ĠTerm inal
ĊĠĠĠĠĠĠĠĠĠĠ Ġ
Ġom n
Ġcerv ical
Short ly
Ġkin etic
Ġurg ing
ĠMartÃŃ nez
ĠAnaly tical
ĠNavar re
oult ry
ĠSait oti
ĠMadagasc ar
D M
L ive
b order
c ium
g ames
o op
p ublic
p ossibly
v il
â Ī
in ctions
er xes
on ius
Ġo ust
an za
Ġs oy
is al
is otrop
it le
Ġb ibliography
Ġf ric
Ġp aren
Ġm ined
ĠA im
ĠS ens
ĠC otton
Ġl uc
ĠB ai
ĠB rem
ĠB anda
et ric
id ity
im ov
ut ral
Ġbe ad
ĠP itt
ra ch
Ġst raw
ĠR are
ĠR ole
ĠD Ã¼
ĠD oyle
ĠD epending
ĠF av
ĠF arn
ĠL ed
ĠW er
ag ong
ĠN g
Ġpro clamation
Ġv ested
Ġse als
ĠO ra
ĠO rest
ĠK ern
Ġch a
ĠCh aos
ĠSt ras
iz ia
ĠV es
ĠV augh
ĠAl k
ĠAl v
ĠAl brecht
ĠTh ackeray
Ġman kind
ĠAr bit
Ġcomm uter
Ġj erseys
Ġev olve
rib uted
orn s
ail le
Ġup held
ific ent
li est
Ġinf inity
Ġqu ote
Ġfl aw
Ġtrans cend
cess ions
ĠSp arrow
Ġsur geon
ĠBl a
Ġdep ended
enn ia
Ġ- -
Ġwar mer
by te
Ġcur s
ony ms
ĠPl utarch
Ġgo ats
Ġmark ings
ĠAir borne
Ġlast s
Ġpopular ly
Ġshort s
Ġcer amic
Ġday time
Amer ica
urg ical
Ġphys iological
Ã¼ hr
Ġinit iation
Ġpain ful
ĠDavid son
aff er
Ġpot ent
Ġge ologist
ĠMor avia
Ġcy top
ĠMart y
mar ine
Ġtax onomy
Ġcommit ting
Ġbroadcast ers
ĠBal moral
Ġalc hemical
ĠCub s
Ġforest ry
ĠÂ ±
Ġmess enger
Ġchart ed
ĠNob le
Ġpack ages
Ġmind s
ĠAre as
âĢĿ .
ĠAlc uin
Ġsn ake
Le ague
Ġveget able
Ġasc etic
Ġrenew al
Ġeval uate
ĠAth lon
Ġbright est
Ġclim bed
ĠId aho
Arch itecture
Ġrebu ilding
ĠNear ly
ĠDra ke
ĠAstron aut
Ġbag s
mitt ers
ÃŁ e
Ġcontrad iction
Ġow l
ĠSap ph
Ġorth ography
Ġpsychiat rist
ĠEuras ia
ĠAuto CAD
chlor ic
Ġbarrist ers
Ġcombin atorics
Ġamput ation
Ġexplor ers
ĠToll iver
ĠHT ML
ĠCarth age
Roy ce
Ġfus elage
Ġroman ization
Ġenvision ed
ĠSAD F
ĠNass au
D et
E ff
H aw
I B
M O
N S
N FL
O l
O pen
b ian
b ins
b ush
b ishops
c io
e ight
g ic
l ings
u ana
Ä Ľ
Ġt utor
er oy
Ġs oup
Ġp ist
Ġp riesthood
ing e
Ġd rying
Ġd aisy
ĠA ly
ĠA hab
Ġh ire
ĠS ke
ĠS aw
ĠT ues
ĠT ropical
ĠB in
ĠM ine
ot yp
ir v
ĠP BS
ĠH ess
th am
th ose
ĠR ising
ĠR osa
ĠD re
ĠD iss
ĠF ram
ĠL ands
ĠW emb
ac char
if a
Ġex amin
Ġex acerb
ess ive
Ġun ite
ĠK och
Ġk iss
ĠV amp
con scious
Ġdis rupted
ke k
ĠHe pha
Ġpre face
ob ar
ĠY ak
Ġatt achment
Ġreg ent
Ġra ck
Ġra ided
Ġacc ents
att ing
erman agh
angu ard
Ġrep ent
Ġent rusted
ĠWar wick
ĠPro file
ĠCl oud
ĠBo at
ĠOr t
Ġmin us
Ex pat
Ġdet ain
Ġgo at
Ġbas ement
Ġrest ing
Ġopp ression
idd ell
ung s
Ġshort est
ĠGu err
ĠCount ess
ean or
ĠX ia
Ġprot ects
ĠSch w
Ġel ong
ĠAct ress
Ġsw ords
Ġannoun cers
Ġmot ions
Ġtro op
Ġver ified
Ã³ s
ĠFl owers
uk ary
Ġaver aged
Ġabs urd
ĠAnt ip
ĠApp roximately
Ġmid fielder
Ġden ial
ĠWe alth
ĠFre ed
ĠMac qu
Ġsem antic
ĠÎ Ķ
Ġtransfer ring
Ġpath ogens
Ġkeep s
verse as
ih an
Ã¤ n
Ġmig rations
Ġslow ed
ĠFer ry
Ġadj oin
Ġreject s
ĠSing les
ĠOs lo
ĠBol ton
Ġec ology
Ġund es
ĠCat woman
ĠEngine er
ĠEth n
Mar ie
ĠRegion all
Ġmist akes
Ġmand ated
Cont emporary
Ġimag ination
App lications
ĠAqu itaine
ĠCirc us
Ġsand stone
Ġconsult ant
ĠApost le
Ġmemb ranes
ĠExt ra
Ġpartnership s
Ġshel f
Ġapost les
ĠEug en
ĠDra cula
Ñģ ÑĤ
Class ification
Ġresid ual
ĠGard ner
Ġpopul ace
ĠLomb ards
ĠWhe el
Ġtick ets
Ġow ed
Ġhunt ers
ĠSpec ification
Ġsevent y
ĠKÃ¶ n
Ġfox es
ĠAnabapt ists
Ġcommod ity
Ġric hest
ĠCust oms
Ġporn ography
Ġrook ie
Ġdomest icated
ĠPorts mouth
ĠSpani ards
yahu asca
ĠHeinem ann
ĠTanz ania
, '
; "|
A BC
A rea
B uff
C R
D anish
D OS
G DP
H ill
H ard
K ey
M ission
P ower
R AM
S elected
g ue
h in
j os
s ign
s ala
t el
u ced
v ig
z burg
Ġthe rop
en ic
es ia
it ored
Ġw ag
Ġan ion
Ġb ou
Ġd iving
Ġd airy
ent er
ĠC av
ĠC oin
ĠC ove
ĠT ip
ĠT aur
Ġre ag
ĠB J
ĠB W
ĠB rid
ĠB alfour
ur ia
ĠM arm
ĠM insk
im i
Ġbe ats
ĠP hen
ĠP oker
ul o
ĠH utch
ĠH oney
em ates
Ġst arch
Ġst ocks
Ġal gebras
ĠR M
ĠR KO
ĠR onnie
os i
ĠF unk
ĠF rog
ĠF resh
ĠG Ã³
ĠE ducational
ĠE zekiel
op ic
op ian
ĠW ik
ag s
ag oras
ĠN igel
Ġv oid
ate ch
oc hemistry
Ġex h
Ġun ification
ak o
ak is
ĠK end
up on
ĠCh a
Ġcomp ressed
ĠSt ro
Ġsh aft
ĠV ig
Ġres urg
ach im
ĠAr b
olog na
ĠSe ah
Ġind ices
erman ent
angu i
ĠIs id
Ġimp ose
erson ic
Ġsm ell
ĠMar ion
by e
Ġequ ator
Ġprom ises
Ġauthor itarian
Ã¡ lez
Ġprop osing
stit ute
Ġaff irm
Ġsk irm
ĠGu j
ĠX VI
Ġprot ested
arian ts
Ġmean while
Ġdest ructive
Ġmot ors
ĠPer haps
Ġimpro per
Ġpur ity
ĠBen z
Ġneg lect
Ġcampaign ed
Ġdistrib utors
Ġeast ward
Ġpast or
Ġceleb rates
ĠMass acre
ĠInter view
Ġheav iest
Ġgoal keeper
Ġtrack ed
eff ect
Ġsens es
bro t
Ġmis dem
Ġemp ower
ĠSur v
Ġcontact ed
bu ild
unct ive
Ġpurs uing
ĠCy ril
ĠEle anor
Ġsn ap
Ġsimpl icity
ĠHon our
Ġspons orship
ĠColon ies
run ning
Ġpoison ed
Ġtrust ees
Ġantim atter
Ġresc ued
Ġaccum ulation
orig inally
ĠRap ha
ĠGa ius
utt gart
second s
Ã¦ dia
ĠAltern atively
Ġcoinc ided
Ġobst acles
Ġingred ient
ĠBot an
ĠRus so
tr ue
ĠAmal ric
Ġexpat riates
ĠQuarter ly
ĠBam berg
ĠPack ers
ĠBurgund y
Ġscr ut
Ġcyl inder
Ġsuspic ion
Ġbrut al
ĠComb ined
Ġbarrist er
mid t
Ġol ive
Ġeleph ant
Indust rial
ĠEL F
oglob in
ĠGiac ometti
ĠElis abeth
Ġansw ered
Ġenroll ment
Ġconfisc ated
Ġsurg ical
zew orski
ĠNeum ann
keep ers
ĠYus uf
Ġdisag ree
ocalyp se
ĠWemb ley
) ".
B irds
N F
N U
P rodu
f est
g rave
m ag
o ffic
r ar
r atory
Å Ļ
or ov
al tern
Ġb ug
Ġb arn
Ġb ounds
ĠA BM
om ics
st at
ĠS O
ĠS ail
ĠS ounds
Ġre upt
Ġth under
ĠM og
Ġis n
ĠP ione
ĠH ouses
em ann
os ia
ĠD ame
ĠD ang
ĠG le
ĠL ing
ĠL od
ĠE pir
âĢ ľ
ĠW itch
ĠN ike
if olia
ĠJ ard
all ah
Ġr ats
ber n
ĠU FC
Ġch at
Ġch ick
up er
up ta
ign ment
ĠV ari
Ġad s
Ġcl iff
man ship
ens hire
ric es
Ġdis cretion
ase ous
ral tar
ĠRe ad
ĠDe ccan
Ġass et
Ġwe ighed
Ġdef ect
Ġloc ked
Ġob esity
cept ive
ĠSh in
ĠPro clamation
Ġmed itation
ik er
ĠMar ina
Ġcommon place
ĠBo z
ĠNational s
ĠBe avis
Ġval ves
ĠAlex is
Ġrev isions
Ġrepl ic
Ġphys i
sc ient
sc ience
Ġneed le
Ġep onymous
Ġarg uably
Ġmer ging
Ġhold ers
Ġfree zing
uk as
ĠHigh land
Ġmount ing
ĠEarth sea
Ġsuff ixes
Ġtax a
ĠCons umer
Wh o
Wh y
ĠMag og
ĠAnn iversary
Ġspect acular
Ġsyn agogue
Ġurban ization
ĠMad onna
Ġmis under
akh t
ĠSil k
ĠSil va
Ġconserv ed
ĠRh ythm
ĠOrthodox y
bu querque
Ġpair ing
Ġextrem es
Col or
ĠCy rus
ĠJoh an
ĠFA A
Ġlat itudes
Ġtal ents
ighth ouse
Ġvent ric
ĠTit le
Ġassemb ler
ĠBrad y
Ġvir uses
[...]
