{
  "version": "1.0",
  "truncation": null,
  "padding": null,
  "added_tokens": [
    {
      "id": 0,
      "content": "<|endoftext|>",
      "single_word": false,
      "lstrip": false,
      "rstrip": false,
      "normalized": false,
      "special": true
    },
    {
      "id": 1,
      "content": "<fim_prefix>",
      "single_word": false,
      "lstrip": false,
      "rstrip": false,
      "normalized": false,
      "special": true
    },
    {
      "id": 2,
      "content": "<fim_middle>",
      "single_word": false,
      "lstrip": false,
      "rstrip": false,
      "normalized": false,
      "special": true
    },
    {
      "id": 3,
      "content": "<fim_suffix>",
      "single_word": false,
      "lstrip": false,
      "rstrip": false,
      "normalized": false,
      "special": true
    },
    {
      "id": 4,
      "content": "<fim_pad>",
      "single_word": false,
      "lstrip": false,
      "rstrip": false,
      "normalized": false,
      "special": true
    },
    {
      "id": 5,
      "content": "<filename>",
      "single_word": false,
      "lstrip": false,
      "rstrip": false,
      "normalized": false,
      "special": true
    },
    {
      "id": 6,
      "content": "<gh_stars>",
      "single_word": false,
      "lstrip": false,
      "rstrip": false,
      "normalized": false,
      "special": true
    },
    {
      "id": 7,
      "content": "<issue_start>",
      "single_word": false,
      "lstrip": false,
      "rstrip": false,
      "normalized": false,
      "special": true
    },
    {
      "id": 8,
      "content": "<issue_comment>",
      "single_word": false,
      "lstrip": false,
      "rstrip": false,
      "normalized": false,
      "special": true
    },
    {
      "id": 9,
      "content": "<issue_closed>",
      "single_word": false,
      "lstrip": false,
      "rstrip": false,
      "normalized": false,
      "special": true
    },
    {
      "id": 10,
      "content": "<jupyter_start>",
      "single_word": false,
      "lstrip": false,
      "rstrip": false,
      "normalized": false,
      "special": true
    },
    {
      "id": 11,
      "content": "<jupyter_text>",
      "single_word": false,
      "lstrip": false,
      "rstrip": false,
      "normalized": false,
      "special": true
    },
    {
      "id": 12,
      "content": "<jupyter_code>",
      "single_word": false,
      "lstrip": false,
      "rstrip": false,
      "normalized": false,
      "special": true
    },
    {
      "id": 13,
      "content": "<jupyter_output>",
      "single_word": false,
      "lstrip": false,
      "rstrip": false,
      "normalized": false,
      "special": true
    },
    {
      "id": 14,
      "content": "<empty_output>",
      "single_word": false,
      "lstrip": false,
      "rstrip": false,
      "normalized": false,
      "special": true
    },
    {
      "id": 15,
      "content": "<commit_before>",
      "single_word": false,
      "lstrip": false,
      "rstrip": false,
      "normalized": false,
      "special": true
    },
    {
      "id": 16,
      "content": "<commit_msg>",
      "single_word": false,
      "lstrip": false,
      "rstrip": false,
      "normalized": false,
      "special": true
    },
    {
      "id": 17,
      "content": "<commit_after>",
      "single_word": false,
      "lstrip": false,
      "rstrip": false,
      "normalized": false,
      "special": true
    },
    {
      "id": 18,
      "content": "<reponame>",
      "single_word": false,
      "lstrip": false,
      "rstrip": false,
      "normalized": false,
      "special": true
    }
  ],
  "normalizer": null,
  "pre_tokenizer": {
    "type": "Sequence",
    "pretokenizers": [
      {
        "type": "Digits",
        "individual_digits": true
      },
      {
        "type": "ByteLevel",
        "add_prefix_space": false,
        "trim_offsets": true,
        "use_regex": true
      }
    ]
  },
  "post_processor": null,
  "decoder": {
    "type": "ByteLevel",
    "add_prefix_space": true,
    "trim_offsets": true,
    "use_regex": true
  },
  "model": {
    "type": "BPE",
    "dropout": null,
    "unk_token": null,
    "continuing_subword_prefix": null,
    "end_of_word_suffix": null,
    "fuse_unk": false,
    "byte_fallback": false,
    "ignore_merges": false,
    "vocab": {
      "<|endoftext|>": 0,
      "<fim_prefix>": 1,
      "<fim_middle>": 2,
      "<fim_suffix>": 3,
      "<fim_pad>": 4,
      "<filename>": 5,
      "<gh_stars>": 6,
      "<issue_start>": 7,
      "<issue_comment>": 8,
      "<issue_closed>": 9,
      "<jupyter_start>": 10,
      "<jupyter_text>": 11,
      "<jupyter_code>": 12,
      "<jupyter_output>": 13,
      "<empty_output>": 14,
      "<commit_before>": 15,
      "<commit_msg>": 16,
      "<commit_after>": 17,
      "<reponame>": 18,
      "!": 19,
      "\"": 20,
      "#": 21,
      "$": 22,
      "%": 23,
      "&": 24,
      "'": 25,
      "(": 26,
      ")": 27,
      "*": 28,
      "+": 29,
      ",": 30,
      "-": 31,
      ".": 32,
      "/": 33,
      "0": 34,
      "1": 35,
      "2": 36,
      "3": 37,
      "4": 38,
      "5": 39,
      "6": 40,
      "7": 41,
      "8": 42,
      "9": 43,
      ":": 44,
      ";": 45,
      "<": 46,
      "=": 47,
      ">": 48,
      "?": 49,
      "@": 50,
      "A": 51,
      "B": 52,
      "C": 53,
      "D": 54,
      "E": 55,
      "F": 56,
      "G": 57,
      "H": 58,
      "I": 59,
      "J": 60,
      "K": 61,
      "L": 62,
      "M": 63,
      "N": 64,
      "O": 65,
      "P": 66,
      "Q": 67,
      "R": 68,
      "S": 69,
      "T": 70,
      "U": 71,
      "V": 72,
      "W": 73,
      "X": 74,
      "Y": 75,
      "Z": 76,
      "[": 77,
      "\\": 78,
      "]": 79,
      "^": 80,
      "_": 81,
      "`": 82,
      "a": 83,
      "b": 84,
      "c": 85,
      "d": 86,
      "e": 87,
      "f": 88,
      "g": 89,
      "h": 90,
      "i": 91,
      "j": 92,
      "k": 93,
      "l": 94,
      "m": 95,
      "n": 96,
      "o": 97,
      "p": 98,
      "q": 99,
      "r": 100,
      "s": 101,
      "t": 102,
      "u": 103,
      "v": 104,
      "w": 105,
      "x": 106,
      "y": 107,
      "z": 108,
      "{": 109,
      "|": 110,
      "}": 111,
      "~": 112,
      "¡": 113,
      "¢": 114,
      "£": 115,
      "¤": 116,
      "¥": 117,
      "¦": 118,
      "§": 119,
      "¨": 120,
      "©": 121,
      "ª": 122,
      "«": 123,
      "¬": 124,
      "®": 125,
      "¯": 126,
      "°": 127,
      "±": 128,
      "²": 129,
      "³": 130,
      "´": 131,
      "µ": 132,
      "¶": 133,
      "·": 134,
      "¸": 135,
      "¹": 136,
      "º": 137,
      "»": 138,
      "¼": 139,
      "½": 140,
      "¾": 141,
      "¿": 142,
      "À": 143,
      "Á": 144,
      "Â": 145,
      "Ã": 146,
      "Ä": 147,
      "Å": 148,
      "Æ": 149,
      "Ç": 150,
      "È": 151,
      "É": 152,
      "Ê": 153,
      "Ë": 154,
      "Ì": 155,
      "Í": 156,
      "Î": 157,
      "Ï": 158,
      "Ð": 159,
      "Ñ": 160,
      "Ò": 161,
      "Ó": 162,
      "Ô": 163,
      "Õ": 164,
      "Ö": 165,
      "×": 166,
      "Ø": 167,
      "Ù": 168,
      "Ú": 169,
      "Û": 170,
      "Ü": 171,
      "Ý": 172,
      "Þ": 173,
      "ß": 174,
      "à": 175,
      "á": 176,
      "â": 177,
      "ã": 178,
      "ä": 179,
      "å": 180,
      "æ": 181,
      "ç": 182,
      "è": 183,
      "é": 184,
      "ê": 185,
      "ë": 186,
      "ì": 187,
      "í": 188,
      "î": 189,
      "ï": 190,
      "ð": 191,
      "ñ": 192,
      "ò": 193,
      "ó": 194,
      "ô": 195,
      "õ": 196,
      "ö": 197,
      "÷": 198,
      "ø": 199,
      "ù": 200,
      "ú": 201,
      "û": 202,
      "ü": 203,
      "ý": 204,
      "þ": 205,
      "ÿ": 206,
      "Ā": 207,
      "ā": 208,
      "Ă": 209,
      "ă": 210,
      "Ą": 211,
      "ą": 212,
      "Ć": 213,
      "ć": 214,
      "Ĉ": 215,
      "ĉ": 216,
      "Ċ": 217,
      "ċ": 218,
      "Č": 219,
      "č": 220,
      "Ď": 221,
      "ď": 222,
      "Đ": 223,
      "đ": 224,
      "Ē": 225,
      "ē": 226,
      "Ĕ": 227,
      "ĕ": 228,
      "Ė": 229,
      "ė": 230,
      "Ę": 231,
      "ę": 232,
      "Ě": 233,
      "ě": 234,
      "Ĝ": 235,
      "ĝ": 236,
      "Ğ": 237,
      "ğ": 238,
      "Ġ": 239,
      "ġ": 240,
      "Ģ": 241,
      "ģ": 242,
      "Ĥ": 243,
      "ĥ": 244,
      "Ħ": 245,
      "ħ": 246,
      "Ĩ": 247,
      "ĩ": 248,
      "Ī": 249,
      "ī": 250,
      "Ĭ": 251,
      "ĭ": 252,
      "Į": 253,
      "į": 254,
      "İ": 255,
      "ı": 256,
      "Ĳ": 257,
      "ĳ": 258,
      "Ĵ": 259,
      "ĵ": 260,
      "Ķ": 261,
      "ķ": 262,
      "ĸ": 263,
      "Ĺ": 264,
      "ĺ": 265,
      "Ļ": 266,
      "ļ": 267,
      "Ľ": 268,
      "ľ": 269,
      "Ŀ": 270,
      "ŀ": 271,
      "Ł": 272,
      "ł": 273,
      "Ń": 274,
      "Ġt": 275,
      "he": 276,
      "Ġa": 277,
      "in": 278,
      "er": 279,
      "on": 280,
      "Ġthe": 281,
      "re": 282,
      "Ġo": 283,
      "an": 284,
      "at": 285,
      "en": 286,
      "Ġs": 287,
      "ed": 288,
      "is": 289,
      "or": 290,
      "es": 291,
      "al": 292,
      "it": 293,
      "Ġc": 294,
      "Ġw": 295,
      "Ġof": 296,
      "ar": 297,
      "Ġan": 298,
      "Ġin": 299,
      "Ġb": 300,
      "Ġf": 301,
      "ic": 302,
      "Ġp": 303,
      "Ġand": 304,
      "ing": 305,
      "ion": 306,
      "as": 307,
      "ro": 308,
      "Ġm": 309,
      "Ġto": 310,
      "le": 311,
      "Ġd": 312,
      "ĠA": 313,
      "Ġh": 314,
      "ou": 315,
      "ent": 316,
      "om": 317,
      "st": 318,
      "il": 319,
      "ĠS": 320,
      "ĠC": 321,
      "ĠT": 322,
      "Ġre": 323,
      "el": 324,
      "ct": 325,
      "ol": 326,
      "Ġl": 327,
      "ĠB": 328,
      "am": 329,
      "Ġe": 330,
      "Ġn": 331,
      "Ġth": 332,
      "Ġ(": 333,
      "ur": 334,
      "ad": 335,
      "us": 336,
      "ation": 337,
      "et": 338,
      "ly": 339,
      "ch": 340,
      "iv": 341,
      "ĠM": 342,
      "id": 343,
      "un": 344,
      "ce": 345,
      "im": 346,
      "ot": 347,
      "ig": 348,
      "Ġis": 349,
      "ut": 350,
      "Ġfor": 351,
      "ir": 352,
      "ers": 353,
      "Ġas": 354,
      "Ġg": 355,
      "ĠI": 356,
      "Ġbe": 357,
      "Ġon": 358,
      "ĠP": 359,
      "Ġwas": 360,
      "ist": 361,
      "ra": 362,
      "ul": 363,
      "ith": 364,
      "ow": 365,
      "ĠThe": 366,
      "ter": 367,
      "ĠH": 368,
      "em": 369,
      "ay": 370,
      "her": 371,
      "Ġst": 372,
      "Ġwith": 373,
      "th": 374,
      "Ġal": 375,
      "ĠR": 376,
      "Ġby": 377,
      "Ġcon": 378,
      "os": 379,
      "ver": 380,
      "ĠD": 381,
      "ĠF": 382,
      "and": 383,
      "um": 384,
      "ĠG": 385,
      "ĠL": 386,
      "ĠE": 387,
      "Ġwh": 388,
      "Ġthat": 389,
      "op": 390,
      "âĢ": 391,
      "ĠW": 392,
      "rom": 393,
      "ag": 394,
      "'s": 395,
      "ri": 396,
      "est": 397,
      "od": 398,
      "ĠN": 399,
      "ac": 400,
      "av": 401,
      "Ġpro": 402,
      "Ġde": 403,
      "Ġcom": 404,
      "ian": 405,
      "Ġat": 406,
      "âĢĵ": 407,
      "Ġv": 408,
      "if": 409,
      "Ġor": 410,
      "ain": 411,
      "ab": 412,
      "Ġ\"": 413,
      "res": 414,
      "Ġit": 415,
      "ies": 416,
      "Ġfrom": 417,
      "ity": 418,
      "ĠJ": 419,
      "oun": 420,
      "Ġare": 421,
      "pe": 422,
      "Ġsu": 423,
      "ate": 424,
      "oc": 425,
      "ud": 426,
      "Ġhe": 427,
      "ort": 428,
      "Ġex": 429,
      "ia": 430,
      "Ġse": 431,
      "qu": 432,
      "ĠO": 433,
      "art": 434,
      "ich": 435,
      "ĠIn": 436,
      "all": 437,
      "ant": 438,
      "ld": 439,
      "ill": 440,
      "ess": 441,
      "Ġr": 442,
      "ore": 443,
      "ment": 444,
      "igh": 445,
      "ber": 446,
      "ial": 447,
      "ard": 448,
      "ew": 449,
      "ive": 450,
      "se": 451,
      "ical": 452,
      "ĠU": 453,
      "ap": 454,
      "ated": 455,
      "Ġhis": 456,
      "Ġun": 457,
      "ish": 458,
      "ak": 459,
      "og": 460,
      "ip": 461,
      "ĠK": 462,
      "ere": 463,
      "Ġch": 464,
      "ary": 465,
      "Ġpl": 466,
      "up": 467,
      "end": 468,
      "mer": 469,
      "ction": 470,
      "ost": 471,
      "Ġwhich": 472,
      "gh": 473,
      "ge": 474,
      "ine": 475,
      "ast": 476,
      "ure": 477,
      "Ġus": 478,
      "ther": 479,
      "The": 480,
      "ov": 481,
      "Ġwere": 482,
      "ĠâĢĵ": 483,
      "our": 484,
      "ell": 485,
      "so": 486,
      "cl": 487,
      "ong": 488,
      "ord": 489,
      "Ġle": 490,
      "du": 491,
      "ĠCh": 492,
      "pp": 493,
      "ame": 494,
      "pt": 495,
      "Ġcomp": 496,
      "rit": 497,
      "ĠSt": 498,
      "ave": 499,
      "ran": 500,
      "ub": 501,
      "),": 502,
      "Ġnot": 503,
      "ear": 504,
      "ight": 505,
      "ous": 506,
      "ire": 507,
      "per": 508,
      "Ġar": 509,
      "ĠĠ": 510,
      "Ġk": 511,
      "cc": 512,
      "ition": 513,
      "ect": 514,
      "ust": 515,
      "Ġalso": 516,
      "ff": 517,
      "iz": 518,
      "ry": 519,
      "ome": 520,
      "Ġsh": 521,
      "der": 522,
      "ult": 523,
      "ican": 524,
      "ks": 525,
      "ĠĊ": 526,
      "ign": 527,
      "Ġcont": 528,
      "ations": 529,
      "ue": 530,
      "ĠV": 531,
      "ass": 532,
      "fer": 533,
      "Ġint": 534,
      "ide": 535,
      "ib": 536,
      "Ġhave": 537,
      "ie": 538,
      "Ġhas": 539,
      "Ġy": 540,
      "ence": 541,
      "Ġhad": 542,
      "tern": 543,
      "age": 544,
      "Ġad": 545,
      "pl": 546,
      "are": 547,
      "ph": 548,
      "Ġcl": 549,
      "irst": 550,
      "ces": 551,
      "ory": 552,
      "ĠUn": 553,
      "man": 554,
      "Ġits": 555,
      "Ġtheir": 556,
      "ang": 557,
      "hen": 558,
      "ount": 559,
      "ĠAl": 560,
      "Ġab": 561,
      "ally": 562,
      "ĠAn": 563,
      "Ġres": 564,
      "ater": 565,
      "ack": 566,
      "Ġpart": 567,
      "act": 568,
      "Ġbut": 569,
      "Ġwor": 570,
      "ree": 571,
      "ates": 572,
      "con": 573,
      "ru": 574,
      "ĠTh": 575,
      "Ġfirst": 576,
      ").": 577,
      "ould": 578,
      "ions": 579,
      "clud": 580,
      "port": 581,
      "Ġother": 582,
      "own": 583,
      "Ġall": 584,
      "ens": 585,
      "In": 586,
      "fter": 587,
      "und": 588,
      "ric": 589,
      "hed": 590,
      "ime": 591,
      "ren": 592,
      "over": 593,
      "Ġper": 594,
      "Ġdis": 595,
      "land": 596,
      "Ġman": 597,
      "ach": 598,
      "out": 599,
      "ke": 600,
      "wo": 601,
      "Ġte": 602,
      "ely": 603,
      "Ġim": 604,
      "ace": 605,
      "ĠAmer": 606,
      "erv": 607,
      "Ġthis": 608,
      "Ġone": 609,
      "oll": 610,
      "ts": 611,
      "ational": 612,
      "Ġen": 613,
      "Ġro": 614,
      "te": 615,
      "ound": 616,
      "ile": 617,
      "Ġbeen": 618,
      "Ġbec": 619,
      "ice": 620,
      "ok": 621,
      "Ġinclud": 622,
      "Ġcan": 623,
      "ep": 624,
      "ress": 625,
      "able": 626,
      "ĠAr": 627,
      "ugh": 628,
      "ĠHe": 629,
      "Ġwho": 630,
      "ced": 631,
      "ited": 632,
      "Ġag": 633,
      "Ġcomm": 634,
      "vel": 635,
      "ĠIt": 636,
      "Ġplay": 637,
      "ors": 638,
      "orm": 639,
      "ents": 640,
      "ron": 641,
      "uring": 642,
      "we": 643,
      "Ġsc": 644,
      "Ġj": 645,
      "Ġpre": 646,
      "ubl": 647,
      "ase": 648,
      "Ġyear": 649,
      "ath": 650,
      "Ġdes": 651,
      "ĠAmerican": 652,
      "ite": 653,
      "les": 654,
      "Ġtwo": 655,
      "aw": 656,
      "amp": 657,
      "ade": 658,
      "olog": 659,
      "ne": 660,
      "Ġsy": 661,
      "Ġne": 662,
      "ĠEn": 663,
      "ough": 664,
      "Ġrec": 665,
      "Ġsp": 666,
      "ied": 667,
      "ose": 668,
      "Ġcent": 669,
      "Ġsuch": 670,
      "ics": 671,
      "ance": 672,
      "Ġspe": 673,
      "Ġform": 674,
      "Ġused": 675,
      "Ġev": 676,
      "ism": 677,
      "ury": 678,
      "Ġthey": 679,
      "Ġcons": 680,
      "ob": 681,
      "Ġmore": 682,
      "oin": 683,
      "Ġinto": 684,
      "Ġmost": 685,
      "old": 686,
      "als": 687,
      "ted": 688,
      "ark": 689,
      "Âł": 690,
      "Ġele": 691,
      "Ġover": 692,
      "Ġafter": 693,
      "ĠY": 694,
      "wn": 695,
      "ular": 696,
      "ased": 697,
      "one": 698,
      "ans": 699,
      "Ġgro": 700,
      "ft": 701,
      "Ġprodu": 702,
      "ons": 703,
      "ings": 704,
      "Ġbet": 705,
      "Ġrel": 706,
      "rib": 707,
      "aus": 708,
      "ivers": 709,
      "reat": 710,
      "ĠSe": 711,
      "iss": 712,
      "ood": 713,
      "ener": 714,
      "Ġatt": 715,
      "ious": 716,
      "Ġout": 717,
      "Ġreg": 718,
      "Ġme": 719,
      "oy": 720,
      "rans": 721,
      "here": 722,
      "orn": 723,
      "rough": 724,
      "ail": 725,
      "Ġup": 726,
      "oth": 727,
      "Ġthan": 728,
      "Ġact": 729,
      "ral": 730,
      "ug": 731,
      "ĠAs": 732,
      "ild": 733,
      "Ġnew": 734,
      "Ġpol": 735,
      "urn": 736,
      "ween": 737,
      "ĠRe": 738,
      "gan": 739,
      "ram": 740,
      "Ġapp": 741,
      "Ġtime": 742,
      "Ġac": 743,
      "Ġpe": 744,
      "Ġnum": 745,
      "Ġkn": 746,
      "gl": 747,
      "Ġam": 748,
      "ah": 749,
      "Ġra": 750,
      "Ġsub": 751,
      "Ġpr": 752,
      "ind": 753,
      "Ġonly": 754,
      "Ġunder": 755,
      "red": 756,
      "Ġsome": 757,
      "Ġoff": 758,
      "ward": 759,
      "Ġwould": 760,
      "ople": 761,
      "ative": 762,
      "ars": 763,
      "stem": 764,
      "ists": 765,
      "ict": 766,
      "Ġbetween": 767,
      "io": 768,
      "ĠCom": 769,
      "ific": 770,
      "ual": 771,
      "ilm": 772,
      "arg": 773,
      "Ġher": 774,
      "Ġacc": 775,
      "Ġwhen": 776,
      "ten": 777,
      "Ġph": 778,
      "ities": 779,
      "ck": 780,
      "Ġear": 781,
      "ished": 782,
      "ond": 783,
      "ince": 784,
      "erm": 785,
      "ys": 786,
      "att": 787,
      "ĠThis": 788,
      "outh": 789,
      "li": 790,
      "Ġinf": 791,
      "oh": 792,
      "hes": 793,
      "rad": 794,
      "cre": 795,
      "overn": 796,
      "cial": 797,
      "ĠDe": 798,
      "Ġmod": 799,
      "Ġinter": 800,
      "ember": 801,
      "Ġcol": 802,
      "Ġso": 803,
      "Ġass": 804,
      "Ġwe": 805,
      "iet": 806,
      "ton": 807,
      "ĠNew": 808,
      "hip": 809,
      "Ġqu": 810,
      "ern": 811,
      "ĊĊ": 812,
      "Ġfl": 813,
      "ve": 814,
      "Ġcount": 815,
      "ĠLe": 816,
      "Ġdef": 817,
      "Ġind": 818,
      "ool": 819,
      "Ġpop": 820,
      "Ġthere": 821,
      "Ġhim": 822,
      "ident": 823,
      "ever": 824,
      "Ġtrans": 825,
      "\".": 826,
      "Ġthem": 827,
      "ollow": 828,
      "ating": 829,
      "Ġpubl": 830,
      "ix": 831,
      "ily": 832,
      "Ġduring": 833,
      "arch": 834,
      "velop": 835,
      "Ġmay": 836,
      "ake": 837,
      "ium": 838,
      "Ġbo": 839,
      "ines": 840,
      "ution": 841,
      "Ġwork": 842,
      "uro": 843,
      "ences": 844,
      "Ġyears": 845,
      "ĠUnited": 846,
      "ision": 847,
      "Ġsystem": 848,
      "ject": 849,
      "inal": 850,
      "ames": 851,
      "Ġrem": 852,
      "Ġmany": 853,
      "Ġthrough": 854,
      "ower": 855,
      "Ġpres": 856,
      "Ġtra": 857,
      "ins": 858,
      "Ġbl": 859,
      "aj": 860,
      "erman": 861,
      "Ġcall": 862,
      "ays": 863,
      "Ġfound": 864,
      "cent": 865,
      "Ġco": 866,
      "\",": 867,
      "Ġwhere": 868,
      "Ġserv": 869,
      "cond": 870,
      "Ġabout": 871,
      "orth": 872,
      "ĠBrit": 873,
      "Ġpos": 874,
      "tain": 875,
      "Ġest": 876,
      "cted": 877,
      "Ġdif": 878,
      "Ġinv": 879,
      "ball": 880,
      "Ġset": 881,
      "Ġmet": 882,
      "Ġuse": 883,
      "Ġfilm": 884,
      "iel": 885,
      "uc": 886,
      "Ġknown": 887,
      "Ġagain": 888,
      "ered": 889,
      "ĠAt": 890,
      "Ġsupp": 891,
      "Ġloc": 892,
      "ures": 893,
      "emb": 894,
      "ick": 895,
      "ife": 896,
      "Ġprov": 897,
      "Ġem": 898,
      "ale": 899,
      "ĠCon": 900,
      "Ġgener": 901,
      "fore": 902,
      "Ġinst": 903,
      "round": 904,
      "Ġdo": 905,
      "Ġdevelop": 906,
      "ient": 907,
      "Ġvar": 908,
      "Ġap": 909,
      "Ġfollow": 910,
      "ll": 911,
      "owever": 912,
      "ments": 913,
      "Ġbu": 914,
      "very": 915,
      "Ġob": 916,
      "Ġdist": 917,
      "Ġpeople": 918,
      "ork": 919,
      "cept": 920,
      "Ġend": 921,
      "Ġwrit": 922,
      "az": 923,
      "glish": 924,
      "cy": 925,
      "ex": 926,
      "Ġstud": 927,
      "angu": 928,
      "Ġthree": 929,
      "Ġaut": 930,
      "ĊĠĠ": 931,
      "ized": 932,
      "Ġli": 933,
      "oot": 934,
      "ement": 935,
      "Ġgovern": 936,
      "cess": 937,
      "ause": 938,
      "ann": 939,
      "raph": 940,
      "hem": 941,
      "Ġmade": 942,
      "Ġlater": 943,
      "ually": 944,
      "Ġhist": 945,
      "ĠSp": 946,
      "Ġbeing": 947,
      "ĠIs": 948,
      "ise": 949,
      "Ġwell": 950,
      "ctions": 951,
      "Ġchar": 952,
      "Ġadd": 953,
      "ural": 954,
      "its": 955,
      "Ġexp": 956,
      "Ġnumber": 957,
      "form": 958,
      "Ġthen": 959,
      "ock": 960,
      "Ġincluding": 961,
      "rist": 962,
      "Ġfe": 963,
      "ĠGerman": 964,
      "ature": 965,
      "Ã©": 966,
      "Ġcap": 967,
      "ology": 968,
      ".\"": 969,
      "iversity": 970,
      "Ġsur": 971,
      "ĠSh": 972,
      "chool": 973,
      "Ġthese": 974,
      "Ġno": 975,
      "Ġart": 976,
      "ically": 977,
      "Ġrep": 978,
      "Ġwhile": 979,
      "uss": 980,
      "ros": 981,
      "any": 982,
      "orld": 983,
      "Ġbecame": 984,
      "els": 985,
      "Ġgroup": 986,
      "ians": 987,
      "Ġcentury": 988,
      "Ġsign": 989,
      "Ġent": 990,
      "Ġmain": 991,
      "uch": 992,
      "ĠAust": 993,
      "lex": 994,
      "yp": 995,
      "Ġboth": 996,
      "ible": 997,
      "eg": 998,
      "Ġmov": 999,
      "ĠZ": 1000,
      "ĠSc": 1001,
      "ĠInd": 1002,
      "ĠWar": 1003,
      "urope": 1004,
      "ĠCol": 1005,
      "ather": 1006,
      "Ġmus": 1007,
      "Ġcar": 1008,
      "abl": 1009,
      "air": 1010,
      "Ġret": 1011,
      "ĠPro": 1012,
      "Ġimp": 1013,
      "other": 1014,
      "ax": 1015,
      "Ġcalled": 1016,
      "ived": 1017,
      "Ġext": 1018,
      "ield": 1019,
      "ĠEnglish": 1020,
      "ĠStates": 1021,
      "ason": 1022,
      "Ġmon": 1023,
      "Ġhigh": 1024,
      "oman": 1025,
      "ĠBl": 1026,
      "inn": 1027,
      "Ġdire": 1028,
      "inist": 1029,
      "eries": 1030,
      "Ġeff": 1031,
      "Ġsecond": 1032,
      "Ġed": 1033,
      "the": 1034,
      "erson": 1035,
      "ae": 1036,
      "elf": 1037,
      "ages": 1038,
      "ty": 1039,
      "Ġpolit": 1040,
      "ues": 1041,
      "ĠAm": 1042,
      "til": 1043,
      "ved": 1044,
      "Ġdiffer": 1045,
      "imes": 1046,
      "Ġcre": 1047,
      "Ġconst": 1048,
      "Ġdec": 1049,
      "ier": 1050,
      "ĠAf": 1051,
      "ohn": 1052,
      "Re": 1053,
      "ĠAp": 1054,
      "Ġlead": 1055,
      "ĠFor": 1056,
      "ants": 1057,
      "ajor": 1058,
      "Ġsing": 1059,
      "Ġany": 1060,
      "ĠEurope": 1061,
      "Ġorig": 1062,
      "Ġcity": 1063,
      "Ġfam": 1064,
      "ility": 1065,
      "Ġspec": 1066,
      "Ġmed": 1067,
      "ank": 1068,
      "ĠWorld": 1069,
      "Ġshe": 1070,
      "Ġair": 1071,
      "ĠBritish": 1072,
      "ract": 1073,
      "ina": 1074,
      "ĠFran": 1075,
      "ĠCan": 1076,
      "ĠAd": 1077,
      "ulation": 1078,
      "ĠCl": 1079,
      "Ġworld": 1080,
      "Ġsim": 1081,
      "Ġearly": 1082,
      "Ġlangu": 1083,
      "Ġoper": 1084,
      "Ġdep": 1085,
      "iver": 1086,
      "Ġsm": 1087,
      "ful": 1088,
      "Ġappe": 1089,
      "ley": 1090,
      "way": 1091,
      "ting": 1092,
      "Ġsever": 1093,
      "Ġterm": 1094,
      "iew": 1095,
      "mp": 1096,
      "Ġagainst": 1097,
      "ash": 1098,
      "Ġresult": 1099,
      "Ġcontin": 1100,
      "Ġbel": 1101,
      "ec": 1102,
      "Ġfour": 1103,
      "Ġstate": 1104,
      "ional": 1105,
      "rop": 1106,
      "ĠJohn": 1107,
      "ute": 1108,
      "Ġ.": 1109,
      "Ġpartic": 1110,
      "ives": 1111,
      "vent": 1112,
      "gram": 1113,
      "ograph": 1114,
      "Ġlong": 1115,
      "ee": 1116,
      "ital": 1117,
      "my": 1118,
      "urch": 1119,
      "yn": 1120,
      "ange": 1121,
      "Ġown": 1122,
      "Ġrecord": 1123,
      "Ġbro": 1124,
      "Ġsame": 1125,
      "ĠĊĠĊ": 1126,
      "Ġteam": 1127,
      "arm": 1128,
      "to": 1129,
      "Ġbefore": 1130,
      "Ġcharact": 1131,
      "Ġdesign": 1132,
      "ĠOn": 1133,
      "enn": 1134,
      "ared": 1135,
      "Ġ-": 1136,
      "ird": 1137,
      "ble": 1138,
      "illion": 1139,
      "ired": 1140,
      "ik": 1141,
      "ene": 1142,
      "ined": 1143,
      "ĊĠ": 1144,
      "rench": 1145,
      "ĠUniversity": 1146,
      "atic": 1147,
      "ferences": 1148,
      "Ġname": 1149,
      "ccess": 1150,
      "osed": 1151,
      "ĠChrist": 1152,
      "led": 1153,
      "Ġocc": 1154,
      "ris": 1155,
      "Ġrele": 1156,
      "Ġlarg": 1157,
      "Ġuntil": 1158,
      "Ġsupport": 1159,
      "ctor": 1160,
      "Ġgovernment": 1161,
      "ĠAb": 1162,
      "ĠMar": 1163,
      "Ġoften": 1164,
      "Ġmajor": 1165,
      "Ġant": 1166,
      "iod": 1167,
      "aking": 1168,
      "ilit": 1169,
      "Ġdesc": 1170,
      "ĠComm": 1171,
      "Ġcould": 1172,
      "ternational": 1173,
      "Ġestabl": 1174,
      "ven": 1175,
      "hor": 1176,
      "ĠII": 1177,
      "ĠPh": 1178,
      "gy": 1179,
      "ternal": 1180,
      "ober": 1181,
      "oint": 1182,
      "Ġlaw": 1183,
      "pen": 1184,
      "ouse": 1185,
      "Ġsince": 1186,
      "Ġremain": 1187,
      "âĢĶ": 1188,
      "though": 1189,
      "Ġ,": 1190,
      "Ġcommon": 1191,
      "ica": 1192,
      "Ġsl": 1193,
      "Ġconsid": 1194,
      "eng": 1195,
      "arge": 1196,
      "chn": 1197,
      "aid": 1198,
      "Ġseveral": 1199,
      "ring": 1200,
      "Ġwill": 1201,
      "Ġoffic": 1202,
      "ĠBo": 1203,
      "eb": 1204,
      "conom": 1205,
      "Ġlin": 1206,
      "yl": 1207,
      "Ġdisc": 1208,
      "ĠCar": 1209,
      "ample": 1210,
      "Ġpublic": 1211,
      "Ġeach": 1212,
      "Ġsmall": 1213,
      "Ġback": 1214,
      "omet": 1215,
      "ĠSouth": 1216,
      "rid": 1217,
      "ĠOr": 1218,
      "Ġdeath": 1219,
      "oci": 1220,
      "Ġmat": 1221,
      "ĠFrench": 1222,
      "ague": 1223,
      "ĠQ": 1224,
      "ided": 1225,
      "Ġland": 1226,
      "Ġincre": 1227,
      "for": 1228,
      "Ġcontro": 1229,
      "lu": 1230,
      "Ġshow": 1231,
      "Ġcountry": 1232,
      "xt": 1233,
      "cer": 1234,
      "ively": 1235,
      "ets": 1236,
      "son": 1237,
      "ued": 1238,
      "Ġif": 1239,
      "ording": 1240,
      "ootball": 1241,
      "Ġseries": 1242,
      "Ġmin": 1243,
      "ides": 1244,
      "Ġfin": 1245,
      "ruct": 1246,
      "iving": 1247,
      "Ġbecause": 1248,
      "itions": 1249,
      "Ġcommun": 1250,
      "ĠAustral": 1251,
      "ised": 1252,
      "ries": 1253,
      "Ġprogram": 1254,
      "Ġsuccess": 1255,
      "Ġwar": 1256,
      "ission": 1257,
      "Ġtr": 1258,
      "ull": 1259,
      "Ġinclude": 1260,
      "Ġdifferent": 1261,
      "References": 1262,
      "Ġins": 1263,
      "ey": 1264,
      "rodu": 1265,
      "ience": 1266,
      "com": 1267,
      "Ġorgan": 1268,
      "ross": 1269,
      "resent": 1270,
      "by": 1271,
      "Ġlarge": 1272,
      "ĠKing": 1273,
      "ĠHowever": 1274,
      "ius": 1275,
      "por": 1276,
      "Ġlife": 1277,
      "omen": 1278,
      "Ex": 1279,
      "embers": 1280,
      "Ġtrad": 1281,
      "Ġleg": 1282,
      "Ġarea": 1283,
      "Ġref": 1284,
      "ĠCanad": 1285,
      "amed": 1286,
      "Ġequ": 1287,
      "vers": 1288,
      "Ġcur": 1289,
      "ified": 1290,
      "ices": 1291,
      "Ġgu": 1292,
      "Ġmusic": 1293,
      "Ġperiod": 1294,
      "Ġexample": 1295,
      "que": 1296,
      "Ġnear": 1297,
      "ony": 1298,
      "Ġhum": 1299,
      "Ġcult": 1300,
      "Ġ'": 1301,
      "inc": 1302,
      "let": 1303,
      "Ġpar": 1304,
      "Ġimport": 1305,
      "Ġeffect": 1306,
      "ze": 1307,
      "Ġaround": 1308,
      "ĠNational": 1309,
      "attle": 1310,
      "ator": 1311,
      "Ġpo": 1312,
      "une": 1313,
      "ox": 1314,
      "rand": 1315,
      "Ġdet": 1316,
      "Ġperson": 1317,
      "ization": 1318,
      "Ġpower": 1319,
      "lect": 1320,
      "oph": 1321,
      "ĠWh": 1322,
      "pect": 1323,
      "An": 1324,
      "tle": 1325,
      "iam": 1326,
      "Ġschool": 1327,
      "Ġclass": 1328,
      "ases": 1329,
      "iety": 1330,
      "Ġbased": 1331,
      "ration": 1332,
      "ĠCent": 1333,
      "Ġdid": 1334,
      "ove": 1335,
      "dom": 1336,
      "ane": 1337,
      "Ġfun": 1338,
      "ĠThey": 1339,
      "Ġrequ": 1340,
      "Ġallow": 1341,
      "Ġann": 1342,
      "ster": 1343,
      "Ġsoc": 1344,
      "Ġrun": 1345,
      "ended": 1346,
      "aim": 1347,
      "Ġgame": 1348,
      "ĠPl": 1349,
      "ĠBe": 1350,
      "Ġeng": 1351,
      "Ġright": 1352,
      "ĠPr": 1353,
      "ugust": 1354,
      "Ġcor": 1355,
      "med": 1356,
      "amb": 1357,
      "ĠNorth": 1358,
      "Ġmar": 1359,
      "au": 1360,
      "ival": 1361,
      "Ġbegan": 1362,
      "ried": 1363,
      "aced": 1364,
      "aving": 1365,
      "row": 1366,
      "Ġval": 1367,
      "ged": 1368,
      "ĠAnd": 1369,
      "oss": 1370,
      "ĠMus": 1371,
      "Ġpopulation": 1372,
      "ĠBar": 1373,
      "Ġvers": 1374,
      "raft": 1375,
      "iven": 1376,
      "Ġthough": 1377,
      "Ġfollowing": 1378,
      "ilitary": 1379,
      "Ġplayer": 1380,
      "Ġconf": 1381,
      "Ġprom": 1382,
      "Ġorder": 1383,
      "anu": 1384,
      "ĠGree": 1385,
      "par": 1386,
      "Ġgo": 1387,
      "ott": 1388,
      "ript": 1389,
      "Ġseason": 1390,
      "Ġauthor": 1391,
      "Ġappro": 1392,
      "ner": 1393,
      "lands": 1394,
      "Ġreturn": 1395,
      "ai": 1396,
      "che": 1397,
      "ĠGe": 1398,
      "ize": 1399,
      "ode": 1400,
      "Ġthose": 1401,
      "ately": 1402,
      "ently": 1403,
      "Ġrece": 1404,
      "Ġlit": 1405,
      "gen": 1406,
      "Ġpass": 1407,
      "ness": 1408,
      "ĠMay": 1409,
      "Ġdiv": 1410,
      "Ġeconom": 1411,
      "ham": 1412,
      "Ġnon": 1413,
      "Ġrefer": 1414,
      "ilar": 1415,
      "ole": 1416,
      "Ġposs": 1417,
      "Ġelect": 1418,
      "ament": 1419,
      "..": 1420,
      "Ġstr": 1421,
      "ĠUS": 1422,
      "af": 1423,
      "Ġprocess": 1424,
      "ior": 1425,
      "Ġcharacter": 1426,
      "ĠAugust": 1427,
      "yd": 1428,
      "Ġlike": 1429,
      "Ġmark": 1430,
      "ards": 1431,
      "Ġdue": 1432,
      "urther": 1433,
      "bum": 1434,
      "ody": 1435,
      "Ġstart": 1436,
      "Ã¡": 1437,
      "Ġamong": 1438,
      "Ġlinks": 1439,
      "Ġformer": 1440,
      "Ġfamily": 1441,
      "ander": 1442,
      "ales": 1443,
      "Ġopen": 1444,
      "Ġeven": 1445,
      "rew": 1446,
      "ves": 1447,
      "Ġstand": 1448,
      "ple": 1449,
      "gg": 1450,
      "epend": 1451,
      "rent": 1452,
      "Ġdescrib": 1453,
      "Ġbas": 1454,
      "ĠAll": 1455,
      "Ġmembers": 1456,
      "Ġlanguage": 1457,
      "estern": 1458,
      "olution": 1459,
      "Ġbuild": 1460,
      "ele": 1461,
      "Ġexpl": 1462,
      "Ġwithin": 1463,
      "alth": 1464,
      "ger": 1465,
      "Ġnow": 1466,
      "ĠRoman": 1467,
      "ĠAir": 1468,
      "ĠPar": 1469,
      "rab": 1470,
      "ĠEng": 1471,
      "Ġwater": 1472,
      "ĠĠĠĠ": 1473,
      "Ġdr": 1474,
      "Ġalong": 1475,
      "Ġrest": 1476,
      "Ġmuch": 1477,
      "Ġplace": 1478,
      "de": 1479,
      "Ġstat": 1480,
      "Ġmodern": 1481,
      "Ġlast": 1482,
      "Ġopp": 1483,
      "idd": 1484,
      "ĠYork": 1485,
      "Ġhome": 1486,
      "Ġfootball": 1487,
      "eter": 1488,
      "Ġchild": 1489,
      "Ġav": 1490,
      "Ġnational": 1491,
      "Ġinflu": 1492,
      "Ġhistor": 1493,
      "ĠAlex": 1494,
      "ĠRuss": 1495,
      "Ġusing": 1496,
      "dust": 1497,
      "Ġhead": 1498,
      "Ġgames": 1499,
      "ially": 1500,
      "Ġadv": 1501,
      "Ġgeneral": 1502,
      "ung": 1503,
      "Ġtechn": 1504,
      "Ġstill": 1505,
      "ument": 1506,
      "Ġhistory": 1507,
      "ality": 1508,
      "wards": 1509,
      "Ġvery": 1510,
      "Ġrev": 1511,
      "ont": 1512,
      "External": 1513,
      "ological": 1514,
      "itional": 1515,
      "Ġexper": 1516,
      "ords": 1517,
      "omin": 1518,
      "ilt": 1519,
      "Ġprop": 1520,
      "ril": 1521,
      "ports": 1522,
      "Ġpresent": 1523,
      "Ġbus": 1524,
      "Ġtem": 1525,
      "ms": 1526,
      "omb": 1527,
      "ĠWest": 1528,
      "Ġrad": 1529,
      "ĠAss": 1530,
      "day": 1531,
      "ats": 1532,
      "Ġdem": 1533,
      "Ġled": 1534,
      "lin": 1535,
      "Ġcour": 1536,
      "Ġresp": 1537,
      "ym": 1538,
      "Ġline": 1539,
      "Ġter": 1540,
      "ata": 1541,
      "ĠWill": 1542,
      "ths": 1543,
      "read": 1544,
      "lic": 1545,
      "ches": 1546,
      "ains": 1547,
      "Ġpopular": 1548,
      "Ġtele": 1549,
      "ĠMan": 1550,
      "ĠNov": 1551,
      "ories": 1552,
      "Ġalbum": 1553,
      "stit": 1554,
      "Ġbelie": 1555,
      "Ġfact": 1556,
      "ĠCity": 1557,
      "Ġes": 1558,
      "Ġcolle": 1559,
      "line": 1560,
      "rict": 1561,
      "ĠThese": 1562,
      "ĠCal": 1563,
      "apan": 1564,
      "Ġcomb": 1565,
      "Ġold": 1566,
      "adem": 1567,
      "ĠThere": 1568,
      "tic": 1569,
      "ese": 1570,
      "eder": 1571,
      "ense": 1572,
      "Ġread": 1573,
      "Ġrepresent": 1574,
      "Ġtyp": 1575,
      "aster": 1576,
      "ĠOct": 1577,
      "co": 1578,
      "ĠJu": 1579,
      "ublic": 1580,
      "ĠEd": 1581,
      "rem": 1582,
      "anuary": 1583,
      "vision": 1584,
      "Al": 1585,
      "Ġshort": 1586,
      "iness": 1587,
      "Ġhand": 1588,
      "Ġcomput": 1589,
      "Ġarch": 1590,
      "Ġinc": 1591,
      "Ġla": 1592,
      "ids": 1593,
      "Ġleft": 1594,
      "Ġrepl": 1595,
      "ray": 1596,
      "Ġcrit": 1597,
      "olic": 1598,
      "cing": 1599,
      "Ġconsidered": 1600,
      "ĠShe": 1601,
      "ography": 1602,
      "Ġsimilar": 1603,
      "ĠAfter": 1604,
      "ĠRep": 1605,
      "rian": 1606,
      "Ġwon": 1607,
      "ĠItal": 1608,
      "istory": 1609,
      "Ġpublished": 1610,
      "ĠHis": 1611,
      "Ġfre": 1612,
      "mber": 1613,
      "Ġvis": 1614,
      "Ġanother": 1615,
      "ĠAg": 1616,
      "tt": 1617,
      "Ġaff": 1618,
      "Ġtook": 1619,
      "ĠBC": 1620,
      "uted": 1621,
      "Ġestablished": 1622,
      "ored": 1623,
      "Ġsk": 1624,
      "Ġlocal": 1625,
      "ek": 1626,
      "Ġdown": 1627,
      "ptember": 1628,
      "Ġhig": 1629,
      "Ġsingle": 1630,
      "ĠJanuary": 1631,
      "empt": 1632,
      "craft": 1633,
      "Ġband": 1634,
      "pecial": 1635,
      "Ġsong": 1636,
      "ots": 1637,
      "ĠBer": 1638,
      "tal": 1639,
      "Ġprof": 1640,
      "ald": 1641,
      "On": 1642,
      "Ġfore": 1643,
      "ivil": 1644,
      "oon": 1645,
      "Ġ&": 1646,
      "Ġkill": 1647,
      "ook": 1648,
      "Ġport": 1649,
      "Ġimportant": 1650,
      "Ġpat": 1651,
      "Ġsaid": 1652,
      "urs": 1653,
      "ĠChar": 1654,
      "Ġbi": 1655,
      "Ġparticular": 1656,
      "Ġgreat": 1657,
      "bert": 1658,
      "Ġcer": 1659,
      "ĠEuropean": 1660,
      "ones": 1661,
      "ĠGu": 1662,
      "akes": 1663,
      "alf": 1664,
      "Ġmilitary": 1665,
      "ĠCount": 1666,
      "Ġvarious": 1667,
      "Ġplayed": 1668,
      "apt": 1669,
      "Ġmen": 1670,
      "Ġevent": 1671,
      "reen": 1672,
      "Ġwhat": 1673,
      "Ġfield": 1674,
      "ĠHer": 1675,
      "Ġorigin": 1676,
      "Ġcare": 1677,
      "Ġnamed": 1678,
      "Ġtit": 1679,
      "Ġdevelopment": 1680,
      "ĠJapan": 1681,
      "Ġlevel": 1682,
      "Ġreleased": 1683,
      "Ġday": 1684,
      "Ġ$": 1685,
      "Ġbook": 1686,
      "ban": 1687,
      "hod": 1688,
      "Ġmanag": 1689,
      "Ġclaim": 1690,
      "ĠBy": 1691,
      "ean": 1692,
      "Ġless": 1693,
      "century": 1694,
      "Ġdirect": 1695,
      "astern": 1696,
      "Ġlate": 1697,
      "Ġheld": 1698,
      "Ġadm": 1699,
      "ead": 1700,
      "ured": 1701,
      "Ch": 1702,
      "Ġident": 1703,
      "ĠSeptember": 1704,
      "ĠSw": 1705,
      "cember": 1706,
      "ĠDav": 1707,
      "ites": 1708,
      "ffic": 1709,
      "ruction": 1710,
      "Ġpolitical": 1711,
      "born": 1712,
      "hern": 1713,
      "ploy": 1714,
      "cil": 1715,
      "ination": 1716,
      "Ġpract": 1717,
      "Ġgiven": 1718,
      "Ġbecome": 1719,
      "Ġcamp": 1720,
      "ether": 1721,
      "Ġjust": 1722,
      "Ġmake": 1723,
      ".,": 1724,
      "Ġreport": 1725,
      "Ġgl": 1726,
      "Ġhuman": 1727,
      "Ġintrodu": 1728,
      "Ġincluded": 1729,
      "ician": 1730,
      "Amer": 1731,
      "ĠOctober": 1732,
      "Ġfive": 1733,
      "ĠBro": 1734,
      "Ġbeg": 1735,
      "side": 1736,
      "sp": 1737,
      "urg": 1738,
      "Ġcr": 1739,
      "Ġtown": 1740,
      "Ġiss": 1741,
      "ĠX": 1742,
      "int": 1743,
      "Ġhel": 1744,
      "Ġ|": 1745,
      "Ġmag": 1746,
      "Ġcontrol": 1747,
      "ĠBr": 1748,
      "Ġphys": 1749,
      "Ġspecies": 1750,
      "Ġevery": 1751,
      "ĠMarch": 1752,
      "ither": 1753,
      "Ġstruct": 1754,
      "Ġprot": 1755,
      "ĠGeor": 1756,
      "ĠEngland": 1757,
      "Ġregion": 1758,
      "Ġsol": 1759,
      "Ġnorth": 1760,
      "inning": 1761,
      "Ġprev": 1762,
      "Ġdeveloped": 1763,
      "augh": 1764,
      "bs": 1765,
      "Ġinvol": 1766,
      "ille": 1767,
      "ĠApril": 1768,
      "Ġcomple": 1769,
      "Ġindust": 1770,
      "Ġclub": 1771,
      "ably": 1772,
      "Ġmult": 1773,
      "ĠPol": 1774,
      "ilos": 1775,
      "Ġpoint": 1776,
      "oks": 1777,
      "ĠEx": 1778,
      "ped": 1779,
      "Ġtop": 1780,
      "orthern": 1781,
      "umb": 1782,
      "ĠChurch": 1783,
      "Ġfew": 1784,
      "Ġplayers": 1785,
      "aul": 1786,
      "sc": 1787,
      "ops": 1788,
      "ĠDecember": 1789,
      "ule": 1790,
      "rote": 1791,
      "Ġwithout": 1792,
      "lear": 1793,
      "ccording": 1794,
      "Ġsix": 1795,
      "ogn": 1796,
      "Ġanal": 1797,
      "Ġchang": 1798,
      "Ġprim": 1799,
      "ware": 1800,
      "less": 1801,
      "ison": 1802,
      "lor": 1803,
      "Ġeduc": 1804,
      "Ġactiv": 1805,
      "Ġthird": 1806,
      "ĠComp": 1807,
      "alk": 1808,
      "American": 1809,
      "Ġlargest": 1810,
      "istic": 1811,
      "yle": 1812,
      "ery": 1813,
      "key": 1814,
      "ĠJune": 1815,
      "Ġproper": 1816,
      "rican": 1817,
      "ĠPart": 1818,
      "Ġlim": 1819,
      "ink": 1820,
      "Ġsour": 1821,
      "BC": 1822,
      "ĠGreek": 1823,
      "ps": 1824,
      "Ġcond": 1825,
      "ivid": 1826,
      "Ã¼": 1827,
      "ĠEar": 1828,
      "Ġassoci": 1829,
      "Ġneed": 1830,
      "ention": 1831,
      "Ġhowever": 1832,
      "iron": 1833,
      "ĠJuly": 1834,
      "Ġinit": 1835,
      "Ġbeh": 1836,
      "ĠNovember": 1837,
      "rain": 1838,
      "most": 1839,
      "Ġcountries": 1840,
      "anish": 1841,
      "Ġoriginal": 1842,
      "ificant": 1843,
      "atter": 1844,
      "arian": 1845,
      "Ġsold": 1846,
      "See": 1847,
      "ĠHar": 1848,
      "Ġcaus": 1849,
      "irc": 1850,
      "Ġbase": 1851,
      "Ġsomet": 1852,
      "ondon": 1853,
      "ĠSch": 1854,
      "ĠWilliam": 1855,
      "Ġide": 1856,
      "Ġway": 1857,
      "zer": 1858,
      "ĠLeague": 1859,
      "ering": 1860,
      "rick": 1861,
      "Ġlow": 1862,
      "Ġbre": 1863,
      "ourn": 1864,
      "Ġproduced": 1865,
      "Ġproduction": 1866,
      "Ġcompany": 1867,
      "Ġindepend": 1868,
      "Ġbuilt": 1869,
      "Ġstates": 1870,
      "Ġep": 1871,
      "Ġbir": 1872,
      "Ġmillion": 1873,
      "ests": 1874,
      "sh": 1875,
      "Ġel": 1876,
      "ridge": 1877,
      "Ġanim": 1878,
      "ential": 1879,
      "Ġappear": 1880,
      "Ġexist": 1881,
      "rag": 1882,
      "Ġrul": 1883,
      "sequ": 1884,
      "Ġsouth": 1885,
      "ends": 1886,
      "Ġwomen": 1887,
      "ĠChristian": 1888,
      "Ġattempt": 1889,
      "cient": 1890,
      "Ġdel": 1891,
      "ote": 1892,
      "Ġview": 1893,
      "ling": 1894,
      "Ġtimes": 1895,
      "ched": 1896,
      "ĠArab": 1897,
      "Ġusually": 1898,
      "Ġhaving": 1899,
      "thern": 1900,
      "ĠBel": 1901,
      "Ġsignificant": 1902,
      "Ġrelig": 1903,
      "Ġcompet": 1904,
      "Ġfinal": 1905,
      "ested": 1906,
      "work": 1907,
      "aces": 1908,
      "Ġcase": 1909,
      "ĠUnion": 1910,
      "ampions": 1911,
      "arn": 1912,
      "Ġproduct": 1913,
      "ĠMed": 1914,
      "Ġareas": 1915,
      "Ġer": 1916,
      "osp": 1917,
      "Ġgroups": 1918,
      "atural": 1919,
      "Ġcame": 1920,
      "Ġgen": 1921,
      "Ġgrow": 1922,
      "rated": 1923,
      "Ġwrote": 1924,
      "acks": 1925,
      "ÃŃ": 1926,
      "ouncil": 1927,
      "Ġrole": 1928,
      "Ġalthough": 1929,
      "Ġperform": 1930,
      "ĠBra": 1931,
      "aut": 1932,
      "outhern": 1933,
      "ĠOne": 1934,
      "ĠLondon": 1935,
      "ĠCo": 1936,
      "nt": 1937,
      "idence": 1938,
      "Ġturn": 1939,
      "Ġmean": 1940,
      "ana": 1941,
      "eth": 1942,
      "Ġbody": 1943,
      "lymp": 1944,
      "ability": 1945,
      "aken": 1946,
      "itive": 1947,
      "bit": 1948,
      "ances": 1949,
      "ĠInternational": 1950,
      "ford": 1951,
      "iation": 1952,
      "Ġwritten": 1953,
      "ebru": 1954,
      "ino": 1955,
      "Ġarg": 1956,
      "ĠAmerica": 1957,
      "ebruary": 1958,
      "Ġsystems": 1959,
      "Ġson": 1960,
      "ape": 1961,
      "eum": 1962,
      "acy": 1963,
      "ained": 1964,
      "Ġredu": 1965,
      "Ġtreat": 1966,
      "Ġfunction": 1967,
      "ĠAc": 1968,
      "eh": 1969,
      "Ġdecl": 1970,
      "ler": 1971,
      "St": 1972,
      "Ġproble": 1973,
      "ope": 1974,
      "Ġservice": 1975,
      "Ġengine": 1976,
      "Ġmater": 1977,
      "alt": 1978,
      "of": 1979,
      "ency": 1980,
      "Ġrese": 1981,
      "Ġpost": 1982,
      "ways": 1983,
      "ĠSchool": 1984,
      "Ġindivid": 1985,
      "Ġmember": 1986,
      "ĠCanada": 1987,
      "ara": 1988,
      "oung": 1989,
      "Ġreal": 1990,
      "Ġside": 1991,
      "ama": 1992,
      "Ġsent": 1993,
      "ĠAct": 1994,
      "Ġvol": 1995,
      "Ġsepar": 1996,
      "abor": 1997,
      "Ġversion": 1998,
      "udd": 1999,
      "Th": 2000,
      "atures": 2001,
      "Ġinform": 2002,
      "Ġobs": 2003,
      "isc": 2004,
      "ĠEl": 2005,
      "Ġlist": 2006,
      "ret": 2007,
      "Ġworks": 2008,
      "ype": 2009,
      "ka": 2010,
      "Ġtotal": 2011,
      "Ġdev": 2012,
      "Ġpain": 2013,
      "men": 2014,
      "Ġtake": 2015,
      "avy": 2016,
      "Ġdoes": 2017,
      "As": 2018,
      "aur": 2019,
      "ĠFebruary": 2020,
      "Ġspecial": 2021,
      "ĠEast": 2022,
      "overed": 2023,
      "Ġcurrent": 2024,
      "Ġsw": 2025,
      "Ġreceived": 2026,
      "Ġlight": 2027,
      "ief": 2028,
      "ĠPres": 2029,
      "reg": 2030,
      "ĠJew": 2031,
      "oyal": 2032,
      "Ġshould": 2033,
      "self": 2034,
      "Ġattack": 2035,
      "Ġking": 2036,
      "iddle": 2037,
      "oms": 2038,
      "cast": 2039,
      "Ġtheory": 2040,
      "Ġwin": 2041,
      "ining": 2042,
      "ĠSome": 2043,
      "Ġsugg": 2044,
      "eneral": 2045,
      "ĠSup": 2046,
      "hers": 2047,
      "ĠSoc": 2048,
      "ĠTur": 2049,
      "ĠTe": 2050,
      "Ġspace": 2051,
      "wh": 2052,
      "Ġdeb": 2053,
      "ĠAng": 2054,
      "ollo": 2055,
      "Ġstrong": 2056,
      "Ġsym": 2057,
      "inister": 2058,
      "ĠGod": 2059,
      "Ġstudy": 2060,
      "ĠAfrican": 2061,
      "ĠEmp": 2062,
      "ude": 2063,
      "ney": 2064,
      "Ġofficial": 2065,
      "iction": 2066,
      "Ġship": 2067,
      "Ġtri": 2068,
      "Ġbusiness": 2069,
      "atin": 2070,
      "Ġmass": 2071,
      "imate": 2072,
      "Ġcal": 2073,
      "ades": 2074,
      "Ġmy": 2075,
      "Ġhalf": 2076,
      "Ġmethod": 2077,
      "raw": 2078,
      "ification": 2079,
      "Ġbroad": 2080,
      "ming": 2081,
      "Ġposition": 2082,
      "writ": 2083,
      "rap": 2084,
      "ĠCor": 2085,
      "ending": 2086,
      "etic": 2087,
      "Ġsocial": 2088,
      "Ġchildren": 2089,
      "unic": 2090,
      "ĠDavid": 2091,
      "Ġcreated": 2092,
      "Ġtelevision": 2093,
      "Ġmaterial": 2094,
      "Ġobject": 2095,
      "Ġjoin": 2096,
      "Ġfurther": 2097,
      "ĠAustralian": 2098,
      "ĠFrance": 2099,
      "Ġder": 2100,
      "Ġfilms": 2101,
      "Ġdied": 2102,
      "Ġrelations": 2103,
      "Ġprevious": 2104,
      "Ġothers": 2105,
      "ĠBlack": 2106,
      "Ġdest": 2107,
      "right": 2108,
      "ideo": 2109,
      "Ġcell": 2110,
      "Ġlanguages": 2111,
      "Ġdescribed": 2112,
      "II": 2113,
      "Ġterrit": 2114,
      "bon": 2115,
      "Ġinternational": 2116,
      "bo": 2117,
      "ĠNe": 2118,
      "utes": 2119,
      "ergy": 2120,
      "Ġage": 2121,
      "rest": 2122,
      "Ġ||": 2123,
      "ĠColle": 2124,
      "ges": 2125,
      "ĠHol": 2126,
      "Ġannoun": 2127,
      "ĠPort": 2128,
      "val": 2129,
      "ront": 2130,
      "app": 2131,
      "Ġsum": 2132,
      "ĠPhil": 2133,
      "ected": 2134,
      "Ġaddition": 2135,
      "mon": 2136,
      "ĠCro": 2137,
      "Ġblack": 2138,
      "ĠDiv": 2139,
      "Ġeither": 2140,
      "Ġconstit": 2141,
      "ĠArmy": 2142,
      "Ġmot": 2143,
      "ĠGermany": 2144,
      "Ġproject": 2145,
      "Ġcontinued": 2146,
      "Ġmust": 2147,
      "used": 2148,
      "ĠWhen": 2149,
      "enced": 2150,
      "ows": 2151,
      "off": 2152,
      "ĠAustralia": 2153,
      "pecially": 2154,
      "iber": 2155,
      "ert": 2156,
      "ators": 2157,
      "Ġlocated": 2158,
      "Ġforces": 2159,
      "ĠState": 2160,
      "order": 2161,
      "ĠKingdom": 2162,
      "Ã¶": 2163,
      "Ġnov": 2164,
      "Ġearli": 2165,
      "ria": 2166,
      "Ġhost": 2167,
      "Ġke": 2168,
      "cul": 2169,
      "ached": 2170,
      "Ġpri": 2171,
      "Ġast": 2172,
      "bers": 2173,
      "ari": 2174,
      "mit": 2175,
      "ĠOlymp": 2176,
      "incip": 2177,
      "iol": 2178,
      "Ġdefe": 2179,
      "rica": 2180,
      "ha": 2181,
      "ĠEmpire": 2182,
      "utions": 2183,
      "Ġobserv": 2184,
      "ĠPark": 2185,
      "bor": 2186,
      "Ġpolitician": 2187,
      "ĠArt": 2188,
      "Ġren": 2189,
      "Ġwid": 2190,
      "ĠMc": 2191,
      "otes": 2192,
      "Ġnet": 2193,
      "Ġtw": 2194,
      "lam": 2195,
      "Ar": 2196,
      "ĠÃ": 2197,
      "asing": 2198,
      "omp": 2199,
      "ef": 2200,
      "ours": 2201,
      "Ġmer": 2202,
      "Ġphilos": 2203,
      "Ġoccur": 2204,
      "ify": 2205,
      "iment": 2206,
      "Ġbest": 2207,
      "Ġcapital": 2208,
      "aff": 2209,
      "play": 2210,
      "osition": 2211,
      "Ġfail": 2212,
      "face": 2213,
      "Ġcirc": 2214,
      "sy": 2215,
      "aper": 2216,
      "Ġrange": 2217,
      "ĠCup": 2218,
      "ensive": 2219,
      "Ġnext": 2220,
      "Ġprofess": 2221,
      "ights": 2222,
      "Äģ": 2223,
      "oad": 2224,
      "Ġchem": 2225,
      "ĠMon": 2226,
      "ĠCath": 2227,
      "itect": 2228,
      "Un": 2229,
      "uel": 2230,
      "iforn": 2231,
      "Ġformed": 2232,
      "Ġtro": 2233,
      "Ġpriv": 2234,
      "Ġgood": 2235,
      "ĠEm": 2236,
      "uf": 2237,
      "Ġenc": 2238,
      "Ġaircraft": 2239,
      "Ġliter": 2240,
      "ising": 2241,
      "Ġhow": 2242,
      "Ġrecogn": 2243,
      "aries": 2244,
      "Ġleast": 2245,
      "Ġfac": 2246,
      "ements": 2247,
      "Ġfather": 2248,
      "AS": 2249,
      "Ġavail": 2250,
      "ĠIndian": 2251,
      "ĠPer": 2252,
      "ĠRiver": 2253,
      "Ġsometimes": 2254,
      "ington": 2255,
      "ĠDay": 2256,
      "ples": 2257,
      "Ġparts": 2258,
      "ournal": 2259,
      "ett": 2260,
      "Ġmeas": 2261,
      "ma": 2262,
      "imately": 2263,
      "oviet": 2264,
      "Ġver": 2265,
      "rant": 2266,
      "Ã³": 2267,
      "fic": 2268,
      "Ġhold": 2269,
      "now": 2270,
      "Ġgenerally": 2271,
      "Ġpot": 2272,
      "Ġdays": 2273,
      "ĠSan": 2274,
      "ĠReg": 2275,
      "Ġaccount": 2276,
      "Ġlaun": 2277,
      "Ġbattle": 2278,
      "ĠPe": 2279,
      "Ġ[": 2280,
      "Ġword": 2281,
      "Ġtransl": 2282,
      "Ġfree": 2283,
      "ĠRes": 2284,
      "ĠAfrica": 2285,
      "Ġstyle": 2286,
      "Ġserved": 2287,
      "ĠHouse": 2288,
      "ĠFl": 2289,
      "Ġpossible": 2290,
      "ĠSy": 2291,
      "pite": 2292,
      "ĠPal": 2293,
      "Ġespecially": 2294,
      "uk": 2295,
      "Ġdata": 2296,
      "ĠDuring": 2297,
      "Ġestablish": 2298,
      "forman": 2299,
      "Ġmaking": 2300,
      "Ġexpress": 2301,
      "Ġ(\"": 2302,
      "Ġnever": 2303,
      "inese": 2304,
      "ula": 2305,
      "ĠWestern": 2306,
      "Ġrather": 2307,
      "ning": 2308,
      "iles": 2309,
      "Ġstation": 2310,
      "Ġpresident": 2311,
      "Ġnumbers": 2312,
      "Ġhouse": 2313,
      "istan": 2314,
      "Ġnatural": 2315,
      "ĠParty": 2316,
      "lant": 2317,
      "Ġge": 2318,
      "iers": 2319,
      "Ġaver": 2320,
      "Ġresearch": 2321,
      "nd": 2322,
      "ateg": 2323,
      "Ġz": 2324,
      "Ġoffer": 2325,
      "viron": 2326,
      "hib": 2327,
      "ĠGreat": 2328,
      "aves": 2329,
      "atal": 2330,
      "ĠMor": 2331,
      "Ġcop": 2332,
      "ĠAlexander": 2333,
      "Ġcareer": 2334,
      "cret": 2335,
      "ĠSm": 2336,
      "Ġagre": 2337,
      "Ġcivil": 2338,
      "Ġhimself": 2339,
      "ĠTr": 2340,
      "chan": 2341,
      "Ġfull": 2342,
      "Ġmodel": 2343,
      "Ġcomplex": 2344,
      "Ġemploy": 2345,
      "ydro": 2346,
      "cript": 2347,
      "ampionship": 2348,
      "ĠOther": 2349,
      "ĠCounty": 2350,
      "Ġfollowed": 2351,
      "hest": 2352,
      "Ġabs": 2353,
      ".)": 2354,
      "ush": 2355,
      "ibr": 2356,
      "be": 2357,
      "Ġsch": 2358,
      "Ġpress": 2359,
      "Ġexec": 2360,
      "Ġtest": 2361,
      "ĠRepublic": 2362,
      "ifornia": 2363,
      "lement": 2364,
      "Ġcy": 2365,
      "Ġbuilding": 2366,
      "Ġfeature": 2367,
      "ceed": 2368,
      "Ġadminist": 2369,
      "ĠPresident": 2370,
      "Ġpoin": 2371,
      "Ġimpro": 2372,
      "ĠRober": 2373,
      "ĠHigh": 2374,
      "ĠDivision": 2375,
      "oid": 2376,
      "ĠPaul": 2377,
      "ĠNor": 2378,
      "arily": 2379,
      "chie": 2380,
      "ĠChina": 2381,
      "ĠCanadian": 2382,
      "Ġmarket": 2383,
      "Ġsuper": 2384,
      "ique": 2385,
      "ĠSpanish": 2386,
      "Ġlower": 2387,
      "Ġconsist": 2388,
      "Ġelements": 2389,
      "ĠApollo": 2390,
      "reet": 2391,
      "rael": 2392,
      "Ġforms": 2393,
      "ĠAward": 2394,
      "uation": 2395,
      "Ġlost": 2396,
      "Ġcertain": 2397,
      "ĠGeorge": 2398,
      "Ġvict": 2399,
      "Ġterms": 2400,
      "Ġculture": 2401,
      "Ġcentral": 2402,
      "Ġseen": 2403,
      "ĠAnt": 2404,
      "Ġaccept": 2405,
      "ĠApp": 2406,
      "Ġsuccessful": 2407,
      "Ġbar": 2408,
      "Ġthroughout": 2409,
      "ĠIndia": 2410,
      "Ġtype": 2411,
      "icle": 2412,
      "Ġstory": 2413,
      "ĠWith": 2414,
      "Ġmoved": 2415,
      "na": 2416,
      "Ġborn": 2417,
      "ael": 2418,
      "cle": 2419,
      "ĠBas": 2420,
      "Ġmid": 2421,
      "Ġcommunity": 2422,
      "Ġeconomic": 2423,
      "ĠSoviet": 2424,
      "ĠMich": 2425,
      "Ġavailable": 2426,
      "Ġground": 2427,
      "ĠPress": 2428,
      "Ġpur": 2429,
      "Ġcomputer": 2430,
      "Ġtitle": 2431,
      "ĠGl": 2432,
      "Ġfounded": 2433,
      "ĠMart": 2434,
      "Ġcompan": 2435,
      "Ġparty": 2436,
      "Ġintroduced": 2437,
      "Ġfind": 2438,
      "Ġmiss": 2439,
      "Ġconc": 2440,
      "Ġabove": 2441,
      "Ġbecom": 2442,
      "Ġtaken": 2443,
      "Ġeth": 2444,
      "berg": 2445,
      "ĠCalifornia": 2446,
      "aign": 2447,
      "ĠAccording": 2448,
      "Ġarmy": 2449,
      "Ġreported": 2450,
      "Ġsubject": 2451,
      "Ġprincip": 2452,
      "Ġelection": 2453,
      "Ġstandard": 2454,
      "Ġdi": 2455,
      "Ġplan": 2456,
      "Ġinvest": 2457,
      "ĠBudd": 2458,
      "Ġtemper": 2459,
      "Ġred": 2460,
      "Ġscient": 2461,
      "liament": 2462,
      "Ġfig": 2463,
      "Ġfrequ": 2464,
      "Ġball": 2465,
      "ĠDes": 2466,
      "Ġacross": 2467,
      "erous": 2468,
      "ĠRussian": 2469,
      "ume": 2470,
      "Ġindic": 2471,
      "Ġwent": 2472,
      "ream": 2473,
      "Ġcost": 2474,
      "Ġfire": 2475,
      "Ġfund": 2476,
      "Ġmultip": 2477,
      "Ġfri": 2478,
      "Ġfood": 2479,
      "istor": 2480,
      "oted": 2481,
      "Ġchange": 2482,
      "Ġwhe": 2483,
      "Ġforce": 2484,
      "Ġlik": 2485,
      "year": 2486,
      "ĠRich": 2487,
      "Ġfem": 2488,
      "Ġmem": 2489,
      "Ġcommand": 2490,
      "ĠNo": 2491,
      "Ġregard": 2492,
      "Ġhigher": 2493,
      "Ġcoast": 2494,
      "Ġfight": 2495,
      "Ġstar": 2496,
      "Ġrock": 2497,
      "uth": 2498,
      "ĠCentral": 2499,
      "Ġsite": 2500,
      "Ġtog": 2501,
      "ĠLa": 2502,
      "ĠJames": 2503,
      "ingu": 2504,
      "Ġalmost": 2505,
      "ico": 2506,
      "Ġarm": 2507,
      "Ġannounced": 2508,
      "Ġinformation": 2509,
      "Ġkey": 2510,
      "ĠLatin": 2511,
      "Ġentire": 2512,
      "ĠBen": 2513,
      "ĠChinese": 2514,
      "Ġox": 2515,
      "ĠSl": 2516,
      "stand": 2517,
      "Ġtogether": 2518,
      "Ġsee": 2519,
      "atory": 2520,
      "ĠGovern": 2521,
      "Ġenergy": 2522,
      "ĠCollege": 2523,
      "ĠArch": 2524,
      "Ġancient": 2525,
      "ocr": 2526,
      "Ġcontrib": 2527,
      "action": 2528,
      "ein": 2529,
      "rel": 2530,
      "Ġhard": 2531,
      "like": 2532,
      "ĠItalian": 2533,
      "Ġsec": 2534,
      "Ġrail": 2535,
      "Ġisland": 2536,
      "Ġunivers": 2537,
      "ĠKh": 2538,
      "Ġincludes": 2539,
      "ought": 2540,
      "Ġtrib": 2541,
      "iqu": 2542,
      "ĠCharles": 2543,
      "Ġpolic": 2544,
      "Ġcontain": 2545,
      "ĠCouncil": 2546,
      "Ġrespect": 2547,
      "Ġupon": 2548,
      "gypt": 2549,
      "roy": 2550,
      "Ġmeans": 2551,
      "Ġperforman": 2552,
      "inary": 2553,
      "ĠPri": 2554,
      "ĠGeneral": 2555,
      "ĠCatholic": 2556,
      "Ġinteg": 2557,
      "Ġcolon": 2558,
      "ĠĊĠĊĠĊĠĊ": 2559,
      "gress": 2560,
      "Ġden": 2561,
      "ĠSer": 2562,
      "ĠRev": 2563,
      "Ġsit": 2564,
      "Ġthus": 2565,
      "uments": 2566,
      "ourt": 2567,
      "Ġevents": 2568,
      "ĠFirst": 2569,
      "Ġconn": 2570,
      "Ġimm": 2571,
      "Ġinstead": 2572,
      "vironment": 2573,
      "\")": 2574,
      "ving": 2575,
      "Ġmount": 2576,
      "Ġill": 2577,
      "Ġaccess": 2578,
      "Ġdou": 2579,
      "Ġdisp": 2580,
      "Ġaccording": 2581,
      "ĠRec": 2582,
      "Ġeducation": 2583,
      "oul": 2584,
      "Ġaverage": 2585,
      "ĠQu": 2586,
      "ĠScott": 2587,
      "History": 2588,
      "isl": 2589,
      "Ġcross": 2590,
      "Ġtrade": 2591,
      "Ġdoc": 2592,
      "ills": 2593,
      "ky": 2594,
      "Ġsinger": 2595,
      "utch": 2596,
      "ĠHen": 2597,
      "Ġcapt": 2598,
      "Ġtour": 2599,
      "Ġrights": 2600,
      "ĠDem": 2601,
      "ston": 2602,
      "hel": 2603,
      "Ġschol": 2604,
      "Ġstri": 2605,
      "Ġsoft": 2606,
      "rup": 2607,
      "ĠBu": 2608,
      "itar": 2609,
      "mercial": 2610,
      "tained": 2611,
      "ike": 2612,
      "Ġclos": 2613,
      "ĠRoyal": 2614,
      "Ġreturned": 2615,
      "Ġelectron": 2616,
      "Ġfall": 2617,
      "ĠJapanese": 2618,
      "anc": 2619,
      "artment": 2620,
      "Ġitself": 2621,
      "Ġsurv": 2622,
      "umn": 2623,
      "omm": 2624,
      "Ġstarted": 2625,
      "Ġevidence": 2626,
      "ederal": 2627,
      "Ġonce": 2628,
      "Ġvideo": 2629,
      "zil": 2630,
      "ĠCong": 2631,
      "aint": 2632,
      "Ġactor": 2633,
      "Ġrate": 2634,
      "ems": 2635,
      "Ġdeg": 2636,
      "ysis": 2637,
      "Ġser": 2638,
      "nel": 2639,
      "Ġcourt": 2640,
      "Ġservices": 2641,
      "sel": 2642,
      "Ġprote": 2643,
      "Ġinstit": 2644,
      "Ġgrad": 2645,
      "bra": 2646,
      "rial": 2647,
      "Ġcharacters": 2648,
      "ĠGro": 2649,
      "ishing": 2650,
      "field": 2651,
      "ĠMex": 2652,
      "Ġarchitect": 2653,
      "itch": 2654,
      "Ġrelated": 2655,
      "ixed": 2656,
      "ĠEarth": 2657,
      "och": 2658,
      "ras": 2659,
      "Ġhelp": 2660,
      "Ġremained": 2661,
      "After": 2662,
      "Ġyoung": 2663,
      "wood": 2664,
      "iting": 2665,
      "Ġconcept": 2666,
      "ĠĊĊ": 2667,
      "Ġadop": 2668,
      "Ġfav": 2669,
      "icro": 2670,
      "ev": 2671,
      "Ġste": 2672,
      "rug": 2673,
      "Ġfar": 2674,
      "Ġapprox": 2675,
      "atives": 2676,
      "ĠEgypt": 2677,
      "Ġwhose": 2678,
      "Ġuses": 2679,
      "rought": 2680,
      "Ġtraditional": 2681,
      "gar": 2682,
      "ked": 2683,
      "Ġstructure": 2684,
      "Ġsuff": 2685,
      "Ġmale": 2686,
      "atively": 2687,
      "Ġtext": 2688,
      "iter": 2689,
      "ago": 2690,
      "medi": 2691,
      "Ġsound": 2692,
      "oney": 2693,
      "ĠVal": 2694,
      "ĠBattle": 2695,
      "ulf": 2696,
      "Ġvill": 2697,
      "pir": 2698,
      "itor": 2699,
      "Ġdesigned": 2700,
      "ĠQue": 2701,
      "Ġassociated": 2702,
      "Ġ()": 2703,
      "Ġmovement": 2704,
      "Ġfoc": 2705,
      "Ġable": 2706,
      "Ġdeterm": 2707,
      "Ġneg": 2708,
      "Ġkilled": 2709,
      "ĠConf": 2710,
      "Ġmeaning": 2711,
      "Ġachie": 2712,
      "ores": 2713,
      "ership": 2714,
      "There": 2715,
      "Ġaway": 2716,
      "Ġet": 2717,
      "Ġcampaign": 2718,
      "Ġfeatures": 2719,
      "Ġnovel": 2720,
      "Ġrespons": 2721,
      "Ġexcept": 2722,
      "rast": 2723,
      "ĠMe": 2724,
      "ipp": 2725,
      "Ġindustry": 2726,
      "Ġprob": 2727,
      "Ġrecorded": 2728,
      "Ġincreased": 2729,
      ");": 2730,
      "ĠAtlant": 2731,
      "ĠPat": 2732,
      "uries": 2733,
      "omas": 2734,
      "ĠBritain": 2735,
      "ounter": 2736,
      "Ġinfluence": 2737,
      "lim": 2738,
      "Ġacadem": 2739,
      "ulated": 2740,
      "Ġgold": 2741,
      "ĠLou": 2742,
      "Ġten": 2743,
      "ĠCamb": 2744,
      "Ġthought": 2745,
      "Ġtre": 2746,
      "Ġcondu": 2747,
      "sych": 2748,
      "Ġhydro": 2749,
      "Ġbooks": 2750,
      "|-": 2751,
      "ĠBay": 2752,
      "Ġarr": 2753,
      "Ġstudents": 2754,
      "Ġaward": 2755,
      "Ġsqu": 2756,
      "Ġcoll": 2757,
      "Ġdirector": 2758,
      "put": 2759,
      "ĠList": 2760,
      "Ġcompanies": 2761,
      "Ġradio": 2762,
      "Ġput": 2763,
      "Ġgave": 2764,
      "aching": 2765,
      "Ġtransport": 2766,
      "Ġleading": 2767,
      "ĠWhile": 2768,
      "ki": 2769,
      "inct": 2770,
      "Ġpers": 2771,
      "Ġreb": 2772,
      "ols": 2773,
      "Ġlive": 2774,
      "aps": 2775,
      "ires": 2776,
      "Ġestim": 2777,
      "Ġmother": 2778,
      "ilities": 2779,
      "elling": 2780,
      "Ġdistrib": 2781,
      "ĠMal": 2782,
      "Ġeventually": 2783,
      "inter": 2784,
      "Ġcover": 2785,
      "Ġbrother": 2786,
      "He": 2787,
      "ĠRed": 2788,
      "ĠSea": 2789,
      "ij": 2790,
      "rim": 2791,
      "Ġsize": 2792,
      "Ġeast": 2793,
      "ties": 2794,
      "Ġmeet": 2795,
      "clus": 2796,
      "Ġcritic": 2797,
      "ads": 2798,
      "Ġreligious": 2799,
      "ĠInstit": 2800,
      "Ġparticip": 2801,
      "Ġcompos": 2802,
      "amples": 2803,
      "Ġhealth": 2804,
      "ĠBat": 2805,
      "Ġcities": 2806,
      "Ġappeared": 2807,
      "Ġmathem": 2808,
      "Ġacid": 2809,
      "ficult": 2810,
      "Ġnorm": 2811,
      "ulture": 2812,
      "igned": 2813,
      "ĠRobert": 2814,
      "Ġdomin": 2815,
      "writer": 2816,
      "Ġprovided": 2817,
      "):": 2818,
      "ump": 2819,
      "oe": 2820,
      "Ġviol": 2821,
      "ister": 2822,
      "ference": 2823,
      "Ġscience": 2824,
      "Ġnorthern": 2825,
      "Ġchurch": 2826,
      "Ġtradition": 2827,
      "ĠAssoci": 2828,
      "ĠSam": 2829,
      "istics": 2830,
      "ibility": 2831,
      "ĠAlthough": 2832,
      "Ġknow": 2833,
      "Ġallowed": 2834,
      "Ġreferred": 2835,
      "ĠAcadem": 2836,
      "Ġinstr": 2837,
      "En": 2838,
      "Ġsex": 2839,
      "ophy": 2840,
      "oice": 2841,
      "ĠMuseum": 2842,
      "Ġaltern": 2843,
      "ios": 2844,
      "Ġpast": 2845,
      "Ġdifficult": 2846,
      "iff": 2847,
      "'t": 2848,
      "itude": 2849,
      "Ġwest": 2850,
      "Ġmonths": 2851,
      "Ġpoints": 2852,
      "ĠWe": 2853,
      "Ġapplic": 2854,
      "Ġcases": 2855,
      "icles": 2856,
      "ground": 2857,
      "inent": 2858,
      "Ġparticularly": 2859,
      "mar": 2860,
      "Ġindividual": 2861,
      "not": 2862,
      "utive": 2863,
      "Ġclose": 2864,
      "ĠBook": 2865,
      "amer": 2866,
      "Ġvalue": 2867,
      "Ġconcern": 2868,
      "Ġwords": 2869,
      "Ġnames": 2870,
      "Ġprovide": 2871,
      "ĠUK": 2872,
      "ĠBur": 2873,
      "ta": 2874,
      "Ġopt": 2875,
      "ĠMinister": 2876,
      "burg": 2877,
      "Ġconstruction": 2878,
      "eleb": 2879,
      "ĠFrank": 2880,
      "sen": 2881,
      "Ġschools": 2882,
      "ufact": 2883,
      "Ġsouthern": 2884,
      "Ġpen": 2885,
      "ranch": 2886,
      "Ġcommercial": 2887,
      "stant": 2888,
      "ĠHall": 2889,
      "Ġur": 2890,
      "Ġfootballer": 2891,
      "Ġconsider": 2892,
      "ili": 2893,
      "agn": 2894,
      "odes": 2895,
      "Ġsubsequ": 2896,
      "ĠMet": 2897,
      "Ġresults": 2898,
      "ĠMy": 2899,
      "Ġoil": 2900,
      "Ġmanufact": 2901,
      "Ġeight": 2902,
      "based": 2903,
      "ĠTo": 2904,
      "iding": 2905,
      "Ġpercent": 2906,
      "ĠBrazil": 2907,
      "ĠMost": 2908,
      "Ġregular": 2909,
      "Ġang": 2910,
      "Ġbrought": 2911,
      "atch": 2912,
      "Ġjud": 2913,
      "van": 2914,
      "ror": 2915,
      "Ġamount": 2916,
      "Ġ=": 2917,
      "ĠFre": 2918,
      "At": 2919,
      "ĠTrans": 2920,
      "aughter": 2921,
      "oses": 2922,
      "kn": 2923,
      "ĠCont": 2924,
      "Ġwhite": 2925,
      "Ġrequired": 2926,
      "Ġreplaced": 2927,
      "min": 2928,
      "oz": 2929,
      "hab": 2930,
      "Ġastron": 2931,
      "rig": 2932,
      "ville": 2933,
      "Ġemer": 2934,
      "ishop": 2935,
      "ength": 2936,
      "istance": 2937,
      "Ġlet": 2938,
      "Ġnuc": 2939,
      "Ġaud": 2940,
      "Ġprivate": 2941,
      "ĠCroat": 2942,
      "cis": 2943,
      "ĠAsia": 2944,
      "rus": 2945,
      "asc": 2946,
      "Ġsaw": 2947,
      "Ġoutside": 2948,
      "Ġquest": 2949,
      "ĠDep": 2950,
      "Ġhon": 2951,
      "west": 2952,
      "Ġsil": 2953,
      "Ġacqu": 2954,
      "ĠTex": 2955,
      "Ġforeign": 2956,
      "Ġmach": 2957,
      "ĠBul": 2958,
      "ockey": 2959,
      "cies": 2960,
      "Ġtax": 2961,
      "Ġadded": 2962,
      "unicip": 2963,
      "me": 2964,
      "ĠCourt": 2965,
      "ĠAlbert": 2966,
      "For": 2967,
      "Ġgre": 2968,
      "Ġspecific": 2969,
      "Ġnetwork": 2970,
      "ĠHistory": 2971,
      "Ġlarger": 2972,
      "ali": 2973,
      "uture": 2974,
      "Ġleague": 2975,
      "Ġinterest": 2976,
      "Ġsource": 2977,
      "ĠIr": 2978,
      "ux": 2979,
      "Ġoccup": 2980,
      "ĠSociety": 2981,
      "ĠCap": 2982,
      "Ġrule": 2983,
      "ibrary": 2984,
      "Ġmission": 2985,
      "ĠAthen": 2986,
      "Ġhighest": 2987,
      "ĠIsrael": 2988,
      "aval": 2989,
      "Ġproducer": 2990,
      "Ġmechan": 2991,
      "Ġremains": 2992,
      "Ad": 2993,
      "ĠMac": 2994,
      "ĠSpe": 2995,
      "Ġpoet": 2996,
      "go": 2997,
      "Ġsurface": 2998,
      "Ġguitar": 2999,
      "anks": 3000,
      "ĠDutch": 3001,
      "Ġbelieved": 3002,
      "ĠIts": 3003,
      "uck": 3004,
      "Ġris": 3005,
      "Ġord": 3006,
      "Ġepis": 3007,
      "Ġveh": 3008,
      "Ġincreasing": 3009,
      "rate": 3010,
      "ĠColumb": 3011,
      "aker": 3012,
      "Ġcrew": 3013,
      "ĠIsland": 3014,
      "rol": 3015,
      "Ġmight": 3016,
      "Ġindependent": 3017,
      "Ġaction": 3018,
      "Ġanti": 3019,
      "Ġcaused": 3020,
      "CA": 3021,
      "ĠSim": 3022,
      "reme": 3023,
      "uals": 3024,
      "ini": 3025,
      "vert": 3026,
      "Ġjournal": 3027,
      "Ġsymb": 3028,
      "asons": 3029,
      "peror": 3030,
      "Ġdam": 3031,
      "Ġinterp": 3032,
      "ancial": 3033,
      "Ġmetal": 3034,
      "ĠZe": 3035,
      "...": 3036,
      "Ġsat": 3037,
      "Ġmajority": 3038,
      "Ġcreat": 3039,
      "itiz": 3040,
      "airs": 3041,
      "olit": 3042,
      "Ġcommit": 3043,
      "het": 3044,
      "Ġeffects": 3045,
      "Ġgrowth": 3046,
      "Ġlack": 3047,
      "Ġelected": 3048,
      "Ġworking": 3049,
      "Ġmarried": 3050,
      "Ġchanges": 3051,
      "Ġlog": 3052,
      "Ġelement": 3053,
      "time": 3054,
      "orks": 3055,
      "ĠIf": 3056,
      "ĠGold": 3057,
      "Ġbirth": 3058,
      "Ġseven": 3059,
      "Ġphot": 3060,
      "Ġlonger": 3061,
      "ĠPeter": 3062,
      "elled": 3063,
      "Ġincrease": 3064,
      "known": 3065,
      "olk": 3066,
      "Ġmostly": 3067,
      "Ġbeginning": 3068,
      "Ġoperations": 3069,
      "Ġprimary": 3070,
      "ounds": 3071,
      "Ġwidely": 3072,
      "Ġpred": 3073,
      "Ġcarbon": 3074,
      "Ġlittle": 3075,
      "urity": 3076,
      "ĠPers": 3077,
      "Ġhom": 3078,
      "Ġdefin": 3079,
      "Ġtypically": 3080,
      "Ġdom": 3081,
      "ĠStud": 3082,
      "Ġdise": 3083,
      "Ġcommonly": 3084,
      "Ġconditions": 3085,
      "Ġclear": 3086,
      "ĠMichael": 3087,
      "ĠMany": 3088,
      "Ġround": 3089,
      "Ġrelationship": 3090,
      "Ġeffort": 3091,
      "ĠAcademy": 3092,
      "obal": 3093,
      "Ġmagn": 3094,
      "aged": 3095,
      "Ġcontinu": 3096,
      "ĠAngl": 3097,
      "Ġjoined": 3098,
      "orph": 3099,
      "alled": 3100,
      "ĠIII": 3101,
      "leg": 3102,
      "resp": 3103,
      "Ġsequ": 3104,
      "Ġgod": 3105,
      "iences": 3106,
      "ani": 3107,
      "Ġpersonal": 3108,
      "Ġterritory": 3109,
      "ashington": 3110,
      "Ġsources": 3111,
      "Ġpractice": 3112,
      "ĠRichard": 3113,
      "Ġsem": 3114,
      "asion": 3115,
      "Ġliving": 3116,
      "Ġlikely": 3117,
      "Ġreading": 3118,
      "Ġlab": 3119,
      "Ġloss": 3120,
      "ĠLaw": 3121,
      "Ġtowards": 3122,
      "ands": 3123,
      "ĠOld": 3124,
      "Ġoffice": 3125,
      "Ġblood": 3126,
      "ection": 3127,
      "Ġperformed": 3128,
      "Ġself": 3129,
      "Ġhit": 3130,
      "Ġbroadcast": 3131,
      "Ġstated": 3132,
      "ĠThomas": 3133,
      "Ġperformance": 3134,
      "Ġess": 3135,
      "oor": 3136,
      "owers": 3137,
      "Ġeconomy": 3138,
      "Ġwife": 3139,
      "Ġlo": 3140,
      "uns": 3141,
      "ources": 3142,
      "Ġcause": 3143,
      "ĠSal": 3144,
      "view": 3145,
      "ona": 3146,
      "Ġsay": 3147,
      "ola": 3148,
      "ĠItaly": 3149,
      "Ġsoftware": 3150,
      "Ġceleb": 3151,
      "ĠIslam": 3152,
      "Ġlegal": 3153,
      "ĠScot": 3154,
      "porary": 3155,
      "Ġinvolved": 3156,
      "Ġweek": 3157,
      "ĠRad": 3158,
      "Ġoriginally": 3159,
      "ients": 3160,
      "aches": 3161,
      "ĠHenry": 3162,
      "selves": 3163,
      "Am": 3164,
      "Ġfront": 3165,
      "Ġearlier": 3166,
      "cher": 3167,
      "Ġfle": 3168,
      "Ġtypes": 3169,
      "Ġrank": 3170,
      "Ġhous": 3171,
      "Ġprevent": 3172,
      "Ġche": 3173,
      "Ġnature": 3174,
      "ĠMount": 3175,
      "Ġunits": 3176,
      "ointed": 3177,
      "Ġthemselves": 3178,
      "Ġproducts": 3179,
      "ya": 3180,
      "lying": 3181,
      "Ġlearn": 3182,
      "Ġwriting": 3183,
      "Ġgra": 3184,
      "Ġscreen": 3185,
      "Ġdyn": 3186,
      "Ġrelease": 3187,
      "ĠSen": 3188,
      "ĠBut": 3189,
      "oys": 3190,
      "irt": 3191,
      "pected": 3192,
      "Ġacademic": 3193,
      "isions": 3194,
      "Ġplaced": 3195,
      "rd": 3196,
      "Ġquant": 3197,
      "Ġbank": 3198,
      "arent": 3199,
      "Ġremov": 3200,
      "Ġtravel": 3201,
      "Ġcast": 3202,
      "Ġlimited": 3203,
      "omer": 3204,
      "Ġlines": 3205,
      "acter": 3206,
      "Ġreached": 3207,
      "ĠAssociation": 3208,
      "Ġtoday": 3209,
      "Ġbelow": 3210,
      "It": 3211,
      "Ġconcent": 3212,
      "Ġvia": 3213,
      "Ġenvironment": 3214,
      "Ġreview": 3215,
      "ĠSte": 3216,
      "idents": 3217,
      "Ġmedia": 3218,
      "ension": 3219,
      "Ġbehav": 3220,
      "Ġbirths": 3221,
      "Ġplant": 3222,
      "Ġregions": 3223,
      "Ġdistrict": 3224,
      "Ġriver": 3225,
      "Ġopened": 3226,
      "Ġproblems": 3227,
      "Ġcode": 3228,
      "ĠDan": 3229,
      "Ġâ": 3230,
      "onse": 3231,
      "ĠAD": 3232,
      "Ġdestroy": 3233,
      "gin": 3234,
      "million": 3235,
      "reland": 3236,
      "embly": 3237,
      "Ġproduce": 3238,
      "eds": 3239,
      "Pe": 3240,
      "ĠSwed": 3241,
      "Ġnecess": 3242,
      "ĠForce": 3243,
      "Ġfa": 3244,
      "Ġsea": 3245,
      "Ġproblem": 3246,
      "Cl": 3247,
      "ĠBal": 3248,
      "unt": 3249,
      "Ġwhether": 3250,
      "Ġminor": 3251,
      "Ġmanager": 3252,
      "irit": 3253,
      "ĠFrom": 3254,
      "ghan": 3255,
      "Ġpurp": 3256,
      "ĠWashington": 3257,
      "ĠCons": 3258,
      "Ġdraw": 3259,
      "cks": 3260,
      "Ġtoo": 3261,
      "Ġcommunic": 3262,
      "met": 3263,
      "spe": 3264,
      "ĠChampionship": 3265,
      "Ġcome": 3266,
      "Ġneigh": 3267,
      "Ġboard": 3268,
      "anned": 3269,
      "Ġrequire": 3270,
      "uit": 3271,
      "Ġstudies": 3272,
      "ĠLouis": 3273,
      "ĠMass": 3274,
      "Ġfell": 3275,
      "Ġworked": 3276,
      "bed": 3277,
      "den": 3278,
      "Ġgas": 3279,
      "ĠInstitute": 3280,
      "ivity": 3281,
      "odern": 3282,
      "Ġhistorical": 3283,
      "Ġtarg": 3284,
      "isation": 3285,
      "ĠFore": 3286,
      "Ġcompleted": 3287,
      "ĠWil": 3288,
      "omy": 3289,
      "anded": 3290,
      "oper": 3291,
      "Ġsett": 3292,
      "respond": 3293,
      "hing": 3294,
      "Ġget": 3295,
      "Ġvariety": 3296,
      "ously": 3297,
      "Ġlay": 3298,
      "ultural": 3299,
      "ready": 3300,
      "lied": 3301,
      "Ġcoach": 3302,
      "Ġpay": 3303,
      "ĠĠĠĠĠĠĠĠ": 3304,
      "Ġalways": 3305,
      "Ġdig": 3306,
      "ĠTer": 3307,
      "ĠNorthern": 3308,
      "Ġdiscovered": 3309,
      "Ġmur": 3310,
      "ĠSmith": 3311,
      "ket": 3312,
      "ĠBab": 3313,
      "ects": 3314,
      "ĠCompany": 3315,
      "During": 3316,
      "orial": 3317,
      "Wh": 3318,
      "head": 3319,
      "Ġcenter": 3320,
      "ĠJewish": 3321,
      "Ġtroops": 3322,
      "ĠGrand": 3323,
      "Ġvoc": 3324,
      "aren": 3325,
      "Ġcultural": 3326,
      "Ġflight": 3327,
      "ĠPortug": 3328,
      "throp": 3329,
      "Ġeas": 3330,
      "Ġphysical": 3331,
      "Ġactress": 3332,
      "estival": 3333,
      "ĠSecond": 3334,
      "Other": 3335,
      "Ġ+": 3336,
      "ĠDist": 3337,
      "ĠLiber": 3338,
      "rative": 3339,
      "Ġsal": 3340,
      "change": 3341,
      "Ġwhom": 3342,
      "Ġens": 3343,
      "Ġnar": 3344,
      "stein": 3345,
      "Ġinj": 3346,
      "ĠMiddle": 3347,
      "Ġdefined": 3348,
      "hood": 3349,
      "edy": 3350,
      "ĠIreland": 3351,
      "itz": 3352,
      "Ġdial": 3353,
      "Ġvari": 3354,
      "ĠTV": 3355,
      "Ġcut": 3356,
      "Ġyou": 3357,
      "Ġcenturies": 3358,
      "Ġrecent": 3359,
      "Ġcomplete": 3360,
      "Ġbatt": 3361,
      "Ġunit": 3362,
      "onst": 3363,
      "Ġstage": 3364,
      "nic": 3365,
      "Ġfuture": 3366,
      "onic": 3367,
      "Ġdocument": 3368,
      "bour": 3369,
      "ĠMary": 3370,
      "NA": 3371,
      "cel": 3372,
      "iance": 3373,
      "Ġproposed": 3374,
      "ĠVol": 3375,
      "otic": 3376,
      "ĠIm": 3377,
      "Ġleader": 3378,
      "ĠEastern": 3379,
      "iant": 3380,
      "ĠCommun": 3381,
      "ĠParis": 3382,
      "Ġ/": 3383,
      "Ġhor": 3384,
      "ector": 3385,
      "Ġbaseball": 3386,
      "Ġapproximately": 3387,
      "izing": 3388,
      "axim": 3389,
      "Ġmultiple": 3390,
      "Ä±": 3391,
      "Ġgive": 3392,
      "Ġcard": 3393,
      "Ġreason": 3394,
      "Ġseparate": 3395,
      "ĠStreet": 3396,
      "Ġdirectly": 3397,
      "ipl": 3398,
      "ĠOlympics": 3399,
      "anced": 3400,
      "ift": 3401,
      "Ġcollection": 3402,
      "ĠSince": 3403,
      "ĠRussia": 3404,
      "aught": 3405,
      "Ġtreatment": 3406,
      "Ġlatter": 3407,
      "ables": 3408,
      "unk": 3409,
      "cont": 3410,
      "Ġsurround": 3411,
      "za": 3412,
      "Ġnumerous": 3413,
      "Ġmatch": 3414,
      "âĢĻ": 3415,
      "ĠGroup": 3416,
      "Ġdaughter": 3417,
      "stra": 3418,
      "Ġsports": 3419,
      "Ġlength": 3420,
      "Ġsmaller": 3421,
      "Ġdeaths": 3422,
      "osing": 3423,
      "Ġshows": 3424,
      "Ġchemical": 3425,
      "bre": 3426,
      "Ġi": 3427,
      "Ġfarm": 3428,
      "ĠMer": 3429,
      "Ġalready": 3430,
      "Ġbetter": 3431,
      "ĠCa": 3432,
      "Ġpolicy": 3433,
      "Ġbur": 3434,
      "Ġalg": 3435,
      "Ġsigned": 3436,
      "ĠSpain": 3437,
      "Ġever": 3438,
      "pped": 3439,
      "Ġnewsp": 3440,
      "Ġsupported": 3441,
      "Ġdivision": 3442,
      "Ġadditional": 3443,
      "SA": 3444,
      "Ġbene": 3445,
      "isms": 3446,
      "vention": 3447,
      "Ġestimated": 3448,
      "ĠJer": 3449,
      "Ġsaf": 3450,
      "Ġalc": 3451,
      "Ġcontract": 3452,
      "annel": 3453,
      "Ġax": 3454,
      "Ġwriters": 3455,
      "ĠIslands": 3456,
      "aring": 3457,
      "Ġtraining": 3458,
      "ĠInter": 3459,
      "Ġanalysis": 3460,
      "ĠSun": 3461,
      "Ġrace": 3462,
      "ĠCongress": 3463,
      "Ġfinancial": 3464,
      "ĠÎ": 3465,
      "ĠVict": 3466,
      "ollowing": 3467,
      "ĠJose": 3468,
      "ĠAngel": 3469,
      "enes": 3470,
      "Ġprofessional": 3471,
      "rupt": 3472,
      "pro": 3473,
      "arter": 3474,
      "ĠHam": 3475,
      "Ġcou": 3476,
      "arly": 3477,
      "Ġmention": 3478,
      "ledge": 3479,
      "war": 3480,
      "People": 3481,
      "Ġteams": 3482,
      "ocratic": 3483,
      "DP": 3484,
      "ena": 3485,
      "Ġtechnology": 3486,
      "ĠKore": 3487,
      "Ġcorrespond": 3488,
      "ĠDu": 3489,
      "Ġnearly": 3490,
      "Ġchanged": 3491,
      "tee": 3492,
      "fl": 3493,
      "ĠCenter": 3494,
      "Ġdeal": 3495,
      "Ġheav": 3496,
      "zech": 3497,
      "Ġsoon": 3498,
      "azine": 3499,
      "part": 3500,
      "ĠMont": 3501,
      "gian": 3502,
      "ĠBill": 3503,
      "Ġenter": 3504,
      "Ġera": 3505,
      "This": 3506,
      ",\"": 3507,
      "Ġcred": 3508,
      "ĠCub": 3509,
      "Ġtransfer": 3510,
      "Ġbehind": 3511,
      "onn": 3512,
      "Ġsettle": 3513,
      "Ġdistinct": 3514,
      "ĠCast": 3515,
      "ĠVir": 3516,
      "aled": 3517,
      "irl": 3518,
      "back": 3519,
      "Ġcust": 3520,
      "Ġappointed": 3521,
      "Ġequip": 3522,
      "ĠKn": 3523,
      "ado": 3524,
      "ĠBell": 3525,
      "ĠGra": 3526,
      "Ġsus": 3527,
      "Ġcolor": 3528,
      "Ġbound": 3529,
      "Ġplaying": 3530,
      "Ġwant": 3531,
      "ental": 3532,
      "vey": 3533,
      "Ġgreater": 3534,
      "akers": 3535,
      "Ġresponse": 3536,
      "ened": 3537,
      "Ġcand": 3538,
      "Ġlaws": 3539,
      "ien": 3540,
      "rich": 3541,
      "Ġwestern": 3542,
      "Ġimplement": 3543,
      "aud": 3544,
      "Ġesc": 3545,
      "mark": 3546,
      "ĠAC": 3547,
      "ĠTra": 3548,
      "Ġlargely": 3549,
      "Ġproperties": 3550,
      "ĠServ": 3551,
      "lected": 3552,
      "ĠSuper": 3553,
      "Ġdram": 3554,
      "Ġconv": 3555,
      "Ġsongs": 3556,
      "heast": 3557,
      "orpor": 3558,
      "Ġdiss": 3559,
      "Ġbreak": 3560,
      "Ġdiscuss": 3561,
      "irds": 3562,
      "Ġstatus": 3563,
      "ĠApple": 3564,
      "ned": 3565,
      "Ġpath": 3566,
      "Ġagric": 3567,
      "Ġbuildings": 3568,
      "standing": 3569,
      "olf": 3570,
      "Ġislands": 3571,
      "Ġhighly": 3572,
      "Ġkeep": 3573,
      "onia": 3574,
      "ĠMag": 3575,
      "ĠHung": 3576,
      "ĠDou": 3577,
      "Ġprior": 3578,
      "Ġactive": 3579,
      "Ġstop": 3580,
      "Ġmove": 3581,
      "ĠAfghan": 3582,
      "Ġcontains": 3583,
      "Ġdivided": 3584,
      "Ġadopted": 3585,
      "ĠRob": 3586,
      "TA": 3587,
      "Ġfemale": 3588,
      "Ġplaces": 3589,
      "ĠTexas": 3590,
      "itors": 3591,
      "Ġpie": 3592,
      "ĠDel": 3593,
      "Ġcentre": 3594,
      "Ġidea": 3595,
      "ĠDon": 3596,
      "ĠParliament": 3597,
      "board": 3598,
      "wide": 3599,
      "Ġimmedi": 3600,
      "Ġpsych": 3601,
      "igen": 3602,
      "ĠYear": 3603,
      "Ġrepresented": 3604,
      "oles": 3605,
      "ption": 3606,
      "phas": 3607,
      "Ġconstitution": 3608,
      "icated": 3609,
      "ĠOtt": 3610,
      "Ġnoted": 3611,
      "De": 3612,
      "ĠFrancis": 3613,
      "ĠClass": 3614,
      "ĠWhite": 3615,
      "Ġanimals": 3616,
      "Ġbomb": 3617,
      "Ġmunicip": 3618,
      "Ġhockey": 3619,
      "Ġthreat": 3620,
      "Ġmainly": 3621,
      "Ġtemperature": 3622,
      "km": 3623,
      "pid": 3624,
      "rown": 3625,
      "ĠMark": 3626,
      "ender": 3627,
      "ression": 3628,
      "Ġappears": 3629,
      "Ġartists": 3630,
      "imal": 3631,
      "Ph": 3632,
      "ares": 3633,
      "ĠAlexand": 3634,
      "ĠScottish": 3635,
      "Ġscholars": 3636,
      "bl": 3637,
      "ĠSant": 3638,
      "Ġclaimed": 3639,
      "FL": 3640,
      "Ġlevels": 3641,
      "ensus": 3642,
      "Ġcarried": 3643,
      "itation": 3644,
      "Ġdecided": 3645,
      "ĠSystem": 3646,
      "izations": 3647,
      "Ġaddress": 3648,
      "olved": 3649,
      "ida": 3650,
      "ĠAnn": 3651,
      "Ġmaintain": 3652,
      "Ġfourth": 3653,
      "ĠBatman": 3654,
      "amily": 3655,
      "ĠDen": 3656,
      "ĠIrish": 3657,
      "ĠTor": 3658,
      "anda": 3659,
      "rying": 3660,
      "Ġcrick": 3661,
      "Ġcompon": 3662,
      "reng": 3663,
      "Ġwriter": 3664,
      "Ġletter": 3665,
      "hi": 3666,
      "Ġcitiz": 3667,
      "ĠAut": 3668,
      "Ġcreate": 3669,
      "Ġfamous": 3670,
      "oke": 3671,
      "Ġfif": 3672,
      "ĠBerlin": 3673,
      "Ġissue": 3674,
      "enth": 3675,
      "Ġcateg": 3676,
      "arc": 3677,
      "ĠPet": 3678,
      "Ġatom": 3679,
      "Ġquick": 3680,
      "enh": 3681,
      "Ġwide": 3682,
      "Ġthous": 3683,
      "Ġrelatively": 3684,
      "Ġbor": 3685,
      "Ġissues": 3686,
      "Ġended": 3687,
      "Ġinitial": 3688,
      "yr": 3689,
      "Ġlook": 3690,
      "Ġforced": 3691,
      "Ġshown": 3692,
      "ĠAlf": 3693,
      "Ġlocation": 3694,
      "Ġwood": 3695,
      "ĠSum": 3696,
      "Ġnation": 3697,
      "ĠMuslim": 3698,
      "ĠBang": 3699,
      "cean": 3700,
      "ithm": 3701,
      "owl": 3702,
      "ĠHistor": 3703,
      "uman": 3704,
      "Ġprec": 3705,
      "Ġvictory": 3706,
      "yer": 3707,
      "icted": 3708,
      "ĠMil": 3709,
      "Ġwind": 3710,
      "ĠCzech": 3711,
      "ada": 3712,
      "Ġsociety": 3713,
      "ĠJews": 3714,
      "inem": 3715,
      "ĠFin": 3716,
      "Ġfunctions": 3717,
      "Ġtaking": 3718,
      "jan": 3719,
      "ĠArmen": 3720,
      "ĠBor": 3721,
      "Ġprograms": 3722,
      "Â°": 3723,
      "Ġmakes": 3724,
      "verse": 3725,
      "ault": 3726,
      "rison": 3727,
      "Ġtable": 3728,
      "OS": 3729,
      "Ġconver": 3730,
      "Ġcoin": 3731,
      "Ġwall": 3732,
      "ĠBos": 3733,
      "Ġfocus": 3734,
      "=\"": 3735,
      "astic": 3736,
      "itt": 3737,
      "ĠDef": 3738,
      "Ġdetail": 3739,
      "ĠBig": 3740,
      "Ġheavy": 3741,
      "According": 3742,
      "ĠRail": 3743,
      "ĠCivil": 3744,
      "ĠJust": 3745,
      "lled": 3746,
      "ĠRecords": 3747,
      "aters": 3748,
      "Ġscript": 3749,
      "Ġtherefore": 3750,
      "Ġnight": 3751,
      "ĠFilm": 3752,
      "atre": 3753,
      "Ġborder": 3754,
      "Ġprimarily": 3755,
      "Ġproperty": 3756,
      "earch": 3757,
      "Ġroad": 3758,
      "ĠArabic": 3759,
      "irm": 3760,
      "ita": 3761,
      "riage": 3762,
      "duc": 3763,
      "Ġwhole": 3764,
      "Ġpoor": 3765,
      "ĠPrize": 3766,
      "Ġdone": 3767,
      "Ġpotential": 3768,
      "ĠCarl": 3769,
      "Ġindependence": 3770,
      "oo": 3771,
      "Ġbecoming": 3772,
      "ĠBron": 3773,
      "ĠAmericans": 3774,
      "Ġrules": 3775,
      "Ġpreviously": 3776,
      "Ġrare": 3777,
      "mad": 3778,
      "Ġmethods": 3779,
      "ech": 3780,
      "Ã§": 3781,
      "ĠMur": 3782,
      "ips": 3783,
      "Ġlegisl": 3784,
      "ĠMusic": 3785,
      "Ġdrug": 3786,
      "Ġweap": 3787,
      "Ġfeatured": 3788,
      "ging": 3789,
      "ĠJud": 3790,
      "Ġhyp": 3791,
      "Ġcompared": 3792,
      "ĠTwo": 3793,
      "emporary": 3794,
      "sec": 3795,
      "Ġplants": 3796,
      "Ġdate": 3797,
      "asty": 3798,
      "ologist": 3799,
      "Ġforest": 3800,
      "ĠTurk": 3801,
      "Pro": 3802,
      "Ġspect": 3803,
      "stitution": 3804,
      "Ġcomplet": 3805,
      "Ġdouble": 3806,
      "inet": 3807,
      "ĠBre": 3808,
      "uter": 3809,
      "use": 3810,
      "Ġdisplay": 3811,
      "ext": 3812,
      "with": 3813,
      "ask": 3814,
      "ĠMore": 3815,
      "ĠMartin": 3816,
      "Ġcounter": 3817,
      "Ġbod": 3818,
      "ĠSaint": 3819,
      "ĠTown": 3820,
      "Ġfederal": 3821,
      "Ġmole": 3822,
      "cles": 3823,
      "Ġdegree": 3824,
      "Ġinn": 3825,
      "Ġmathemat": 3826,
      "ias": 3827,
      "ala": 3828,
      "Ġice": 3829,
      "ĠSeries": 3830,
      "ĠNavy": 3831,
      "Ġgoal": 3832,
      "ĠSouthern": 3833,
      "Is": 3834,
      "ĠBank": 3835,
      "Ġeastern": 3836,
      "Ġcells": 3837,
      "ulations": 3838,
      "onds": 3839,
      "Se": 3840,
      "Ġreform": 3841,
      "Ġdirected": 3842,
      "SC": 3843,
      "illa": 3844,
      "ĠLeg": 3845,
      "Ġships": 3846,
      "ĠHill": 3847,
      "Ġconsum": 3848,
      "Ġwebs": 3849,
      "ĠDr": 3850,
      "ĠWall": 3851,
      "Ġreserv": 3852,
      "which": 3853,
      "ship": 3854,
      "ĠâĢ": 3855,
      "ĠBest": 3856,
      "Ġtrack": 3857,
      "Ġmoney": 3858,
      "Ġsyn": 3859,
      "ĠJoseph": 3860,
      "ĊĠĊ": 3861,
      "Ġded": 3862,
      "Notes": 3863,
      "eff": 3864,
      "ĠWales": 3865,
      "ĠEv": 3866,
      "overy": 3867,
      "Ġfailed": 3868,
      "Ġinvestig": 3869,
      "Ġquestion": 3870,
      "Ġhours": 3871,
      "Ġrat": 3872,
      "Ġenough": 3873,
      "ply": 3874,
      "Ġremaining": 3875,
      "Ġvillage": 3876,
      "Ġpolice": 3877,
      "ĠProv": 3878,
      "Ġconqu": 3879,
      "ĠVictor": 3880,
      "osis": 3881,
      "Ġcompar": 3882,
      "Ġpurch": 3883,
      "ider": 3884,
      "rief": 3885,
      "Ġbasis": 3886,
      "Ġop": 3887,
      "ota": 3888,
      "Ġmeasure": 3889,
      "uge": 3890,
      "ĠOx": 3891,
      "gebra": 3892,
      "Ġcannot": 3893,
      "Ġinhab": 3894,
      "Ġclimate": 3895,
      "pr": 3896,
      "Ġstreng": 3897,
      "Ġsection": 3898,
      "fficient": 3899,
      "band": 3900,
      "can": 3901,
      "Ġactivity": 3902,
      "Ġtarget": 3903,
      "inated": 3904,
      "Ġpressure": 3905,
      "apers": 3906,
      "zz": 3907,
      "alle": 3908,
      "ĠClub": 3909,
      "Ġsuggested": 3910,
      "Ġmurder": 3911,
      "Ġrisk": 3912,
      "ĠMel": 3913,
      "Ġheart": 3914,
      "Ġregional": 3915,
      "Ġassist": 3916,
      "Ġdemonst": 3917,
      "ĠMexico": 3918,
      "win": 3919,
      "ĠSu": 3920,
      "acing": 3921,
      "Ġprison": 3922,
      "ĠBuddh": 3923,
      "Ġprobably": 3924,
      "Ġcandid": 3925,
      "BS": 3926,
      "oral": 3927,
      "Ġintended": 3928,
      "undred": 3929,
      "Ġannual": 3930,
      "hol": 3931,
      "ĠOper": 3932,
      "Ġpassed": 3933,
      "ĠBase": 3934,
      "aceae": 3935,
      "Ã¨": 3936,
      "ĠSol": 3937,
      "Ġspeed": 3938,
      "Ġconsists": 3939,
      "Ġexpans": 3940,
      "Ġsoldiers": 3941,
      "hold": 3942,
      "Ġgrant": 3943,
      "Ġedition": 3944,
      "Ġdefeated": 3945,
      "ĠVirgin": 3946,
      "ĠRom": 3947,
      "Ġsearch": 3948,
      "Ġmedic": 3949,
      "ela": 3950,
      "Ġprovides": 3951,
      "ises": 3952,
      "ĠCyp": 3953,
      "Ġult": 3954,
      "ĠMu": 3955,
      "Ġblue": 3956,
      "Ġsummer": 3957,
      "ĠGovernment": 3958,
      "TV": 3959,
      "comp": 3960,
      "Ġinfluenced": 3961,
      "ĠScotland": 3962,
      "ĪĴ": 3963,
      "unar": 3964,
      "Ġchief": 3965,
      "Ġspread": 3966,
      "hesis": 3967,
      "Ġmemory": 3968,
      "iro": 3969,
      "Ġsens": 3970,
      "iller": 3971,
      "ecause": 3972,
      "well": 3973,
      "ĠInt": 3974,
      "ibly": 3975,
      "Ġcurrently": 3976,
      "ih": 3977,
      "ĠAv": 3978,
      "Ġliterature": 3979,
      "rey": 3980,
      "Ġcombined": 3981,
      "Ġpaper": 3982,
      "Ġlived": 3983,
      "ketball": 3984,
      "ĠAh": 3985,
      "ĠBBC": 3986,
      "Ġresulting": 3987,
      "IC": 3988,
      "istry": 3989,
      "Ġimpact": 3990,
      "Ã¤": 3991,
      "anguage": 3992,
      "Ġlaunched": 3993,
      "ato": 3994,
      "oud": 3995,
      "Ġgraph": 3996,
      "Ġbox": 3997,
      "Ġpresence": 3998,
      "ĠPlay": 3999,
      "urches": 4000,
      "Ġpeace": 4001,
      "Further": 4002,
      "ying": 4003,
      "ĠEs": 4004,
      "opher": 4005,
      "Ġdecision": 4006,
      "ĠLab": 4007,
      "iques": 4008,
      "ĠKar": 4009,
      "ĠLu": 4010,
      "Ġmedal": 4011,
      "opes": 4012,
      "perial": 4013,
      "ĠProt": 4014,
      "Ġreve": 4015,
      "Ġstep": 4016,
      "Ġarran": 4017,
      "ĠRome": 4018,
      "ellig": 4019,
      "bro": 4020,
      "ĠCard": 4021,
      "Ġcontrast": 4022,
      "Ġmatter": 4023,
      "Ġscientific": 4024,
      "Ġawarded": 4025,
      "ĠChe": 4026,
      "ĠDis": 4027,
      "Ġurban": 4028,
      "Ġpric": 4029,
      "iga": 4030,
      "Ġstations": 4031,
      "Ġkind": 4032,
      "ultan": 4033,
      "lection": 4034,
      "Ġdisease": 4035,
      "ĠLake": 4036,
      "rier": 4037,
      "Ġcomposed": 4038,
      "Ġinitially": 4039,
      "AM": 4040,
      "Ġwinning": 4041,
      "ception": 4042,
      "elt": 4043,
      "cluding": 4044,
      "cest": 4045,
      "va": 4046,
      "Ġpun": 4047,
      "Ġrespectively": 4048,
      "iated": 4049,
      "ĠMad": 4050,
      "Ġalph": 4051,
      "Ġprin": 4052,
      "Ġruns": 4053,
      "ĠRevolution": 4054,
      "Ġmiddle": 4055,
      "ĠDepartment": 4056,
      "bury": 4057,
      "ĠBrown": 4058,
      "Ġalgor": 4059,
      "Ġderived": 4060,
      "col": 4061,
      "Ġbig": 4062,
      "Ġsecret": 4063,
      "Ġtakes": 4064,
      "ĠBern": 4065,
      "oston": 4066,
      "Pl": 4067,
      "ĠPrince": 4068,
      "Early": 4069,
      "New": 4070,
      "Ġspl": 4071,
      "ĠLord": 4072,
      "ĠNot": 4073,
      "Ġappearance": 4074,
      "Ġfriend": 4075,
      "Ġexperience": 4076,
      "ĠDistrict": 4077,
      "Ġdespite": 4078,
      "Ġneeded": 4079,
      "Ġsac": 4080,
      "ĠMiss": 4081,
      "Ġmonth": 4082,
      "ĠBah": 4083,
      "raction": 4084,
      "ĠRoad": 4085,
      "arsh": 4086,
      "Ġonline": 4087,
      "Ġblock": 4088,
      "Bl": 4089,
      "ils": 4090,
      "formation": 4091,
      "inner": 4092,
      "ospital": 4093,
      "rif": 4094,
      "bur": 4095,
      "ĠUnder": 4096,
      "ĠColomb": 4097,
      "Ġcreation": 4098,
      "Ġindividuals": 4099,
      "Ġmig": 4100,
      "ĠPac": 4101,
      "Ġchall": 4102,
      "Con": 4103,
      "Ġdecre": 4104,
      "Ġ:": 4105,
      "Ġgrand": 4106,
      "umin": 4107,
      "ĠAlban": 4108,
      "Ġmusical": 4109,
      "ented": 4110,
      "ĠMin": 4111,
      "ĠGreen": 4112,
      "Ġcomment": 4113,
      "Ġtrue": 4114,
      "Ġindustrial": 4115,
      "light": 4116,
      "Ġentered": 4117,
      "atur": 4118,
      "Ġbillion": 4119,
      "Ġrapid": 4120,
      "Ġofficer": 4121,
      "Ġorganization": 4122,
      "Ġexperiment": 4123,
      "Ġ)": 4124,
      "Ġidentified": 4125,
      "Ġreduced": 4126,
      "Ġtheore": 4127,
      "ĠLibrary": 4128,
      "uated": 4129,
      "Ġwoman": 4130,
      "Ġshare": 4131,
      "actions": 4132,
      "adium": 4133,
      "Ġgr": 4134,
      "Ġearliest": 4135,
      "Ġmom": 4136,
      "Ġfinished": 4137,
      "Ġcry": 4138,
      "Ġsuc": 4139,
      "ĠOrder": 4140,
      "Ġalternative": 4141,
      "Ġflu": 4142,
      "Ġobjects": 4143,
      "bai": 4144,
      "ua": 4145,
      "otion": 4146,
      "ulpt": 4147,
      "Ġexc": 4148,
      "Ġoperation": 4149,
      "Ġbelief": 4150,
      "English": 4151,
      "AC": 4152,
      "ĠÂ": 4153,
      "ilies": 4154,
      "iform": 4155,
      "ĠAsh": 4156,
      "Ġyet": 4157,
      "road": 4158,
      "Ġassum": 4159,
      "tters": 4160,
      "ĠTele": 4161,
      "ety": 4162,
      "Ġenem": 4163,
      "Ġcontrovers": 4164,
      "Ġactivities": 4165,
      "Ġmaterials": 4166,
      "ĠCambridge": 4167,
      "Ġbr": 4168,
      "illed": 4169,
      "Ġolder": 4170,
      "Ġir": 4171,
      "iled": 4172,
      "ĠTom": 4173,
      "rack": 4174,
      "Ġrecords": 4175,
      "estic": 4176,
      "lav": 4177,
      "Ġability": 4178,
      "Ġincorpor": 4179,
      "zerbai": 4180,
      "ĠPan": 4181,
      "ĠThat": 4182,
      "enz": 4183,
      "ĠCur": 4184,
      "Ġuniversity": 4185,
      "ructed": 4186,
      "Ġmix": 4187,
      "Ġprogress": 4188,
      "Ġattrib": 4189,
      "Ġaccepted": 4190,
      "Ġstars": 4191,
      "ĠScience": 4192,
      "Ġoffered": 4193,
      "Ġey": 4194,
      "cons": 4195,
      "Ġmis": 4196,
      "Ġpreserv": 4197,
      "Ġmedical": 4198,
      "ĠTechn": 4199,
      "Ġwebsite": 4200,
      "fect": 4201,
      "tical": 4202,
      "gent": 4203,
      "water": 4204,
      "Ġpil": 4205,
      "Ġfort": 4206,
      "ĠVer": 4207,
      "Ġspirit": 4208,
      "obile": 4209,
      "king": 4210,
      "wer": 4211,
      "ĠCop": 4212,
      "ĠEr": 4213,
      "ĠGreece": 4214,
      "Ã³n": 4215,
      "lict": 4216,
      "aling": 4217,
      "aland": 4218,
      "acc": 4219,
      "Ġbehavior": 4220,
      "ĠGo": 4221,
      "Ġdon": 4222,
      "ĠCarol": 4223,
      "ĠLos": 4224,
      "orders": 4225,
      "Ġemp": 4226,
      "Ġalcoh": 4227,
      "Ab": 4228,
      "ublican": 4229,
      "velopment": 4230,
      "ĠColumbia": 4231,
      "Ġcommunities": 4232,
      "Ġsucceed": 4233,
      "rations": 4234,
      "edom": 4235,
      "Ġspent": 4236,
      "By": 4237,
      "Ġtree": 4238,
      "Ġautom": 4239,
      "Ġsense": 4240,
      "aily": 4241,
      "Ġsubs": 4242,
      "oration": 4243,
      "ĠCamp": 4244,
      "Ġbring": 4245,
      "imb": 4246,
      "Ġconne": 4247,
      "Ġamb": 4248,
      "Ġinstrument": 4249,
      "ully": 4250,
      "Ġdeep": 4251,
      "Ġletters": 4252,
      "Ġattacks": 4253,
      "ees": 4254,
      "ĠJul": 4255,
      "Ġprem": 4256,
      "ĠCommon": 4257,
      "ĠAnton": 4258,
      "Ġpattern": 4259,
      "ĠPo": 4260,
      "Ġarrest": 4261,
      "Ġcontinue": 4262,
      "Ġturned": 4263,
      "nia": 4264,
      "Ġnative": 4265,
      "ĠTheir": 4266,
      "thod": 4267,
      "Ġalk": 4268,
      "Ġexhib": 4269,
      "Ġresponsible": 4270,
      "mission": 4271,
      "ĠCroatia": 4272,
      "acity": 4273,
      "Ġconstant": 4274,
      "Ġexpansion": 4275,
      "add": 4276,
      "ĠFootball": 4277,
      "ĊĊĠ": 4278,
      "Ġcomposer": 4279,
      "Ġoperating": 4280,
      "aria": 4281,
      "Ġartist": 4282,
      "Some": 4283,
      "Ġbasic": 4284,
      "Ġglobal": 4285,
      "Ġmachine": 4286,
      "alo": 4287,
      "ĠSqu": 4288,
      "Ġclassical": 4289,
      "Ġpresented": 4290,
      "ĠMah": 4291,
      "Ġqual": 4292,
      "Ġcitizens": 4293,
      "ĠSir": 4294,
      "ĠOff": 4295,
      "ographic": 4296,
      "rical": 4297,
      "ĠBoston": 4298,
      "ĠSk": 4299,
      "ograp": 4300,
      "Ġphilosophy": 4301,
      "ĠAtlantic": 4302,
      "Ġrise": 4303,
      "Ġmodels": 4304,
      "force": 4305,
      "ygen": 4306,
      "Ġleaving": 4307,
      "Ġclosed": 4308,
      "gency": 4309,
      "iring": 4310,
      "ogen": 4311,
      "Ġslow": 4312,
      "Ġpossess": 4313,
      "Ġpron": 4314,
      "Ġdefeat": 4315,
      "rog": 4316,
      "Ġupper": 4317,
      "akh": 4318,
      "Ġlaunch": 4319,
      "arters": 4320,
      "ube": 4321,
      "ĠAnother": 4322,
      "Ġethnic": 4323,
      "oken": 4324,
      "ĠâĢĶ": 4325,
      "Ġprovince": 4326,
      "ĠDire": 4327,
      "ĠRock": 4328,
      "anning": 4329,
      "Ġauthority": 4330,
      "Ġcompetition": 4331,
      "Ġsuggest": 4332,
      "oring": 4333,
      "Ġprogramming": 4334,
      "Sh": 4335,
      "ams": 4336,
      "Ġparties": 4337,
      "Ġresulted": 4338,
      "Ġhistorian": 4339,
      "Ġquickly": 4340,
      "When": 4341,
      "ittle": 4342,
      "Ġaspect": 4343,
      "ĠGeorg": 4344,
      "Ġreligion": 4345,
      "Ġfigure": 4346,
      "Ġdistribution": 4347,
      "ĠBob": 4348,
      "Ġsculpt": 4349,
      "ĠGames": 4350,
      "ressed": 4351,
      "ortun": 4352,
      "ĠFer": 4353,
      "Ġapproach": 4354,
      "ĠChic": 4355,
      "Ġvalues": 4356,
      "Ġextended": 4357,
      "Ġequipment": 4358,
      "Ġbrief": 4359,
      "overs": 4360,
      "ensity": 4361,
      "Ġepisode": 4362,
      "Ġburn": 4363,
      "lem": 4364,
      "ette": 4365,
      "Ġstructures": 4366,
      "Ġfrequently": 4367,
      "la": 4368,
      "yal": 4369,
      "ĠLand": 4370,
      "Ġallowing": 4371,
      "Ġjournalist": 4372,
      "lines": 4373,
      "hire": 4374,
      "ĠSur": 4375,
      "amin": 4376,
      "ĠKe": 4377,
      "Ġformation": 4378,
      "Ġcharge": 4379,
      "Ġargued": 4380,
      "Ġcourse": 4381,
      "ĠEdward": 4382,
      "BA": 4383,
      "eks": 4384,
      "Ġsen": 4385,
      "Ġstaff": 4386,
      "Ġcalcul": 4387,
      "ĠRadio": 4388,
      "Ġour": 4389,
      "icians": 4390,
      "ĠSil": 4391,
      "ĠMoon": 4392,
      "ĠJes": 4393,
      "Ġcharg": 4394,
      "Ġagreement": 4395,
      "Ġhundred": 4396,
      "uese": 4397,
      "ĠAzerbai": 4398,
      "Ġnomin": 4399,
      "izes": 4400,
      "ieval": 4401,
      "Ġadj": 4402,
      "Ġantib": 4403,
      "Ġbenef": 4404,
      "Ġshot": 4405,
      "Ġopening": 4406,
      "mitted": 4407,
      "ternet": 4408,
      "Ġdistance": 4409,
      "Ġtun": 4410,
      "Ġbal": 4411,
      "Ġreaction": 4412,
      "Ġweight": 4413,
      "Ġeffective": 4414,
      "Ġfighting": 4415,
      "Ġx": 4416,
      "ĠJohnson": 4417,
      "Ġoccurred": 4418,
      "ĠMa": 4419,
      "Ġcouncil": 4420,
      "Ġcollect": 4421,
      "Ġfinally": 4422,
      "Ġinterpret": 4423,
      "song": 4424,
      "Ġalgebra": 4425,
      "Ġaim": 4426,
      "ĠTest": 4427,
      "ĠJo": 4428,
      "Ġbelong": 4429,
      "Ġbecomes": 4430,
      "thodox": 4431,
      "Ġ#": 4432,
      "Ġdead": 4433,
      "Ġelectric": 4434,
      "ping": 4435,
      "ĠCommission": 4436,
      "Ġversions": 4437,
      "\"),": 4438,
      "ĠOttoman": 4439,
      "lades": 4440,
      "ĠAM": 4441,
      "Ġformal": 4442,
      "ĠAbb": 4443,
      "more": 4444,
      "uls": 4445,
      "Ġapplied": 4446,
      "vement": 4447,
      "Ġconserv": 4448,
      "yst": 4449,
      "see": 4450,
      "nam": 4451,
      "Ġnine": 4452,
      "crete": 4453,
      "Ġinternal": 4454,
      "Ġrecon": 4455,
      "Ġreject": 4456,
      "ĠBoth": 4457,
      "Ġwithd": 4458,
      "Ġmess": 4459,
      "Ġreach": 4460,
      "ĠNations": 4461,
      "Ġplays": 4462,
      "Ġhelped": 4463,
      "Ġfigures": 4464,
      "Ġut": 4465,
      "ĠAri": 4466,
      "Ġvary": 4467,
      "ella": 4468,
      "ĠTim": 4469,
      "Ġnotable": 4470,
      "Ġhumans": 4471,
      "Ġavoid": 4472,
      "ĠLife": 4473,
      "Ġfriends": 4474,
      "Ġinstitutions": 4475,
      "amm": 4476,
      "Ġcompounds": 4477,
      "Ġemphas": 4478,
      "Ġequal": 4479,
      "ĠFamily": 4480,
      "agon": 4481,
      "Ġrot": 4482,
      "Ġsexual": 4483,
      "uan": 4484,
      "Ġpositive": 4485,
      "ĠQueen": 4486,
      "dis": 4487,
      "ĠBi": 4488,
      "ĠPrime": 4489,
      "Ġadministration": 4490,
      "Ġmountain": 4491,
      "ĠCorn": 4492,
      "Comp": 4493,
      "ĠChile": 4494,
      "fficial": 4495,
      "ĠAngeles": 4496,
      "Ġbass": 4497,
      "ĠSub": 4498,
      "encies": 4499,
      "ĠSing": 4500,
      "ĠDo": 4501,
      "ighter": 4502,
      "Ġleaders": 4503,
      "Ġfer": 4504,
      "Ġelections": 4505,
      "Ã¡n": 4506,
      "Ġmagazine": 4507,
      "AT": 4508,
      "Ġtend": 4509,
      "Ġknowledge": 4510,
      "iary": 4511,
      "tar": 4512,
      "Ġordered": 4513,
      "aging": 4514,
      "Ġsets": 4515,
      "zant": 4516,
      "Ġlif": 4517,
      "Ġnews": 4518,
      "Ġmanagement": 4519,
      "Ġobserved": 4520,
      "from": 4521,
      "Ġharm": 4522,
      "oura": 4523,
      "ĠOl": 4524,
      "Ġrunning": 4525,
      "Ġmarriage": 4526,
      "Ġfavor": 4527,
      "rum": 4528,
      "ano": 4529,
      "Ġface": 4530,
      "Ġrepe": 4531,
      "Ġsubst": 4532,
      "Ġclaims": 4533,
      "ID": 4534,
      "Ġlic": 4535,
      "ieties": 4536,
      "Ġdirection": 4537,
      "Ġcorre": 4538,
      "ĠSund": 4539,
      "Ġstudent": 4540,
      "Ġmonarch": 4541,
      "Ġsimple": 4542,
      "Ġcondition": 4543,
      "ĠInc": 4544,
      "Ġuns": 4545,
      "ĠNews": 4546,
      "Ġconflict": 4547,
      "ĠZealand": 4548,
      "Ġmicro": 4549,
      "Ġcontact": 4550,
      "Ġmarked": 4551,
      "Ġsubsequently": 4552,
      "ĠPacific": 4553,
      "Ġdark": 4554,
      "ĠPre": 4555,
      "ĠOs": 4556,
      "Ġtex": 4557,
      "Ġallows": 4558,
      "kins": 4559,
      "rm": 4560,
      "ĠPublic": 4561,
      "ĠRh": 4562,
      "Ġprotect": 4563,
      "Ġideas": 4564,
      "Ġcontaining": 4565,
      "Ġdra": 4566,
      "Ġstarting": 4567,
      "Ġdeclared": 4568,
      "Ġfish": 4569,
      "Ġfolk": 4570,
      "Ġhot": 4571,
      "Ġexamples": 4572,
      "ĠSecret": 4573,
      "Ġweeks": 4574,
      "ĠBarb": 4575,
      "Ġnecessary": 4576,
      "ĠTri": 4577,
      "Ġexpected": 4578,
      "ansas": 4579,
      "Ġcollege": 4580,
      "iplom": 4581,
      "ken": 4582,
      "oir": 4583,
      "orter": 4584,
      "Ġpal": 4585,
      "Ġpasseng": 4586,
      "Ġhy": 4587,
      "ĠAssembly": 4588,
      "Ġhar": 4589,
      "Ġsynt": 4590,
      "Ġreplace": 4591,
      "oln": 4592,
      "Ġinterview": 4593,
      "Ġpositions": 4594,
      "Ġillust": 4595,
      "rin": 4596,
      "Ġcomes": 4597,
      "Ġfollows": 4598,
      "level": 4599,
      "rie": 4600,
      "Ġmuseum": 4601,
      "rine": 4602,
      "Ġfully": 4603,
      "Ġprovin": 4604,
      "Ġliber": 4605,
      "FA": 4606,
      "Ġfamilies": 4607,
      "wise": 4608,
      "ĠChap": 4609,
      "Ġserious": 4610,
      "Ġsites": 4611,
      "Ġbrain": 4612,
      "Ġbranch": 4613,
      "ĠBir": 4614,
      "Ġtechniques": 4615,
      "itable": 4616,
      "Ġcru": 4617,
      "Ġancest": 4618,
      "iger": 4619,
      "ĠUN": 4620,
      "ĠViet": 4621,
      "Ġslight": 4622,
      "ny": 4623,
      "iy": 4624,
      "Ġphen": 4625,
      "Ġhol": 4626,
      "Ġ(),": 4627,
      "Ġadult": 4628,
      "Ġearth": 4629,
      "ĠChicago": 4630,
      "inity": 4631,
      "Ġsimply": 4632,
      "kin": 4633,
      "ĠBol": 4634,
      "range": 4635,
      "Ġdistingu": 4636,
      "ivalent": 4637,
      "ederation": 4638,
      "Ġseat": 4639,
      "ĠLee": 4640,
      "Ġmentioned": 4641,
      "ducation": 4642,
      "ĠOxford": 4643,
      "Ġtold": 4644,
      "thing": 4645,
      "Ġconsequ": 4646,
      "ĠOut": 4647,
      "ĠAirport": 4648,
      "With": 4649,
      "Ġminister": 4650,
      "osen": 4651,
      "ells": 4652,
      "ĠSerb": 4653,
      "Mus": 4654,
      "get": 4655,
      "Ġquality": 4656,
      "Ġrang": 4657,
      "Ġremoved": 4658,
      "ĠTem": 4659,
      "Ġresistance": 4660,
      "Ġagreed": 4661,
      "ĠTro": 4662,
      "ĠBet": 4663,
      "Ġstay": 4664,
      "Ġoldest": 4665,
      "ishes": 4666,
      "ugby": 4667,
      "imens": 4668,
      "ĠEp": 4669,
      "Ġsector": 4670,
      "cluded": 4671,
      "Ġprominent": 4672,
      "igenous": 4673,
      "icit": 4674,
      "Ġdefinition": 4675,
      "Ġdu": 4676,
      "ĠSo": 4677,
      "Ġstra": 4678,
      "Ġofficially": 4679,
      "oured": 4680,
      "odia": 4681,
      "ĠJim": 4682,
      "ĠJean": 4683,
      "ibb": 4684,
      "Ġserve": 4685,
      "chester": 4686,
      "Brit": 4687,
      "ĠWinter": 4688,
      "teen": 4689,
      "Ġreference": 4690,
      "Ġmoment": 4691,
      "Ġdro": 4692,
      "Ġgiving": 4693,
      "ĠTurkey": 4694,
      "AR": 4695,
      "iral": 4696,
      "Ġbasketball": 4697,
      "EC": 4698,
      "osm": 4699,
      "ĠOrgan": 4700,
      "Ġbacter": 4701,
      "ĠAst": 4702,
      "Ġgives": 4703,
      "Ġcat": 4704,
      "ĠHel": 4705,
      "rone": 4706,
      "Ġrain": 4707,
      "incoln": 4708,
      "Ġdebut": 4709,
      "Ġplanned": 4710,
      "Ġadapt": 4711,
      "ĠSpace": 4712,
      "Ġdepend": 4713,
      "Ġsecurity": 4714,
      "stone": 4715,
      "oting": 4716,
      "ĠHow": 4717,
      "ĠNAS": 4718,
      "antage": 4719,
      "Ind": 4720,
      "Ġec": 4721,
      "Ġrefers": 4722,
      "Ġpaint": 4723,
      "Ġimmig": 4724,
      "ĠThus": 4725,
      "Ġemb": 4726,
      "Ġextra": 4727,
      "Ġsymbol": 4728,
      "ctors": 4729,
      "ounded": 4730,
      "Ġactually": 4731,
      "arents": 4732,
      "Ġpit": 4733,
      "ĠIran": 4734,
      "ĠOlympic": 4735,
      "Ġneut": 4736,
      "Ġclubs": 4737,
      "ache": 4738,
      "ĠResearch": 4739,
      "Ġarchitecture": 4740,
      "ĠAber": 4741,
      "chestra": 4742,
      "ĠBuddha": 4743,
      "Ġarticle": 4744,
      "ennis": 4745,
      "ructure": 4746,
      "Ġetc": 4747,
      "ĠAfghanistan": 4748,
      "Ġcontemporary": 4749,
      "Ġprep": 4750,
      "ĠPeople": 4751,
      "Ġdynasty": 4752,
      "ĠPortuguese": 4753,
      "Ġimmediately": 4754,
      "Ġcontent": 4755,
      "ait": 4756,
      "rants": 4757,
      "orage": 4758,
      "ĠBall": 4759,
      "Ġorbit": 4760,
      "Ġchurches": 4761,
      "Ġgovernor": 4762,
      "FC": 4763,
      "ĠMos": 4764,
      "inistry": 4765,
      "Ġthink": 4766,
      "Ġvote": 4767,
      "Ġoccurs": 4768,
      "ĠTreat": 4769,
      "Ġevolution": 4770,
      "Ġminutes": 4771,
      "Ge": 4772,
      "iÄ": 4773,
      "Ġreact": 4774,
      "Ġchart": 4775,
      "cription": 4776,
      "Ġcaptured": 4777,
      "Ġfoot": 4778,
      "Ġmaxim": 4779,
      "Ġunion": 4780,
      "ĠAdm": 4781,
      "Ġanimal": 4782,
      "ĠTurkish": 4783,
      "Sp": 4784,
      "iced": 4785,
      "iments": 4786,
      "Ġalle": 4787,
      "Ġbrand": 4788,
      "ĠTimes": 4789,
      "ĠHaw": 4790,
      "Ġoxygen": 4791,
      "ancy": 4792,
      "align": 4793,
      "ĠSar": 4794,
      "Ġgrew": 4795,
      "Ġstories": 4796,
      "ĠJos": 4797,
      "Ġlawyer": 4798,
      "Ġefforts": 4799,
      "Ġple": 4800,
      "Ġpowers": 4801,
      "iah": 4802,
      "Ġroyal": 4803,
      "ĠYoung": 4804,
      "Ġmixed": 4805,
      "ĠAk": 4806,
      "amine": 4807,
      "ĠLater": 4808,
      "Ġnuclear": 4809,
      "',": 4810,
      "Ġgun": 4811,
      "thlet": 4812,
      "Ġvirt": 4813,
      "Ġalbums": 4814,
      "ĠElect": 4815,
      "ifically": 4816,
      "Ġexchange": 4817,
      "ellow": 4818,
      "Ġcommission": 4819,
      "venue": 4820,
      "One": 4821,
      "oned": 4822,
      "ĠLove": 4823,
      "Ġopposed": 4824,
      "Ġexistence": 4825,
      "ifying": 4826,
      "Ġmill": 4827,
      "ĠBible": 4828,
      "Ġimpl": 4829,
      "Ġspeech": 4830,
      "ĠSocial": 4831,
      "mas": 4832,
      "pired": 4833,
      "ĠFour": 4834,
      "ĠJac": 4835,
      "ocal": 4836,
      "akistan": 4837,
      "Ġeffic": 4838,
      "Ġinside": 4839,
      "Ġapplications": 4840,
      "ĠAge": 4841,
      "ĠMajor": 4842,
      "illery": 4843,
      "Ġund": 4844,
      "ĠAthens": 4845,
      "SP": 4846,
      "ĠDespite": 4847,
      "Be": 4848,
      "Ġpurpose": 4849,
      "Film": 4850,
      "Ġresources": 4851,
      "Ġspoken": 4852,
      "ĠBlue": 4853,
      "ĠService": 4854,
      "greg": 4855,
      "Ġbott": 4856,
      "ĠMat": 4857,
      "Ġvon": 4858,
      "ĠYou": 4859,
      "ackson": 4860,
      "Ġestablishments": 4861,
      "Ġexpressed": 4862,
      "alism": 4863,
      "Ġlabor": 4864,
      "Ġraised": 4865,
      "ĠByzant": 4866,
      "Ġoverall": 4867,
      "Ġissued": 4868,
      "car": 4869,
      "down": 4870,
      "uty": 4871,
      "Ġauth": 4872,
      "etherlands": 4873,
      "Ġgained": 4874,
      "ĠLew": 4875,
      "rong": 4876,
      "enant": 4877,
      "Ġanthrop": 4878,
      "Ġpoll": 4879,
      "Ġlove": 4880,
      "Ġadvert": 4881,
      "iverse": 4882,
      "Ġasked": 4883,
      "racy": 4884,
      "ĠNic": 4885,
      "Ġscore": 4886,
      "ĠOrthodox": 4887,
      "Ġrecognized": 4888,
      "Ġnewspaper": 4889,
      "Ġways": 4890,
      "Ġreign": 4891,
      "usion": 4892,
      "een": 4893,
      "itted": 4894,
      "ĠStar": 4895,
      "awa": 4896,
      "BM": 4897,
      "itage": 4898,
      "aska": 4899,
      "ĠFlor": 4900,
      "Ġdepart": 4901,
      "Ġhydrogen": 4902,
      "isher": 4903,
      "ĠAud": 4904,
      "Ġthings": 4905,
      "usal": 4906,
      "Ġwanted": 4907,
      "ĠCost": 4908,
      "Ġalign": 4909,
      "rates": 4910,
      "Ġopposition": 4911,
      "ĠNet": 4912,
      "ĠCommit": 4913,
      "Ġsport": 4914,
      "olis": 4915,
      "ulate": 4916,
      "agen": 4917,
      "Ġvan": 4918,
      "Ġdecades": 4919,
      "eral": 4920,
      "Ġfast": 4921,
      "Ġpp": 4922,
      "omers": 4923,
      "ĠUr": 4924,
      "ogy": 4925,
      "poration": 4926,
      "Ġnucle": 4927,
      "Ġapparent": 4928,
      "Ġcapacity": 4929,
      "Ġsecondary": 4930,
      "Ġgrowing": 4931,
      "Ġmyth": 4932,
      "aph": 4933,
      "ĠPolish": 4934,
      "Ġnormal": 4935,
      "Ġbit": 4936,
      "Ġbeat": 4937,
      "Ġstru": 4938,
      "acher": 4939,
      "Ġdedicated": 4940,
      "\").": 4941,
      "Ġpark": 4942,
      "Ġmut": 4943,
      "ĠAndrew": 4944,
      "Ġengineering": 4945,
      "bu": 4946,
      "uate": 4947,
      "Ġjoint": 4948,
      "edia": 4949,
      "ĠSultan": 4950,
      "ĠStep": 4951,
      "Ġrecently": 4952,
      "ĠIslamic": 4953,
      "--": 4954,
      "ĠFort": 4955,
      "ĠAlso": 4956,
      "ĠAdd": 4957,
      "Ġregarded": 4958,
      "allel": 4959,
      "ura": 4960,
      "aka": 4961,
      "Ġtrain": 4962,
      "Ġnob": 4963,
      "Ġexact": 4964,
      "Ġplat": 4965,
      "fess": 4966,
      "ĠBeng": 4967,
      "ĠJack": 4968,
      "elsh": 4969,
      "Ġowned": 4970,
      "ĠEmperor": 4971,
      "Ġsurrounding": 4972,
      "ĠDuke": 4973,
      "Ġsplit": 4974,
      "ĠFestival": 4975,
      "antry": 4976,
      "mann": 4977,
      "Ġbra": 4978,
      "Ġlunar": 4979,
      "Ġscored": 4980,
      "Ġwinter": 4981,
      "umni": 4982,
      "Ġmeeting": 4983,
      "Ġvehicles": 4984,
      "Ġcompletely": 4985,
      "isf": 4986,
      "Ġpair": 4987,
      "ĠMo": 4988,
      "Ġbey": 4989,
      "ners": 4990,
      "ĠSab": 4991,
      "thur": 4992,
      "osa": 4993,
      "ĠUp": 4994,
      "claim": 4995,
      "ĠLincoln": 4996,
      "Ġshowed": 4997,
      "Ġuniverse": 4998,
      "Ġvow": 4999,
      "ounder": 5000,
      "Ġplans": 5001,
      "Ġstudied": 5002,
      "Ġcritical": 5003,
      "Ġalcohol": 5004,
      "mosp": 5005,
      "Ġwear": 5006,
      "Ġnotes": 5007,
      "Ġarrived": 5008,
      "songwriter": 5009,
      "ione": 5010,
      "ĠWood": 5011,
      "ĠSpecial": 5012,
      "ĠAmaz": 5013,
      "Ġsignificantly": 5014,
      "Ġinhabit": 5015,
      "book": 5016,
      "ns": 5017,
      "uting": 5018,
      "Ġjob": 5019,
      "Ġmeant": 5020,
      "Ġdoub": 5021,
      "Ġsaying": 5022,
      "ĠNob": 5023,
      "achus": 5024,
      "Ġnegative": 5025,
      "Ġdestroyed": 5026,
      "Ġsolution": 5027,
      "iling": 5028,
      "Ġnit": 5029,
      "imin": 5030,
      "Ġconvers": 5031,
      "Ġseem": 5032,
      "ĠConserv": 5033,
      "ĠNetherlands": 5034,
      "zen": 5035,
      "Ġiron": 5036,
      "ĠCE": 5037,
      "ĠRo": 5038,
      "ĠFollowing": 5039,
      "ĠConstitution": 5040,
      "Ġterritories": 5041,
      "such": 5042,
      "entially": 5043,
      "From": 5044,
      "Ġhab": 5045,
      "Ġunique": 5046,
      "Ġimage": 5047,
      "Ġflow": 5048,
      "ĠShah": 5049,
      "wan": 5050,
      "agh": 5051,
      "Ġkingdom": 5052,
      "ĠHoly": 5053,
      "Ġfaith": 5054,
      "ĠAlfred": 5055,
      "uer": 5056,
      "ĠNap": 5057,
      "Ġhere": 5058,
      "Ġrough": 5059,
      "lies": 5060,
      "onian": 5061,
      "ĠCP": 5062,
      "ĠWomen": 5063,
      "Ġseasons": 5064,
      "Although": 5065,
      "ĠValley": 5066,
      "Ġsubsequent": 5067,
      "eding": 5068,
      "Ġrein": 5069,
      "ĠPen": 5070,
      "Ġrecomm": 5071,
      "Ġmotor": 5072,
      "ooth": 5073,
      "Ġorganizations": 5074,
      "Ġlisted": 5075,
      "ĠCommittee": 5076,
      "iot": 5077,
      "ĠMP": 5078,
      "Ġexclus": 5079,
      "Ġattention": 5080,
      "ĠColor": 5081,
      "Ġdescript": 5082,
      "onym": 5083,
      "Ġbeyond": 5084,
      "ĠPope": 5085,
      "uda": 5086,
      "Ġmotion": 5087,
      "ii": 5088,
      "unction": 5089,
      "hess": 5090,
      "Ġquarter": 5091,
      "garia": 5092,
      "life": 5093,
      "where": 5094,
      "Ġunknown": 5095,
      "Ġneighbor": 5096,
      "ĠAch": 5097,
      "Ġchlor": 5098,
      "Ġleave": 5099,
      "ĠArk": 5100,
      "ĠAbd": 5101,
      "Ġpowerful": 5102,
      "Ġsilver": 5103,
      "mond": 5104,
      "itzer": 5105,
      "Ġextensive": 5106,
      "ĠDi": 5107,
      "Ġstudio": 5108,
      "Ġfactors": 5109,
      "Ġkept": 5110,
      "Ġsettlement": 5111,
      "yan": 5112,
      "Ġindu": 5113,
      "ĠPenn": 5114,
      "place": 5115,
      "Ġcombination": 5116,
      "Ġrailway": 5117,
      "ĠDemocratic": 5118,
      "Ġtexts": 5119,
      "vis": 5120,
      "anes": 5121,
      "enty": 5122,
      "Ġprefer": 5123,
      "Ġwealth": 5124,
      "Ġattempted": 5125,
      "Ġacquired": 5126,
      "Ġdiplom": 5127,
      "uration": 5128,
      "etts": 5129,
      "ĠAsian": 5130,
      "Ġexpanded": 5131,
      "ĠMexican": 5132,
      "%,": 5133,
      "AF": 5134,
      "Since": 5135,
      "Ġbirds": 5136,
      "ĠÂ£": 5137,
      "Ġones": 5138,
      "ĠHeb": 5139,
      "Ġcovered": 5140,
      "ĠFe": 5141,
      "Ġperman": 5142,
      "Ġgreatest": 5143,
      "onso": 5144,
      "Ġgain": 5145,
      "ĠWal": 5146,
      "Ġconnected": 5147,
      "Ġprotection": 5148,
      "Ġdetermined": 5149,
      "Ġvehicle": 5150,
      "SM": 5151,
      "Ġcart": 5152,
      "Ġpack": 5153,
      "aped": 5154,
      "class": 5155,
      "ĠStand": 5156,
      "Ġmoving": 5157,
      "Ġimportance": 5158,
      "Ġachieved": 5159,
      "ois": 5160,
      "Ġtourn": 5161,
      "ĠMid": 5162,
      "Ġaband": 5163,
      "Ġcoal": 5164,
      "Ġhands": 5165,
      "Ġshared": 5166,
      "Ġfifth": 5167,
      "Ġsister": 5168,
      "Ġscene": 5169,
      "Ġinstance": 5170,
      "ilding": 5171,
      "Ġaccomp": 5172,
      "ĠMem": 5173,
      "Ġcle": 5174,
      "ĠLad": 5175,
      "Ġreflect": 5176,
      "ĠBroad": 5177,
      "Ġsequence": 5178,
      "Ġroute": 5179,
      "ĠDevelopment": 5180,
      "Ġparliament": 5181,
      "dam": 5182,
      "ĠBan": 5183,
      "ĠPakistan": 5184,
      "Ġprime": 5185,
      "Ġcerem": 5186,
      "Ġtowns": 5187,
      "adron": 5188,
      "ĠWay": 5189,
      "ĠArts": 5190,
      "ati": 5191,
      "azz": 5192,
      "Ġoppon": 5193,
      "Ġclosely": 5194,
      "ĠOver": 5195,
      "AD": 5196,
      "including": 5197,
      "Ġhero": 5198,
      "outheast": 5199,
      "Ġofficers": 5200,
      "Ġgoing": 5201,
      "Ġattempts": 5202,
      "ĠBelg": 5203,
      "roll": 5204,
      "ĠAj": 5205,
      "urb": 5206,
      "Ġchampionship": 5207,
      "Ġbelieve": 5208,
      "ĠAnglican": 5209,
      "ĠBak": 5210,
      "Ġfields": 5211,
      "Ġidentity": 5212,
      "haps": 5213,
      "Ġactions": 5214,
      "ora": 5215,
      "ĠCamer": 5216,
      "arden": 5217,
      "Ġextrem": 5218,
      "inners": 5219,
      "Ġopportun": 5220,
      "Ġsituation": 5221,
      "Ġcommunication": 5222,
      "ĠTime": 5223,
      "isted": 5224,
      "roduction": 5225,
      "Ġcombat": 5226,
      "ĠBaseball": 5227,
      "fin": 5228,
      "gn": 5229,
      "ĠJackson": 5230,
      "Ġseek": 5231,
      "Ġring": 5232,
      "Ġdifference": 5233,
      "Ġlands": 5234,
      "Ġsquare": 5235,
      "Ġinstruments": 5236,
      "Ġcricket": 5237,
      "house": 5238,
      "Ġfixed": 5239,
      "Ġpet": 5240,
      "osaur": 5241,
      "ĠLong": 5242,
      "ĠLabor": 5243,
      "Ġworkers": 5244,
      "Ġtrees": 5245,
      "Ġmunicipal": 5246,
      "wing": 5247,
      "heim": 5248,
      "Ġpolitics": 5249,
      "ĠBanglades": 5250,
      "ĠLewis": 5251,
      "Ġhun": 5252,
      "Ġgreen": 5253,
      "ĠOf": 5254,
      "Ġconducted": 5255,
      "Can": 5256,
      "era": 5257,
      "Ġparents": 5258,
      "ĠCat": 5259,
      "ĠBru": 5260,
      "ĠGovernor": 5261,
      "present": 5262,
      "Ġban": 5263,
      "Ġmel": 5264,
      "ĠRod": 5265,
      "Ġarc": 5266,
      "ĠOh": 5267,
      "ĠConstant": 5268,
      "yth": 5269,
      "ĠGre": 5270,
      "Ġparticles": 5271,
      "Ġdevice": 5272,
      "Ġfleet": 5273,
      "Man": 5274,
      "unct": 5275,
      "ĠDar": 5276,
      "ĠEst": 5277,
      "Ġwrite": 5278,
      "Ġleadership": 5279,
      "ĠRepublican": 5280,
      "ĠSupreme": 5281,
      "ĠSwedish": 5282,
      "ĠFrancisco": 5283,
      "Ġsays": 5284,
      "olar": 5285,
      "ĠBecause": 5286,
      "Ġshoot": 5287,
      "Ġpeak": 5288,
      "Ġsupply": 5289,
      "ĠBCE": 5290,
      "Ġsuffered": 5291,
      "Des": 5292,
      "lywood": 5293,
      "uther": 5294,
      "comm": 5295,
      "ĠJesus": 5296,
      "Col": 5297,
      "umber": 5298,
      "rence": 5299,
      "Ġsignal": 5300,
      "Ġoperated": 5301,
      "Sc": 5302,
      "ĠUl": 5303,
      "ymph": 5304,
      "Ġhypot": 5305,
      "ero": 5306,
      "Ġran": 5307,
      "Ġphase": 5308,
      "Ã¼r": 5309,
      "arus": 5310,
      "ĠRog": 5311,
      "iana": 5312,
      "ĠArist": 5313,
      "ologists": 5314,
      "Ġbackground": 5315,
      "Ġsusp": 5316,
      "agle": 5317,
      "ocks": 5318,
      "risis": 5319,
      "Ġreceive": 5320,
      "Ġauthors": 5321,
      "erc": 5322,
      "ĠAustria": 5323,
      "Ġdomestic": 5324,
      "ira": 5325,
      "ibli": 5326,
      "ĠAlaska": 5327,
      "Ġtranslation": 5328,
      "All": 5329,
      "Ġwild": 5330,
      "rod": 5331,
      "ĠNaz": 5332,
      "Ġnor": 5333,
      "oday": 5334,
      "ĠVen": 5335,
      "ampion": 5336,
      "Ġrefused": 5337,
      "Ġadvanced": 5338,
      "Ġsought": 5339,
      "Ġfeat": 5340,
      "Ġcauses": 5341,
      "Ġexecutive": 5342,
      "iÄĩ": 5343,
      "OM": 5344,
      "ĠFound": 5345,
      "Ġabol": 5346,
      "tainment": 5347,
      "ĠCoast": 5348,
      "achusetts": 5349,
      "%.": 5350,
      "also": 5351,
      "Ġbron": 5352,
      "Ġpan": 5353,
      "Ġmind": 5354,
      "And": 5355,
      "Ġcomputers": 5356,
      "elligence": 5357,
      "ss": 5358,
      "inus": 5359,
      "Ġbeaut": 5360,
      "Ġproced": 5361,
      "ĠJones": 5362,
      "ĠSummer": 5363,
      "irmed": 5364,
      "quarters": 5365,
      "Ġresidents": 5366,
      "Ġtoward": 5367,
      "oples": 5368,
      "Ġvoice": 5369,
      "Ġstrength": 5370,
      "ca": 5371,
      "Ġbear": 5372,
      "ĠChristianity": 5373,
      "Ġhouses": 5374,
      "ba": 5375,
      "Ġpurs": 5376,
      "Ġdevices": 5377,
      "Ġheavily": 5378,
      "Ġcars": 5379,
      "Ġarts": 5380,
      "Ġenj": 5381,
      "Ġbridge": 5382,
      "omew": 5383,
      "elig": 5384,
      "ĠHuman": 5385,
      "ĠEconom": 5386,
      "Ġsemi": 5387,
      "emic": 5388,
      "Ġatoms": 5389,
      "abet": 5390,
      "ĠĊĠ": 5391,
      "Ġinspired": 5392,
      "Ġenemy": 5393,
      "cts": 5394,
      "ĠModern": 5395,
      "Ġconcer": 5396,
      "Ġprocesses": 5397,
      "ĠHealth": 5398,
      "Ġpoly": 5399,
      "Ġcarry": 5400,
      "Ġcatal": 5401,
      "Ġpra": 5402,
      "rics": 5403,
      "Ġproved": 5404,
      "ĠCountry": 5405,
      "Ġengineer": 5406,
      "Ġgranted": 5407,
      "ĠWelsh": 5408,
      "resh": 5409,
      "ĠKenn": 5410,
      "Ġnotably": 5411,
      "ĠAtari": 5412,
      "ĠAustrian": 5413,
      "Ġvolume": 5414,
      "then": 5415,
      "British": 5416,
      "adian": 5417,
      "ĠJeff": 5418,
      "Ġconstructed": 5419,
      "Ġworldwide": 5420,
      "ragon": 5421,
      "Ġsettled": 5422,
      "AP": 5423,
      "Ġchoice": 5424,
      "Ġrelative": 5425,
      "Ġslightly": 5426,
      "point": 5427,
      "Ġbinary": 5428,
      "ĠArm": 5429,
      "ĠProgram": 5430,
      "Ġabsor": 5431,
      "fall": 5432,
      "vin": 5433,
      "Ġalongside": 5434,
      "Ġkilling": 5435,
      "Ġconnect": 5436,
      "Ġstorage": 5437,
      "Ġroom": 5438,
      "Ġarchae": 5439,
      "Ġeasily": 5440,
      "Ġbodies": 5441,
      "works": 5442,
      "ĠAre": 5443,
      "Ġplatform": 5444,
      "Ġtried": 5445,
      "Ġhus": 5446,
      "ĠBoard": 5447,
      "Ġsomething": 5448,
      "ĠPhilip": 5449,
      "Ġfailure": 5450,
      "United": 5451,
      "Ġbattles": 5452,
      "equ": 5453,
      "nce": 5454,
      "Ġsales": 5455,
      "uscript": 5456,
      "ĠTheatre": 5457,
      "iants": 5458,
      "ibn": 5459,
      "ricts": 5460,
      "Ġpossibly": 5461,
      "uff": 5462,
      "ĠFar": 5463,
      "ordin": 5464,
      "Ġscale": 5465,
      "ĠEngine": 5466,
      "Ġcausing": 5467,
      "Ġprojects": 5468,
      "Ġapplication": 5469,
      "ĠForest": 5470,
      "âĪĴ": 5471,
      "Ġbapt": 5472,
      "ounger": 5473,
      "ĠUs": 5474,
      "Ġequivalent": 5475,
      "Ġranked": 5476,
      "SO": 5477,
      "Ġ;": 5478,
      "Ġbishop": 5479,
      "Ġdescent": 5480,
      "Ġdescribe": 5481,
      "Ġdamage": 5482,
      "Å¡": 5483,
      "Ġconvent": 5484,
      "Ġsubstant": 5485,
      "Ġportion": 5486,
      "Ġtheories": 5487,
      "pper": 5488,
      "enna": 5489,
      "Ġdigital": 5490,
      "burgh": 5491,
      "Ġsides": 5492,
      "abeth": 5493,
      "Ġnearby": 5494,
      "Ġweapons": 5495,
      "Ġinhabitants": 5496,
      "Åį": 5497,
      "Ġstandards": 5498,
      "Ġintroduction": 5499,
      "ĠBapt": 5500,
      "ĠOcean": 5501,
      "ĠChief": 5502,
      "Ġelev": 5503,
      "Ġlanding": 5504,
      "Ġgoals": 5505,
      "ĠManchester": 5506,
      "ds": 5507,
      "kh": 5508,
      "mm": 5509,
      "under": 5510,
      "ĠGame": 5511,
      "ocracy": 5512,
      "Ġrecording": 5513,
      "zero": 5514,
      "Ġreduce": 5515,
      "itic": 5516,
      "ĠRuth": 5517,
      "Ġparallel": 5518,
      "Ġprinciple": 5519,
      "related": 5520,
      "Aust": 5521,
      "ĠSever": 5522,
      "inu": 5523,
      "Ġcas": 5524,
      "riate": 5525,
      "Ġjur": 5526,
      "Ġemperor": 5527,
      "Ġdifferences": 5528,
      "Ġoccasion": 5529,
      "Ġcrime": 5530,
      "press": 5531,
      "Ġfuel": 5532,
      "Ġrates": 5533,
      "Ġproviding": 5534,
      "Ġmanaged": 5535,
      "Ġcopy": 5536,
      "ĠPersian": 5537,
      "cular": 5538,
      "gu": 5539,
      "omial": 5540,
      "ĠGDP": 5541,
      "Ġdefense": 5542,
      "Ġdrum": 5543,
      "Ġincome": 5544,
      "Ġmanufactur": 5545,
      "ĠBulgaria": 5546,
      "olitan": 5547,
      "Ġatmosp": 5548,
      "ĠArgent": 5549,
      "ĠAzerbaijan": 5550,
      "IV": 5551,
      "Ġfiction": 5552,
      "Ġorders": 5553,
      "inema": 5554,
      "Ġnewly": 5555,
      "Ġtemple": 5556,
      "Ġcab": 5557,
      "ĠFurther": 5558,
      "Ġselected": 5559,
      "Ġweak": 5560,
      "ĠForces": 5561,
      "Ġmatches": 5562,
      "ĠCharl": 5563,
      "Ġruled": 5564,
      "ĠMassachusetts": 5565,
      "ĠVirginia": 5566,
      "alm": 5567,
      "Ġattend": 5568,
      "III": 5569,
      "las": 5570,
      "Ã±": 5571,
      "Ä«": 5572,
      "Ġpict": 5573,
      "ĠFederal": 5574,
      "Ġheat": 5575,
      "Ġpopularity": 5576,
      "Ġlimit": 5577,
      "Ġmedicine": 5578,
      "Ġsail": 5579,
      "Ġfair": 5580,
      "Ġstable": 5581,
      "ĠEach": 5582,
      "ĠWind": 5583,
      "IA": 5584,
      "itness": 5585,
      "Ġpian": 5586,
      "ogue": 5587,
      "Ġchannel": 5588,
      "ĠJustice": 5589,
      "German": 5590,
      "cell": 5591,
      "ĠCross": 5592,
      "aya": 5593,
      "Ġalt": 5594,
      "Ġrival": 5595,
      "Ġtranslated": 5596,
      "ĠSunday": 5597,
      "LA": 5598,
      "bal": 5599,
      "kes": 5600,
      "oes": 5601,
      "Ġdeploy": 5602,
      "miss": 5603,
      "ersey": 5604,
      "ĠUk": 5605,
      "Ġdisorder": 5606,
      "ĠIndepend": 5607,
      "Ġcircum": 5608,
      "iate": 5609,
      "ugos": 5610,
      "Ġmovie": 5611,
      "While": 5612,
      "ĠColombia": 5613,
      "Ġhap": 5614,
      "ĠTop": 5615,
      "ĠMen": 5616,
      "ĠColorado": 5617,
      "Ġdog": 5618,
      "urt": 5619,
      "ĠMatt": 5620,
      "Ġobtained": 5621,
      "Ġspecifically": 5622,
      "Ġportray": 5623,
      "Ġalgorithm": 5624,
      "ĠHebrew": 5625,
      "inger": 5626,
      "ĠGall": 5627,
      "ĠLittle": 5628,
      "ictions": 5629,
      "Ġpersonnel": 5630,
      "Ġviews": 5631,
      "ĠOffice": 5632,
      "cious": 5633,
      "Ġisol": 5634,
      "ĠDick": 5635,
      "Ġcho": 5636,
      "Ġadvantage": 5637,
      "Ġsuggests": 5638,
      "Ġemployed": 5639,
      "SR": 5640,
      "hus": 5641,
      "Ġwalk": 5642,
      "ĠAz": 5643,
      "ocated": 5644,
      "Ġarmed": 5645,
      "Ġattended": 5646,
      "Ġliterary": 5647,
      "rat": 5648,
      "rator": 5649,
      "Ġarms": 5650,
      "Ġcreating": 5651,
      "ĠStephen": 5652,
      "stream": 5653,
      "ĠTw": 5654,
      "Ġhonor": 5655,
      "List": 5656,
      "ĠMic": 5657,
      "Ġassociation": 5658,
      "ivals": 5659,
      "term": 5660,
      "Ġexisting": 5661,
      "Ġdance": 5662,
      "eld": 5663,
      "ĠBus": 5664,
      "ĠJournal": 5665,
      "Ġcounty": 5666,
      "Ġtransform": 5667,
      "ĠTre": 5668,
      "Ġproport": 5669,
      "Ġwhereas": 5670,
      "Ġliqu": 5671,
      "ĠProject": 5672,
      "ĠChristians": 5673,
      "amental": 5674,
      "vest": 5675,
      "struction": 5676,
      "ĠCam": 5677,
      "Ġfeel": 5678,
      "ographer": 5679,
      "Ġbronze": 5680,
      "no": 5681,
      "rade": 5682,
      "ĠPost": 5683,
      "hips": 5684,
      "Ġempire": 5685,
      "Ġsucceeded": 5686,
      "Ġfelt": 5687,
      "Ġmaster": 5688,
      "ĠSong": 5689,
      "ager": 5690,
      "Ġregist": 5691,
      "Ġincreasingly": 5692,
      "Ġcensus": 5693,
      "Ġalone": 5694,
      "abama": 5695,
      "Ġflag": 5696,
      "ĠIndones": 5697,
      "Ġentirely": 5698,
      "ĠGeorgia": 5699,
      "org": 5700,
      "organ": 5701,
      "Ġminim": 5702,
      "Ġpainter": 5703,
      "ĠPhilipp": 5704,
      "ais": 5705,
      "bell": 5706,
      "iography": 5707,
      "ĠIV": 5708,
      "agan": 5709,
      "Ġcontext": 5710,
      "Ġaccur": 5711,
      "ylvan": 5712,
      "Ġadvance": 5713,
      "Ġprincipal": 5714,
      "ĠSenate": 5715,
      "Ġcomponents": 5716,
      "hat": 5717,
      "ĠMod": 5718,
      "itionally": 5719,
      "ĠClin": 5720,
      "Ġ...": 5721,
      "Ġdescribes": 5722,
      "ĠSweden": 5723,
      "pan": 5724,
      "hew": 5725,
      "amic": 5726,
      "adel": 5727,
      "racted": 5728,
      "ĠGal": 5729,
      "Ġacts": 5730,
      "Ġvisited": 5731,
      "usalem": 5732,
      "Living": 5733,
      "Ġbatter": 5734,
      "pha": 5735,
      "Ġsolid": 5736,
      "ibbean": 5737,
      "ĠSat": 5738,
      "Ġreasons": 5739,
      "Ġlingu": 5740,
      "raq": 5741,
      "Ġchosen": 5742,
      "Ġdeveloping": 5743,
      "Ġcollabor": 5744,
      "ĠProtest": 5745,
      "Ġly": 5746,
      "ĠMir": 5747,
      "andy": 5748,
      "ĠGer": 5749,
      "âĢĿ": 5750,
      "ovak": 5751,
      "Ġcontrolled": 5752,
      "Ġcolonies": 5753,
      "Ġconverted": 5754,
      "ĠCyprus": 5755,
      "Ġbond": 5756,
      "utation": 5757,
      "ĠAwards": 5758,
      "Ġhop": 5759,
      "ĠCy": 5760,
      "ĠPop": 5761,
      "iph": 5762,
      "ipel": 5763,
      "Ġdemand": 5764,
      "Ġsteel": 5765,
      "ĠCuba": 5766,
      "ST": 5767,
      "gment": 5768,
      "ellect": 5769,
      "ĠMilitary": 5770,
      "abul": 5771,
      "active": 5772,
      "Ġserving": 5773,
      "eget": 5774,
      "Ġadministrative": 5775,
      "wana": 5776,
      "Ġpaid": 5777,
      "ĠABC": 5778,
      "ĠCre": 5779,
      "Ġcommander": 5780,
      "Ġstrateg": 5781,
      "Ġtribes": 5782,
      "Ġnegot": 5783,
      "Ġsafety": 5784,
      "aron": 5785,
      "Ġbad": 5786,
      "Ġforward": 5787,
      "Ġgirl": 5788,
      "ranean": 5789,
      "Ġpeoples": 5790,
      "Christ": 5791,
      "Ġcolonial": 5792,
      "ĠTreaty": 5793,
      "Com": 5794,
      "rÃ©": 5795,
      "uis": 5796,
      "reek": 5797,
      "Ġrob": 5798,
      "vard": 5799,
      "ĠRay": 5800,
      "Ġcoming": 5801,
      "ĠEnd": 5802,
      "Ġuseful": 5803,
      "ĠFlorida": 5804,
      "grad": 5805,
      "pread": 5806,
      "Ġce": 5807,
      "aded": 5808,
      "Ġcomedy": 5809,
      "Ġcontained": 5810,
      "ographical": 5811,
      "Ġchalleng": 5812,
      "ga": 5813,
      "rec": 5814,
      "ĠCatal": 5815,
      "ĠMov": 5816,
      "Ġgot": 5817,
      "Ġroll": 5818,
      "ĠTeam": 5819,
      "Ap": 5820,
      "emis": 5821,
      "Ġarbit": 5822,
      "Ġprint": 5823,
      "idespread": 5824,
      "Ġconstitu": 5825,
      "crib": 5826,
      "gal": 5827,
      "tes": 5828,
      "Ġsnow": 5829,
      "Ġorganized": 5830,
      "Ġtypical": 5831,
      "ĠEgyptian": 5832,
      "bi": 5833,
      "ienced": 5834,
      "Ġdiam": 5835,
      "ĠEle": 5836,
      "aved": 5837,
      "Ġseats": 5838,
      "ĠArthur": 5839,
      "Ġformula": 5840,
      "ctoral": 5841,
      "rapy": 5842,
      "ko": 5843,
      "ĠAT": 5844,
      "Ġreports": 5845,
      "Ġcourts": 5846,
      "lers": 5847,
      "ening": 5848,
      "Ġbul": 5849,
      "eler": 5850,
      "Ġproceed": 5851,
      "illing": 5852,
      "Ġshape": 5853,
      "Ġformat": 5854,
      "obe": 5855,
      "ambig": 5856,
      "Ġglass": 5857,
      "ĠWilliams": 5858,
      "Ġhusband": 5859,
      "Ġwave": 5860,
      "ĠSem": 5861,
      "amber": 5862,
      "eek": 5863,
      "Ġrejected": 5864,
      "Ġenjoy": 5865,
      "state": 5866,
      "Ġoutput": 5867,
      "Ġinvasion": 5868,
      "Most": 5869,
      "ques": 5870,
      "Ġspring": 5871,
      "Ġultimately": 5872,
      "Ġbottom": 5873,
      "CC": 5874,
      "ource": 5875,
      "Ġdefend": 5876,
      "cules": 5877,
      "Ġoccupied": 5878,
      "Ġphenomen": 5879,
      "Af": 5880,
      "vant": 5881,
      "inth": 5882,
      "Ġlives": 5883,
      "uts": 5884,
      "Ġuniform": 5885,
      "Ġtwice": 5886,
      "ĠHungarian": 5887,
      "If": 5888,
      "Ġfans": 5889,
      "icon": 5890,
      "Ġdaily": 5891,
      "Ġstone": 5892,
      "ĠNFL": 5893,
      "aeus": 5894,
      "Ġmedieval": 5895,
      "Ġinfluential": 5896,
      "Ġholds": 5897,
      "Trans": 5898,
      "ĠTour": 5899,
      "uses": 5900,
      "ĠDev": 5901,
      "Ġdrive": 5902,
      "Ġagricultural": 5903,
      "ture": 5904,
      "abil": 5905,
      "Ġunderstanding": 5906,
      "ictional": 5907,
      "Ġretired": 5908,
      "Ġpromoted": 5909,
      "ĠKorea": 5910,
      "ĠFree": 5911,
      "inson": 5912,
      "raf": 5913,
      "Ġdepending": 5914,
      "ylvania": 5915,
      "Ġconcluded": 5916,
      "ĠInst": 5917,
      "ĠAlc": 5918,
      "Ġcontinues": 5919,
      "aux": 5920,
      "Or": 5921,
      "isd": 5922,
      "Ġcool": 5923,
      "Ġdang": 5924,
      "Ġconsec": 5925,
      "ova": 5926,
      "Ġsetting": 5927,
      "Ġrequires": 5928,
      "Ġdrink": 5929,
      "ĠEliz": 5930,
      "ĠAtlanta": 5931,
      "set": 5932,
      "ĠÄ": 5933,
      "ĠAle": 5934,
      "Ġalumni": 5935,
      "ĠStan": 5936,
      "ĠCorporation": 5937,
      "Ġrevealed": 5938,
      "Ġcards": 5939,
      "ĠCel": 5940,
      "ĠJr": 5941,
      "phy": 5942,
      "Car": 5943,
      "nes": 5944,
      "Ġaid": 5945,
      "ologies": 5946,
      "Ġauthorities": 5947,
      "ĠProvince": 5948,
      "ĠVictoria": 5949,
      "ibliography": 5950,
      "non": 5951,
      "ĠGar": 5952,
      "Ġassault": 5953,
      "Ġshell": 5954,
      "Ġofficials": 5955,
      "ĠBrazilian": 5956,
      "ĠBosnia": 5957,
      "RA": 5958,
      "garian": 5959,
      "ctic": 5960,
      "Ġquite": 5961,
      "Ġtitles": 5962,
      "Ġcorrect": 5963,
      "wick": 5964,
      "Ġaer": 5965,
      "Ġwidespread": 5966,
      "ĠGh": 5967,
      "venth": 5968,
      "ĠLiberal": 5969,
      "Ġspiritual": 5970,
      "bar": 5971,
      "Ġibn": 5972,
      "Ġsan": 5973,
      "Ġcorn": 5974,
      "ĠHor": 5975,
      "ashion": 5976,
      "ĠÐ": 5977,
      "Ġtherm": 5978,
      "ĠDer": 5979,
      "aints": 5980,
      "Ġexped": 5981,
      "rayer": 5982,
      "ĠConfuc": 5983,
      "ĠCommunity": 5984,
      "Ġpieces": 5985,
      "ĠNobel": 5986,
      "General": 5987,
      "eta": 5988,
      "ĠMaced": 5989,
      "ĠJon": 5990,
      "ĠInf": 5991,
      "Ġspeak": 5992,
      "ĠAustin": 5993,
      "Ġzone": 5994,
      "iterranean": 5995,
      "Ġmathematic": 5996,
      "ĠByzantine": 5997,
      "ĠBowl": 5998,
      "ava": 5999,
      "Ġchap": 6000,
      "Ġyouth": 6001,
      "lation": 6002,
      "ÅŁ": 6003,
      "ancing": 6004,
      "Ġsomew": 6005,
      "ĠAI": 6006,
      "Ġnations": 6007,
      "ĠEth": 6008,
      "Ġvess": 6009,
      "Ġheight": 6010,
      "ĠThree": 6011,
      "Ġcycl": 6012,
      "Ġastronaut": 6013,
      "Ġmaximum": 6014,
      "Ġsn": 6015,
      "Ġisot": 6016,
      "ĠEarly": 6017,
      "ĠKorean": 6018,
      "Ġfirm": 6019,
      "Ġdensity": 6020,
      "aming": 6021,
      "Ġseems": 6022,
      "Ġproducing": 6023,
      "Ġassigned": 6024,
      "Ġtraffic": 6025,
      "Ġartillery": 6026,
      "unications": 6027,
      "Ġlabel": 6028,
      "ĠChampionships": 6029,
      "Ġaspects": 6030,
      "law": 6031,
      "pool": 6032,
      "indu": 6033,
      "asts": 6034,
      "Ġcompil": 6035,
      "Ġadap": 6036,
      "issance": 6037,
      "Ġgeneration": 6038,
      "Ã£": 6039,
      "ĠJoh": 6040,
      "Ġprepar": 6041,
      "Ġactual": 6042,
      "ĠCaribbean": 6043,
      "sterdam": 6044,
      "Ġtemperatures": 6045,
      "ĠKhan": 6046,
      "ĠJerusalem": 6047,
      "iac": 6048,
      "ti": 6049,
      "iny": 6050,
      "ĠAP": 6051,
      "andom": 6052,
      "ĠGood": 6053,
      "Ġclasses": 6054,
      "ĠMicro": 6055,
      "ĠLabour": 6056,
      "Many": 6057,
      "Ġtaught": 6058,
      "Ġsons": 6059,
      "Ġnick": 6060,
      "ĠMot": 6061,
      "ĠDNA": 6062,
      "ĠLuc": 6063,
      "ĠWell": 6064,
      "Ġrelation": 6065,
      "Ġdesigns": 6066,
      "rising": 6067,
      "Ġcurren": 6068,
      "Ġfacilities": 6069,
      "Ġconnection": 6070,
      "Ġfrag": 6071,
      "ĠBatt": 6072,
      "Ġfactor": 6073,
      "Ġsympt": 6074,
      "ĠAnglo": 6075,
      "Ġfeaturing": 6076,
      "We": 6077,
      "ker": 6078,
      "ador": 6079,
      "ĠWater": 6080,
      "phone": 6081,
      "Ġbegins": 6082,
      "ĠSecretary": 6083,
      "World": 6084,
      "town": 6085,
      "rees": 6086,
      "Ġanarch": 6087,
      "elve": 6088,
      "Ġguns": 6089,
      "Ġacids": 6090,
      "Ġpoem": 6091,
      "Ġconsisting": 6092,
      "Ġenvironmental": 6093,
      "Ġburied": 6094,
      "Ġatomic": 6095,
      "eed": 6096,
      "Ġpure": 6097,
      "umes": 6098,
      "Ġunable": 6099,
      "Ġpublication": 6100,
      "Ġpractices": 6101,
      "Ġscientists": 6102,
      "Ġregarding": 6103,
      "da": 6104,
      "alion": 6105,
      "ĠField": 6106,
      "ibl": 6107,
      "ĠCorps": 6108,
      "Ġgeomet": 6109,
      "anth": 6110,
      "Ġbin": 6111,
      "Ġmort": 6112,
      "etary": 6113,
      "ĠKent": 6114,
      "Ġcolumn": 6115,
      "ĠBuff": 6116,
      "Ġnarrow": 6117,
      "Ġagriculture": 6118,
      "alus": 6119,
      "ĠHa": 6120,
      "Ġending": 6121,
      "Ġrevolution": 6122,
      "Ġvisit": 6123,
      "Ġbegin": 6124,
      "Ġanaly": 6125,
      "ĠWars": 6126,
      "agement": 6127,
      "Ġmetals": 6128,
      "Ġsimpl": 6129,
      "ĠCentre": 6130,
      "Ġpropos": 6131,
      "Ġaudience": 6132,
      "ĠCroatian": 6133,
      "ĠAlberta": 6134,
      "Med": 6135,
      "ĠÅ": 6136,
      "atically": 6137,
      "ĠIll": 6138,
      "ĠFA": 6139,
      "ĠLes": 6140,
      "Ġrenamed": 6141,
      "Ġcycle": 6142,
      "Ġcontributed": 6143,
      "Ġmagnitude": 6144,
      "Ġpronoun": 6145,
      "ĠNASA": 6146,
      "ĠDie": 6147,
      "Ġusers": 6148,
      "Ġmanuscript": 6149,
      "Ġexpression": 6150,
      "iat": 6151,
      "rust": 6152,
      "Ġfought": 6153,
      "ĠHot": 6154,
      "ĠRam": 6155,
      "rance": 6156,
      "Ġstring": 6157,
      "establ": 6158,
      "ieut": 6159,
      "ĠDaniel": 6160,
      "Ġthousand": 6161,
      "OL": 6162,
      "eing": 6163,
      "udget": 6164,
      "Ġchrom": 6165,
      "Ġrespond": 6166,
      "ĠPoland": 6167,
      "ĠConfeder": 6168,
      "Ġquantum": 6169,
      "ĠVietnam": 6170,
      "dess": 6171,
      "enge": 6172,
      "Ġchain": 6173,
      "oven": 6174,
      "onom": 6175,
      "ĠPrem": 6176,
      "Ġschem": 6177,
      "Ġemerged": 6178,
      "Ġchair": 6179,
      "ĠBangladesh": 6180,
      "'.": 6181,
      "uing": 6182,
      "á¹": 6183,
      "Ġcosm": 6184,
      "Ġstock": 6185,
      "ĠWeb": 6186,
      "ĠAlabama": 6187,
      "Ġactors": 6188,
      "Ġeditor": 6189,
      "ophical": 6190,
      "Ġthousands": 6191,
      "Ġalleged": 6192,
      "ĊĠĊĠĊ": 6193,
      "Ġmedium": 6194,
      "Ġsupporting": 6195,
      "Ġconduct": 6196,
      "SI": 6197,
      "western": 6198,
      "Ġcrop": 6199,
      "illy": 6200,
      "ĠHon": 6201,
      "ĠDanish": 6202,
      "ĠStat": 6203,
      "Ġconfirmed": 6204,
      "Ġcritics": 6205,
      "Ġabsol": 6206,
      "Ġepisodes": 6207,
      "Ġcandidate": 6208,
      "Ġtheorem": 6209,
      "Ġsle": 6210,
      "ĠCape": 6211,
      "olt": 6212,
      "ceived": 6213,
      "ima": 6214,
      "kee": 6215,
      "Ġteaching": 6216,
      "Ġstatement": 6217,
      "wich": 6218,
      "Ġlat": 6219,
      "ĠEven": 6220,
      "ophers": 6221,
      "Ġspeakers": 6222,
      "fully": 6223,
      "una": 6224,
      "ĠIraq": 6225,
      "Europe": 6226,
      "Ne": 6227,
      "low": 6228,
      "oly": 6229,
      "igan": 6230,
      "Ġsufficient": 6231,
      "\"|": 6232,
      "ĠPubl": 6233,
      "osure": 6234,
      "Ġyounger": 6235,
      "gest": 6236,
      "Ġsty": 6237,
      "Ġrich": 6238,
      "ropolitan": 6239,
      "ĠMediterranean": 6240,
      "iser": 6241,
      "ĠSports": 6242,
      "ading": 6243,
      "Ġselect": 6244,
      "ĠInternet": 6245,
      "Ġcomposition": 6246,
      "inding": 6247,
      "Ġphr": 6248,
      "ĠBooks": 6249,
      "Ġexperienced": 6250,
      "ĠBelarus": 6251,
      "Ġoxid": 6252,
      "Ġexception": 6253,
      "Le": 6254,
      "ĠMinistry": 6255,
      "unc": 6256,
      "Ġconcrete": 6257,
      "Ġexternal": 6258,
      "antic": 6259,
      "ishops": 6260,
      "Ġyield": 6261,
      "hammad": 6262,
      "Ġneeds": 6263,
      "Ġimproved": 6264,
      "ĠColl": 6265,
      "ronic": 6266,
      "Ġcalc": 6267,
      "ĠFoundation": 6268,
      "ĠFox": 6269,
      "ĠNight": 6270,
      "ĠJersey": 6271,
      "sey": 6272,
      "ĠEnter": 6273,
      "ifications": 6274,
      "Ġattributed": 6275,
      "ĠElizabeth": 6276,
      "tery": 6277,
      "Ġusage": 6278,
      "Ġwalls": 6279,
      "ila": 6280,
      "avig": 6281,
      "Ġacting": 6282,
      "Ġtechnique": 6283,
      "Ġhardware": 6284,
      "Ġguitarist": 6285,
      "ja": 6286,
      "inction": 6287,
      "Ġlosing": 6288,
      "ĠForm": 6289,
      "aine": 6290,
      "ĠJan": 6291,
      "Ġdesignated": 6292,
      "ĠAbu": 6293,
      "Ġgoods": 6294,
      "rastructure": 6295,
      "arat": 6296,
      "ĠEducation": 6297,
      "wealth": 6298,
      "Ġtheme": 6299,
      "Ġtraditions": 6300,
      "Ġformerly": 6301,
      "ĠSanta": 6302,
      "Polit": 6303,
      "Ġexists": 6304,
      "ĠChild": 6305,
      "ĠAlb": 6306,
      "insula": 6307,
      "Ġmaintained": 6308,
      "Ġhosted": 6309,
      "Ġion": 6310,
      "Ġfear": 6311,
      "Ġveget": 6312,
      "ĠOpen": 6313,
      "ishment": 6314,
      "iox": 6315,
      "ĠAmong": 6316,
      "Ġdescend": 6317,
      "ĠMiller": 6318,
      "Ġonto": 6319,
      "neg": 6320,
      "Ġhistoric": 6321,
      "ĠAges": 6322,
      "Ġtesting": 6323,
      "LU": 6324,
      "Ã¸": 6325,
      "ĠMr": 6326,
      "resents": 6327,
      "Ġpopulations": 6328,
      "ĠOrchestra": 6329,
      "Ġaccounts": 6330,
      "ĠâĢľ": 6331,
      "Ġroughly": 6332,
      "%)": 6333,
      "instein": 6334,
      "ĠSa": 6335,
      "ĠBoy": 6336,
      "Ġdistricts": 6337,
      "Ġtechnical": 6338,
      "Ġinstitution": 6339,
      "phal": 6340,
      "Ġdoct": 6341,
      "ĠMaria": 6342,
      "Ġlinear": 6343,
      "Ġhospital": 6344,
      "ĠGen": 6345,
      "Ġsup": 6346,
      "Ġrivers": 6347,
      "Ġotherwise": 6348,
      "Ġflat": 6349,
      "theless": 6350,
      "Ġfreedom": 6351,
      "Ġgenetic": 6352,
      "Ġattacked": 6353,
      "Ġtrial": 6354,
      "Ġtournament": 6355,
      "called": 6356,
      "icks": 6357,
      "Ġalleg": 6358,
      "ĠDig": 6359,
      "ession": 6360,
      "Ġpreced": 6361,
      "Ġdominant": 6362,
      "Ġlearning": 6363,
      "Ġca": 6364,
      "seud": 6365,
      "ĠAnth": 6366,
      "ĠShort": 6367,
      "Ġinvolving": 6368,
      "Ġimprove": 6369,
      "ĠCarolina": 6370,
      "Ġhappen": 6371,
      "ambiguation": 6372,
      "Ġrugby": 6373,
      "Ġcancer": 6374,
      "Ġmusicians": 6375,
      "while": 6376,
      "ĠFreder": 6377,
      "uz": 6378,
      "Ġbran": 6379,
      "asy": 6380,
      "entions": 6381,
      "hens": 6382,
      "Ġsevere": 6383,
      "Ġtitled": 6384,
      "Ġhabit": 6385,
      "ieutenant": 6386,
      "RI": 6387,
      "ĠLine": 6388,
      "oster": 6389,
      "athan": 6390,
      "Ġmodified": 6391,
      "ĠGolden": 6392,
      "ĠTechnology": 6393,
      "Ġwarm": 6394,
      "Ġcomic": 6395,
      "orning": 6396,
      "Ġcaptain": 6397,
      "Ġbroke": 6398,
      "ĠAssy": 6399,
      "Ġcapture": 6400,
      "Ġprice": 6401,
      "PS": 6402,
      "ocument": 6403,
      "Ġresemb": 6404,
      "Ġperhaps": 6405,
      "Ġaffected": 6406,
      "Ġswim": 6407,
      "Ġuniversities": 6408,
      "ĠArmenia": 6409,
      "Ġdates": 6410,
      "ĠBalk": 6411,
      "Ġcontinuous": 6412,
      "Ġtransferred": 6413,
      "ĠOhio": 6414,
      "sylvania": 6415,
      "Ġzero": 6416,
      "urrent": 6417,
      "hemical": 6418,
      "Ġsuccessfully": 6419,
      "Ġconcentration": 6420,
      "lan": 6421,
      "Ġmouth": 6422,
      "ĠMun": 6423,
      "Ġconscious": 6424,
      "Ġdriver": 6425,
      "Ġpurposes": 6426,
      "cop": 6427,
      "Ġbip": 6428,
      "Ġtom": 6429,
      "Ġload": 6430,
      "rav": 6431,
      "riot": 6432,
      "Ġvast": 6433,
      "appe": 6434,
      "Ġrepresents": 6435,
      "Ġairport": 6436,
      "Ġbiological": 6437,
      "Ġphilosopher": 6438,
      "Ġsenior": 6439,
      "Not": 6440,
      "inations": 6441,
      "cycl": 6442,
      "ĠBulgarian": 6443,
      "Ġpilot": 6444,
      "emen": 6445,
      "Ġpros": 6446,
      "Ġleaves": 6447,
      "Ġtransition": 6448,
      "ĠShow": 6449,
      "Ġextreme": 6450,
      "Pop": 6451,
      "itled": 6452,
      "Ġstre": 6453,
      "Ġstress": 6454,
      "aven": 6455,
      "Ġmulti": 6456,
      "Ġviolence": 6457,
      "ĠTerrit": 6458,
      "language": 6459,
      "ĠPower": 6460,
      "Ġalter": 6461,
      "ĠDor": 6462,
      "Ġcalls": 6463,
      "ĠAmsterdam": 6464,
      "Ġsatisf": 6465,
      "Ġrepeated": 6466,
      "aly": 6467,
      "Ġfounder": 6468,
      "Ġdry": 6469,
      "Ġapproved": 6470,
      "Ġheadquarters": 6471,
      "gers": 6472,
      "Ġcore": 6473,
      "Ġmilit": 6474,
      "ĠCas": 6475,
      "Ġadvent": 6476,
      "ĠProfess": 6477,
      "Char": 6478,
      "Ġopin": 6479,
      "harm": 6480,
      "Ġpage": 6481,
      "ĠAS": 6482,
      "ĠAff": 6483,
      "ĠOd": 6484,
      "ĠĊĠĊĠĊĠĊĠĊĠĊĠĊĠĊ": 6485,
      "Ġpurchased": 6486,
      "Ġign": 6487,
      "Ġobtain": 6488,
      "Ġsurvey": 6489,
      "ĠAdam": 6490,
      "Ġsuccessor": 6491,
      "Ġskin": 6492,
      "Ġvocal": 6493,
      "BT": 6494,
      "Mar": 6495,
      "oids": 6496,
      "top": 6497,
      "Ġswe": 6498,
      "ĠBon": 6499,
      "Ġthrone": 6500,
      "pton": 6501,
      "ĠAtt": 6502,
      "Ġextent": 6503,
      "Ġpatients": 6504,
      "Ġvictim": 6505,
      "Ġdialect": 6506,
      "ĠDenmark": 6507,
      "ĠBruce": 6508,
      "Ġtal": 6509,
      "Ġplane": 6510,
      "rane": 6511,
      "Ġworship": 6512,
      "Ġfrequency": 6513,
      "Ġcoastal": 6514,
      "Ġcomparison": 6515,
      "Ġpermanent": 6516,
      "Ġextremely": 6517,
      "eda": 6518,
      "stood": 6519,
      "ĠEuro": 6520,
      "ighth": 6521,
      "Ġuser": 6522,
      "Ġago": 6523,
      "ÃŃa": 6524,
      "Ġfocused": 6525,
      "Ġabandoned": 6526,
      "To": 6527,
      "cers": 6528,
      "Ġcod": 6529,
      "Ġwaters": 6530,
      "ĠBav": 6531,
      "rix": 6532,
      "ĠKel": 6533,
      "erve": 6534,
      "ropical": 6535,
      "Ġencoura": 6536,
      "Ġpiece": 6537,
      "ĠMuhammad": 6538,
      "Ġwithdraw": 6539,
      "disambiguation": 6540,
      "Ġlies": 6541,
      "ĠLyn": 6542,
      "inisters": 6543,
      "ĠFlight": 6544,
      "ĠSteve": 6545,
      "Ġinput": 6546,
      "Ġinnov": 6547,
      "Ã£o": 6548,
      "worth": 6549,
      "left": 6550,
      "Ġstream": 6551,
      "ĠAbra": 6552,
      "Ġdecline": 6553,
      "Ġseparated": 6554,
      "ĠAlexandria": 6555,
      "ĠPennsylvania": 6556,
      "ĠSeveral": 6557,
      "Ġmap": 6558,
      "ĠNative": 6559,
      "Ġsust": 6560,
      "Ġexam": 6561,
      "Ġplate": 6562,
      "ĠBelgium": 6563,
      "erg": 6564,
      "ĠDam": 6565,
      "agu": 6566,
      "illes": 6567,
      "hedral": 6568,
      "Ġindigenous": 6569,
      "ĠCommand": 6570,
      "ĠPlan": 6571,
      "Ġnormally": 6572,
      "ĠBuddhist": 6573,
      "Members": 6574,
      "Ġcrown": 6575,
      "ĠMike": 6576,
      "udes": 6577,
      "ructions": 6578,
      "owned": 6579,
      "Ġvisual": 6580,
      "Ġprotein": 6581,
      "Ġmathematics": 6582,
      "Ġliquid": 6583,
      "ĠClinton": 6584,
      "ections": 6585,
      "Ġsort": 6586,
      "Ġpick": 6587,
      "Ġgar": 6588,
      "ĠFame": 6589,
      "ĠKen": 6590,
      "ĠChristmas": 6591,
      "Ġaffili": 6592,
      "Ġcomponent": 6593,
      "ĠNetwork": 6594,
      "Ġsymptoms": 6595,
      "ĠBa": 6596,
      "ĠBad": 6597,
      "Ġearned": 6598,
      "ĠProdu": 6599,
      "Ġdepos": 6600,
      "Ġtraditionally": 6601,
      "Ġcheck": 6602,
      "vi": 6603,
      "Ġsun": 6604,
      "Ġfestival": 6605,
      "ĠHell": 6606,
      "agues": 6607,
      "Ġteach": 6608,
      "Ġroles": 6609,
      "Ġattract": 6610,
      "Ġassass": 6611,
      "Ġclassified": 6612,
      "Ġvalid": 6613,
      "Ġbusinessman": 6614,
      "Ġholding": 6615,
      "Ac": 6616,
      "ĠLim": 6617,
      "ĠThird": 6618,
      "Ġconson": 6619,
      "Ġpromotion": 6620,
      "otswana": 6621,
      "Ġgreatly": 6622,
      "Ġpolicies": 6623,
      "Ġessential": 6624,
      "Ġtru": 6625,
      "ĠMach": 6626,
      "otal": 6627,
      "ĠFried": 6628,
      "ĠWat": 6629,
      "Ġbands": 6630,
      "Ġappearances": 6631,
      "Ġaccompan": 6632,
      "rating": 6633,
      "Ġcrisis": 6634,
      "Ġunp": 6635,
      "tym": 6636,
      "Ġexplain": 6637,
      "deen": 6638,
      "Ġhistorians": 6639,
      "ĠHungary": 6640,
      "tra": 6641,
      "icy": 6642,
      "ĠTal": 6643,
      "Ġchampion": 6644,
      "Ġwritings": 6645,
      "Ġintellect": 6646,
      "Ġneuro": 6647,
      "ussels": 6648,
      "ersonal": 6649,
      "clusion": 6650,
      "Ġ(,": 6651,
      "Ġstrongly": 6652,
      "Ġnort": 6653,
      "ĠMarg": 6654,
      "ĠDip": 6655,
      "ĠFront": 6656,
      "ĠJoe": 6657,
      "ussian": 6658,
      "Ġincreases": 6659,
      "former": 6660,
      "ĠFranklin": 6661,
      "ĠPortugal": 6662,
      "osaurus": 6663,
      "ĠAristot": 6664,
      "ĠCay": 6665,
      "ules": 6666,
      "ĠRet": 6667,
      "ateur": 6668,
      "ipher": 6669,
      "ĠSec": 6670,
      "Ġcolony": 6671,
      "Ġdiscip": 6672,
      "Ġradiation": 6673,
      "Ġincorporated": 6674,
      "ER": 6675,
      "wall": 6676,
      "||": 6677,
      "Ġboy": 6678,
      "ĠFle": 6679,
      "Ġdecay": 6680,
      "Ġdecade": 6681,
      "ĠPolit": 6682,
      "Ġmissions": 6683,
      "Ġconcerns": 6684,
      "Ġratio": 6685,
      "aug": 6686,
      "Ġmic": 6687,
      "lets": 6688,
      "eless": 6689,
      "idel": 6690,
      "ĠHun": 6691,
      "ĠDun": 6692,
      "ĠLy": 6693,
      "ĠUnivers": 6694,
      "Ġimages": 6695,
      "Ġnovels": 6696,
      "Ġdropped": 6697,
      "National": 6698,
      "Ġtact": 6699,
      "ĠCO": 6700,
      "Ġleads": 6701,
      "ĠGuard": 6702,
      "Ġdeliver": 6703,
      "adelph": 6704,
      "Ġcogn": 6705,
      "ĠGreg": 6706,
      "ĠOri": 6707,
      "center": 6708,
      "Ġanalog": 6709,
      "Ġtwenty": 6710,
      "ĠWilson": 6711,
      "ĠWork": 6712,
      "domin": 6713,
      "Ġinterpre": 6714,
      "uous": 6715,
      "ĠCD": 6716,
      "etime": 6717,
      "Ġinvolves": 6718,
      "Ġconsiderable": 6719,
      "Ġvocals": 6720,
      "ĠJun": 6721,
      "Ġrh": 6722,
      "izz": 6723,
      "Ġevolved": 6724,
      "ĠCastle": 6725,
      "Ġinterpretation": 6726,
      "know": 6727,
      "zeg": 6728,
      "Ġhal": 6729,
      "ĠPC": 6730,
      "Ġrural": 6731,
      "ĠStation": 6732,
      "Ġoffers": 6733,
      "ĠConference": 6734,
      "Ġoperate": 6735,
      "Ġaffect": 6736,
      "Ġcrim": 6737,
      "ĠBasque": 6738,
      "Ġgoddess": 6739,
      "oen": 6740,
      "Ãº": 6741,
      "Ġtiss": 6742,
      "Ġmor": 6743,
      "Ġlibrary": 6744,
      "Ġstreet": 6745,
      "ĠStadium": 6746,
      "ĠOrig": 6747,
      "Ġchemistry": 6748,
      "Ġvariable": 6749,
      "Ġrapidly": 6750,
      "Ð°": 6751,
      "Ġtank": 6752,
      "Ġmoral": 6753,
      "ĠLi": 6754,
      "ĠChad": 6755,
      "Ġagent": 6756,
      "Ġspons": 6757,
      "iverpool": 6758,
      "load": 6759,
      "Ġtail": 6760,
      "omorph": 6761,
      "Ġalumin": 6762,
      "ĠAlger": 6763,
      "Ġdepartment": 6764,
      "ridges": 6765,
      "rows": 6766,
      "Ġcharacteristics": 6767,
      "Ġestablishment": 6768,
      "Ġindicate": 6769,
      "Ġtreated": 6770,
      "ĠKnight": 6771,
      "ĠOperation": 6772,
      "Ġtim": 6773,
      "Ġnaval": 6774,
      "ĠHome": 6775,
      "Ġcompl": 6776,
      "render": 6777,
      "Ġcapable": 6778,
      "Ġengines": 6779,
      "Ġcorpor": 6780,
      "ĠRussell": 6781,
      "Ġscreenwriter": 6782,
      "Ġmathematical": 6783,
      "larg": 6784,
      "wa": 6785,
      "Ġkings": 6786,
      "Ġends": 6787,
      "ĠSciences": 6788,
      "uties": 6789,
      "Ġslaves": 6790,
      "Ġdiscovery": 6791,
      "Ġadapted": 6792,
      "West": 6793,
      "ĠPass": 6794,
      "ĠOb": 6795,
      "ruit": 6796,
      "Ġnumer": 6797,
      "Ġlegend": 6798,
      "ĠStudies": 6799,
      "come": 6800,
      "esh": 6801,
      "Ġfashion": 6802,
      "roph": 6803,
      "Ġbears": 6804,
      "Ġmovements": 6805,
      "ĠBrig": 6806,
      "ĠArmenian": 6807,
      "Ġjurisd": 6808,
      "ES": 6809,
      "pet": 6810,
      "ĠBridge": 6811,
      "istical": 6812,
      "ĠHan": 6813,
      "ĠColumbus": 6814,
      "ĠBabyl": 6815,
      "Ġalphabet": 6816,
      "sk": 6817,
      "xic": 6818,
      "inian": 6819,
      "ĠHay": 6820,
      "emale": 6821,
      "Ġclin": 6822,
      "Ġdecor": 6823,
      "rises": 6824,
      "Ġeffectively": 6825,
      "ĠSwiss": 6826,
      "Ġdebate": 6827,
      "Ġconsisted": 6828,
      "Ġinvestment": 6829,
      "Ġdescription": 6830,
      "Pre": 6831,
      "ĠBrian": 6832,
      "riers": 6833,
      "ulty": 6834,
      "ĠAli": 6835,
      "Ġformally": 6836,
      "Ġapprop": 6837,
      "Ġrestrict": 6838,
      "ymn": 6839,
      "ĠRegion": 6840,
      "Ġpenal": 6841,
      "Ġdrama": 6842,
      "Films": 6843,
      "Ġcriminal": 6844,
      "Ġmist": 6845,
      "ĠMarsh": 6846,
      "osph": 6847,
      "Ġvac": 6848,
      "Ġexport": 6849,
      "Ġexpect": 6850,
      "ovina": 6851,
      "Ġcommitted": 6852,
      "Ġsomewhat": 6853,
      "French": 6854,
      "Ġbudget": 6855,
      "Ġgram": 6856,
      "ĠDet": 6857,
      "Ġforming": 6858,
      "Ġprinciples": 6859,
      "ĠMountains": 6860,
      "Ġcategory": 6861,
      "Ġans": 6862,
      "Ġbanks": 6863,
      "asi": 6864,
      "ĠMax": 6865,
      "Ġimperial": 6866,
      "Ġshortly": 6867,
      "ĠPalace": 6868,
      "Ġprovinces": 6869,
      "adelphia": 6870,
      "ao": 6871,
      "orus": 6872,
      "Ġdoll": 6873,
      "Ġbeer": 6874,
      "ĠHy": 6875,
      "antly": 6876,
      "Ġserves": 6877,
      "Ġcopies": 6878,
      "Ġdocuments": 6879,
      "Ġdetermine": 6880,
      "Ġdrugs": 6881,
      "Ġanx": 6882,
      "Ġthir": 6883,
      "ĠFair": 6884,
      "angel": 6885,
      "wegian": 6886,
      "Ġfundamental": 6887,
      "Ġmountains": 6888,
      "Ġdialects": 6889,
      "Ġbranches": 6890,
      "%),": 6891,
      "Us": 6892,
      "ĠCr": 6893,
      "Ġretain": 6894,
      "olia": 6895,
      "urance": 6896,
      "Ġvent": 6897,
      "Ġunc": 6898,
      "ĠVis": 6899,
      "Ġaccord": 6900,
      "anna": 6901,
      "Ġprocessing": 6902,
      "Ġstatistics": 6903,
      "billion": 6904,
      "Ġcold": 6905,
      "rome": 6906,
      "Ġarticles": 6907,
      "Ġcontroll": 6908,
      "Ġfram": 6909,
      "Ġhall": 6910,
      "ĠPier": 6911,
      "apse": 6912,
      "ika": 6913,
      "Ġincident": 6914,
      "Ġphysics": 6915,
      "Ġarrang": 6916,
      "ĠBengal": 6917,
      "His": 6918,
      "Ġille": 6919,
      "ader": 6920,
      "iful": 6921,
      "ĠKong": 6922,
      "endar": 6923,
      "ĠCameroon": 6924,
      "ĠTit": 6925,
      "Ġsole": 6926,
      "Ġadding": 6927,
      "ĠPhilos": 6928,
      "def": 6929,
      "Ġabsolute": 6930,
      "ez": 6931,
      "fare": 6932,
      "jo": 6933,
      "zona": 6934,
      "Ġtons": 6935,
      "Ġfresh": 6936,
      "Ġassemb": 6937,
      "Ġlocations": 6938,
      "Ġrepresenting": 6939,
      "Ġsoldier": 6940,
      "Ġescape": 6941,
      "ĠCommonwealth": 6942,
      "eign": 6943,
      "icide": 6944,
      "Ġoppos": 6945,
      "Ġhoriz": 6946,
      "Ġcorresponding": 6947,
      "Ġcryst": 6948,
      "ĠCosta": 6949,
      "don": 6950,
      "Ġaster": 6951,
      "ĠBrad": 6952,
      "ĠVi": 6953,
      "keley": 6954,
      "Ġrepresentation": 6955,
      "Ġdebt": 6956,
      "bec": 6957,
      "vious": 6958,
      "ificial": 6959,
      "Ġcampus": 6960,
      "Ġgradually": 6961,
      "US": 6962,
      "Ġcited": 6963,
      "ĠBrand": 6964,
      "ushed": 6965,
      "ĠLt": 6966,
      "apes": 6967,
      "Ġparticle": 6968,
      "Ġdeliv": 6969,
      "ĠForeign": 6970,
      "Ġrom": 6971,
      "Ġsulf": 6972,
      "Ġber": 6973,
      "Ġpione": 6974,
      "ĠAcc": 6975,
      "Ġunderstood": 6976,
      "Ġowner": 6977,
      "Ġperiods": 6978,
      "Ġdirectors": 6979,
      "Ġelectrons": 6980,
      "Following": 6981,
      "Histor": 6982,
      "after": 6983,
      "his": 6984,
      "iable": 6985,
      "riff": 6986,
      "oka": 6987,
      "Ġmode": 6988,
      "ĠConn": 6989,
      "Ġapart": 6990,
      "Ġedge": 6991,
      "Ġmarkets": 6992,
      "uisine": 6993,
      "Ġstyles": 6994,
      "John": 6995,
      "Ġwing": 6996,
      "Ġvir": 6997,
      "Ġorb": 6998,
      "Ġpresidential": 6999,
      "Ġbalance": 7000,
      "ĠNapole": 7001,
      "hetic": 7002,
      "rell": 7003,
      "Ġidentify": 7004,
      "Ġlowest": 7005,
      "ĠProtestant": 7006,
      "arry": 7007,
      "Ġbill": 7008,
      "ĠBed": 7009,
      "soft": 7010,
      "Ġabort": 7011,
      "Ġextension": 7012,
      "Ġrecognition": 7013,
      "Ġachieve": 7014,
      "going": 7015,
      "Ġprepared": 7016,
      "oque": 7017,
      "vements": 7018,
      "Ġfranch": 7019,
      "ĠMes": 7020,
      "opt": 7021,
      "avel": 7022,
      "ĠConstantin": 7023,
      "Ġbone": 7024,
      "oli": 7025,
      "ĠBM": 7026,
      "ĠRights": 7027,
      "osh": 7028,
      "ĠLiverpool": 7029,
      "text": 7030,
      "Ġopera": 7031,
      "Ġdivisions": 7032,
      "Ġderiv": 7033,
      "Ġhousehold": 7034,
      "senal": 7035,
      "Ġnewspapers": 7036,
      "avery": 7037,
      "Ġmand": 7038,
      "oma": 7039,
      "Ġshall": 7040,
      "Ġreferences": 7041,
      "ĠHit": 7042,
      "ĠRoll": 7043,
      "ategy": 7044,
      "Ġrandom": 7045,
      "ĠKy": 7046,
      "Ġinfantry": 7047,
      "Ġstrategy": 7048,
      "ĠSamuel": 7049,
      "Ġaxi": 7050,
      "Cont": 7051,
      "abilities": 7052,
      "Ġsixth": 7053,
      "CS": 7054,
      "Sources": 7055,
      "Ġpitch": 7056,
      "ĠBoys": 7057,
      "ĠHo": 7058,
      "ĠHart": 7059,
      "ikh": 7060,
      "Ġcharacterized": 7061,
      "Ġrestaur": 7062,
      "Ġdominated": 7063,
      "Ġangle": 7064,
      "claimed": 7065,
      "ĠBuffalo": 7066,
      "ceae": 7067,
      "ĠIndust": 7068,
      "aths": 7069,
      "Ġshowing": 7070,
      "di": 7071,
      "ĠAN": 7072,
      "pping": 7073,
      "certain": 7074,
      "operation": 7075,
      "Ġinjury": 7076,
      "ĠRailway": 7077,
      "Ġwinners": 7078,
      "ĠVan": 7079,
      "Ġbrown": 7080,
      "arks": 7081,
      "Ġselection": 7082,
      "Ġaccused": 7083,
      "Ġfounding": 7084,
      "Ġdelay": 7085,
      "Ġcopper": 7086,
      "ĠTemple": 7087,
      "ĠOrganization": 7088,
      "itzerland": 7089,
      "Ġpartner": 7090,
      "ĠYan": 7091,
      "Ġweather": 7092,
      "Ġexpand": 7093,
      "ĠMedal": 7094,
      "Ġfavour": 7095,
      "ĠACLU": 7096,
      "Ġdrop": 7097,
      "ĠToday": 7098,
      "ĠLuther": 7099,
      "ials": 7100,
      "Ġlinked": 7101,
      "Ġexisted": 7102,
      "Ġargument": 7103,
      "Ġpriest": 7104,
      "Ġfile": 7105,
      "ĠPhiladelphia": 7106,
      "Ġsurviving": 7107,
      "ĠQueens": 7108,
      "enhagen": 7109,
      "aver": 7110,
      "produ": 7111,
      "Ġinner": 7112,
      "Ġdiverse": 7113,
      "unch": 7114,
      "Ġvo": 7115,
      "ante": 7116,
      "overeign": 7117,
      "ĠMarc": 7118,
      "ĠBrother": 7119,
      "Ġelectronic": 7120,
      "Ġpersons": 7121,
      "Ġadvertising": 7122,
      "\";": 7123,
      "Ġwars": 7124,
      "Ġwinner": 7125,
      "ĠEU": 7126,
      "Ġplot": 7127,
      "ĠPalest": 7128,
      "Ġdegrees": 7129,
      "Ġcriticism": 7130,
      "Ġcelebrated": 7131,
      "Ġassumed": 7132,
      "Ġstraight": 7133,
      "ĠAbraham": 7134,
      "erted": 7135,
      "Ġconj": 7136,
      "ĠFa": 7137,
      "ĠGr": 7138,
      "Ġnothing": 7139,
      "enses": 7140,
      "Ġroot": 7141,
      "Ġoverl": 7142,
      "Ġinstruction": 7143,
      "Ġfeed": 7144,
      "Ã©e": 7145,
      "ĠColon": 7146,
      "Ġlink": 7147,
      "Ġencounter": 7148,
      "Ġcharged": 7149,
      "cribed": 7150,
      "Ġdating": 7151,
      "ĠSel": 7152,
      "ĠRun": 7153,
      "overty": 7154,
      "Ġassembly": 7155,
      "enness": 7156,
      "Ġdetails": 7157,
      "gence": 7158,
      "mat": 7159,
      "Ġinhib": 7160,
      "idae": 7161,
      "Ġstret": 7162,
      "Ġwhy": 7163,
      "Ġentry": 7164,
      "Ġretire": 7165,
      "Ġexplo": 7166,
      "Ġmeasures": 7167,
      "Ġcosts": 7168,
      "Ġfellow": 7169,
      "die": 7170,
      "jamin": 7171,
      "Ġintern": 7172,
      "Ġdie": 7173,
      "ĠSymph": 7174,
      "ĠLike": 7175,
      "hered": 7176,
      "ĠConvention": 7177,
      "Ġsurrender": 7178,
      "Ġfunding": 7179,
      "speaking": 7180,
      "ĠRoger": 7181,
      "Bibliography": 7182,
      "bishop": 7183,
      "wright": 7184,
      "arp": 7185,
      "ĠAlan": 7186,
      "Ġfoundation": 7187,
      "ĠAlexandra": 7188,
      "NP": 7189,
      "but": 7190,
      "Ġtalk": 7191,
      "Ġaware": 7192,
      "ĠSon": 7193,
      "Ġreaching": 7194,
      "Ġphysic": 7195,
      "Ġscholar": 7196,
      "Ġdocumentary": 7197,
      "Ġhorse": 7198,
      "iency": 7199,
      "lig": 7200,
      "ni": 7201,
      "uled": 7202,
      "ĠGulf": 7203,
      "ĠNiger": 7204,
      "Ġkil": 7205,
      "ĠAnat": 7206,
      "Ġimag": 7207,
      "Ġexperiments": 7208,
      "Ġideal": 7209,
      "Ġstrike": 7210,
      "cyclop": 7211,
      "zegovina": 7212,
      "aration": 7213,
      "Ġanch": 7214,
      "Ġbow": 7215,
      "Ġretained": 7216,
      "Ġ().": 7217,
      "ĠFederation": 7218,
      "Ġroads": 7219,
      "ĠLeon": 7220,
      "Ġdetect": 7221,
      "idden": 7222,
      "Ġadopt": 7223,
      "avalry": 7224,
      "Ġpoetry": 7225,
      "Ġcustom": 7226,
      "roup": 7227,
      "Ġhapp": 7228,
      "ĠCab": 7229,
      "iversary": 7230,
      "Ġblues": 7231,
      "abled": 7232,
      "Another": 7233,
      "Ġdeclined": 7234,
      "ĠSlav": 7235,
      "ĠAberdeen": 7236,
      "ĠAmazon": 7237,
      "ĠPremier": 7238,
      "ĠConstantinople": 7239,
      "Ġawards": 7240,
      "icism": 7241,
      "ĠBod": 7242,
      "Ġnom": 7243,
      "chang": 7244,
      "Ġvector": 7245,
      "ĠThrough": 7246,
      "Ġphon": 7247,
      "ĊĊĠĊ": 7248,
      "Roman": 7249,
      "making": 7250,
      "Ġsed": 7251,
      "omical": 7252,
      "stan": 7253,
      "ĠGord": 7254,
      "Ġitems": 7255,
      "sea": 7256,
      "ĠAncient": 7257,
      "Ġgovernments": 7258,
      "Ġguard": 7259,
      "ĠBefore": 7260,
      "ĠArtemis": 7261,
      "Ġprofessor": 7262,
      "App": 7263,
      "NT": 7264,
      "uccess": 7265,
      "ĠDue": 7266,
      "Ġprohib": 7267,
      "Ġspaces": 7268,
      "Ġfloor": 7269,
      "Ġexplained": 7270,
      "Ġmunicipality": 7271,
      "Ġdrawn": 7272,
      "ugoslav": 7273,
      "European": 7274,
      "pass": 7275,
      "Ġsell": 7276,
      "rogen": 7277,
      "ĠSand": 7278,
      "Ġegg": 7279,
      "Ġvel": 7280,
      "Ġunus": 7281,
      "Ġdispl": 7282,
      "Ġaccident": 7283,
      "Ġexplan": 7284,
      "ĠHollywood": 7285,
      "bourne": 7286,
      "ders": 7287,
      "Ġbases": 7288,
      "Ġroots": 7289,
      "Ġequation": 7290,
      "Ġpromote": 7291,
      "Ġbrothers": 7292,
      "ruption": 7293,
      "ĠWalter": 7294,
      "Ġrub": 7295,
      "Ġunderstand": 7296,
      "Ġrefuge": 7297,
      "Ġtransportation": 7298,
      "Ġamounts": 7299,
      "ĠWallace": 7300,
      "ĠSus": 7301,
      "Ġstrict": 7302,
      "odium": 7303,
      "Ġven": 7304,
      "oking": 7305,
      "Ġproduces": 7306,
      "Ġfeet": 7307,
      "Ġoccas": 7308,
      "Ġruler": 7309,
      "Ġparticipated": 7310,
      "vo": 7311,
      "ĠBotswana": 7312,
      "otten": 7313,
      "sex": 7314,
      "Ġconfig": 7315,
      "scape": 7316,
      "Ġensure": 7317,
      "elaide": 7318,
      "ĠErn": 7319,
      "ĠAdminist": 7320,
      "father": 7321,
      "Ġovers": 7322,
      "ĠBurg": 7323,
      "ifies": 7324,
      "glas": 7325,
      "Ġracing": 7326,
      "Ġsoil": 7327,
      "ĠGermans": 7328,
      "Ġorigins": 7329,
      "Ġmassive": 7330,
      "Ġmerch": 7331,
      "Ġproteins": 7332,
      "long": 7333,
      "nership": 7334,
      "Ġtests": 7335,
      "Ġfine": 7336,
      "rac": 7337,
      "Ġacknow": 7338,
      "Ġcoverage": 7339,
      "ĠBronx": 7340,
      "Ġmolecules": 7341,
      "fort": 7342,
      "ĠGoth": 7343,
      "Ġheard": 7344,
      "ĠOfficial": 7345,
      "Ġcloth": 7346,
      "Ġfled": 7347,
      "Ġcultures": 7348,
      "Ġreturning": 7349,
      "ĠBrussels": 7350,
      "Leg": 7351,
      "oft": 7352,
      "Ġtools": 7353,
      "ĠSay": 7354,
      "Ġreactions": 7355,
      "ĠBow": 7356,
      "ĠRos": 7357,
      "ĠKir": 7358,
      "Ġexecuted": 7359,
      "Ġperformances": 7360,
      "ĠImperial": 7361,
      "IT": 7362,
      "asure": 7363,
      "ĠLov": 7364,
      "ĠWild": 7365,
      "ĠKer": 7366,
      "Ġpredomin": 7367,
      "Ġgoes": 7368,
      "inally": 7369,
      "roc": 7370,
      "room": 7371,
      "ĠSax": 7372,
      "Ġexerc": 7373,
      "Ġshut": 7374,
      "Ġresident": 7375,
      "Ġsynd": 7376,
      "Ġattached": 7377,
      "Ġreputation": 7378,
      "Ġsingles": 7379,
      "Ġspacecraft": 7380,
      "Ġcredited": 7381,
      "Ê¼": 7382,
      "Ġmil": 7383,
      "Ġasc": 7384,
      "ĠDak": 7385,
      "acent": 7386,
      "ĠOt": 7387,
      "Ġrit": 7388,
      "Ġdoing": 7389,
      "ĠBaltic": 7390,
      "archers": 7391,
      "prise": 7392,
      "ĠBahÃ¡": 7393,
      "tario": 7394,
      "Ġpassenger": 7395,
      "Austral": 7396,
      "Ġexpedition": 7397,
      "ĠMill": 7398,
      "iege": 7399,
      "Ġeyes": 7400,
      "ĠAristotle": 7401,
      "Å«": 7402,
      "Ġcamer": 7403,
      "ĠSyd": 7404,
      "Ġrecept": 7405,
      "Ġkid": 7406,
      "Ġraces": 7407,
      "lium": 7408,
      "Ġcolour": 7409,
      "Ġmembership": 7410,
      "Ġhistorically": 7411,
      "ĠHerzegovina": 7412,
      "Ġaccompanied": 7413,
      "ste": 7414,
      "amics": 7415,
      "Ġaspir": 7416,
      "ĠLM": 7417,
      "Ġmanner": 7418,
      "ĠNorway": 7419,
      "Ġsurvived": 7420,
      "Ġcommittee": 7421,
      "Ġrarely": 7422,
      "Ġdelivered": 7423,
      "Ġtren": 7424,
      "icas": 7425,
      "Ġexceed": 7426,
      "Ġperfect": 7427,
      "Ġassess": 7428,
      "Ġrequest": 7429,
      "amaic": 7430,
      "ĠArizona": 7431,
      "Ġopportunity": 7432,
      "Tele": 7433,
      "Ġtennis": 7434,
      "Ġstore": 7435,
      "ĠThough": 7436,
      "Ġmodule": 7437,
      "iveness": 7438,
      "Ġelectrical": 7439,
      "ĠSwitzerland": 7440,
      "Ġprotected": 7441,
      "Ġeducational": 7442,
      "Ġperforming": 7443,
      "iblical": 7444,
      "Ġtherapy": 7445,
      "ocol": 7446,
      "ĠChannel": 7447,
      "ĠVar": 7448,
      "Ġinfrastructure": 7449,
      "Ġpoliticians": 7450,
      "Ġengaged": 7451,
      "Ġresearchers": 7452,
      "Ġmeasured": 7453,
      "celona": 7454,
      "Ġforests": 7455,
      "Ġbacteria": 7456,
      "ĠCeltic": 7457,
      "Ġopposite": 7458,
      "Ġfaced": 7459,
      "ĠSher": 7460,
      "ĠMit": 7461,
      "ĠAramaic": 7462,
      "Ġagents": 7463,
      "Ġcarrier": 7464,
      "Ġexplos": 7465,
      "Ġadvoc": 7466,
      "ĠTransport": 7467,
      "Ġsymbols": 7468,
      "Ġdomain": 7469,
      "Ġweapon": 7470,
      "mers": 7471,
      "rame": 7472,
      "Ġfly": 7473,
      "ĠAld": 7474,
      "ĠSuch": 7475,
      "Ġshif": 7476,
      "phib": 7477,
      "Ġtrav": 7478,
      "ĠAdrian": 7479,
      "Ġantip": 7480,
      "Ġdiscover": 7481,
      "Ġmusician": 7482,
      "ĠBetween": 7483,
      "Ð¾": 7484,
      "Ġmamm": 7485,
      "ĠAqu": 7486,
      "Ġhair": 7487,
      "ĠDur": 7488,
      "ellite": 7489,
      "Ġintelligence": 7490,
      "Ġenh": 7491,
      "Ġprey": 7492,
      "overnment": 7493,
      "ĠComputer": 7494,
      "Ġdiagn": 7495,
      "ĠArkansas": 7496,
      "Ġmathematician": 7497,
      "ĠAnthony": 7498,
      "Ġchess": 7499,
      "ĠAph": 7500,
      "ĠTay": 7501,
      "ĠRel": 7502,
      "agre": 7503,
      "Ġlect": 7504,
      "Ġweb": 7505,
      "ĠOnly": 7506,
      "Ġclassification": 7507,
      "Ġcert": 7508,
      "ĠHarvard": 7509,
      "ĠBelgian": 7510,
      "Ġrenew": 7511,
      "Ġdistributed": 7512,
      "Ġdiseases": 7513,
      "Ġcricketer": 7514,
      "iop": 7515,
      "ĠIBM": 7516,
      "Ġmonaster": 7517,
      "Ġslave": 7518,
      "ossible": 7519,
      "raeli": 7520,
      "ĠSimilar": 7521,
      "ĠJacob": 7522,
      "ĠCirc": 7523,
      "ĠNever": 7524,
      "ĠChampions": 7525,
      "Ġflood": 7526,
      "Ġappeal": 7527,
      "ĠOntario": 7528,
      "pective": 7529,
      "Ġdestruction": 7530,
      "Ġlegislation": 7531,
      "Ġconversion": 7532,
      "Ġgene": 7533,
      "ĠDomin": 7534,
      "Ġeval": 7535,
      "Ġmoder": 7536,
      "Ġremark": 7537,
      "Ġtracks": 7538,
      "Ġsuccession": 7539,
      "Ġpassing": 7540,
      "ĠAugustine": 7541,
      "ĠMuslims": 7542,
      "ĠStandard": 7543,
      "Ġoccasionally": 7544,
      "lon": 7545,
      "real": 7546,
      "Ġfil": 7547,
      "oust": 7548,
      "ĠRon": 7549,
      "ears": 7550,
      "Ġcontest": 7551,
      "Ġvisible": 7552,
      "Ġsubstantial": 7553,
      "Pr": 7554,
      "oa": 7555,
      "Ġsoul": 7556,
      "esc": 7557,
      "Ġmobile": 7558,
      "ĠAth": 7559,
      "olas": 7560,
      "ĠWeek": 7561,
      "Ġvoted": 7562,
      "ĠAnne": 7563,
      "Ġentitled": 7564,
      "Ġrebell": 7565,
      "Ġcriticized": 7566,
      "Ġmanufacturing": 7567,
      "Ġconcert": 7568,
      "hu": 7569,
      "power": 7570,
      "Ġlaid": 7571,
      "Ġexcess": 7572,
      "Ġnote": 7573,
      "ĠBeach": 7574,
      "Ġjudge": 7575,
      "Ġarrested": 7576,
      "zym": 7577,
      "atics": 7578,
      "Ġbright": 7579,
      "ĠTony": 7580,
      "ĠPot": 7581,
      "Ġvalley": 7582,
      "ĠAirlines": 7583,
      "ĠRepresent": 7584,
      "apping": 7585,
      "ĠKarl": 7586,
      "Ġpreferred": 7587,
      "Ġatmosphere": 7588,
      "cock": 7589,
      "ji": 7590,
      "Ġnavig": 7591,
      "Ġcomed": 7592,
      "oked": 7593,
      "Ġneither": 7594,
      "Ġsubstit": 7595,
      "Ġcolleges": 7596,
      "Ġmomentum": 7597,
      "Ġpenalty": 7598,
      "box": 7599,
      "atab": 7600,
      "Ġborders": 7601,
      "Ġvotes": 7602,
      "Ġrow": 7603,
      "Ġroutes": 7604,
      "Ġsubt": 7605,
      "Ġtermin": 7606,
      "ĠMarine": 7607,
      "ĠNorwegian": 7608,
      "ĠMichigan": 7609,
      "Ġmissile": 7610,
      "Ġarmies": 7611,
      "Ġrequirements": 7612,
      "forcement": 7613,
      "Ġlyrics": 7614,
      "Olymp": 7615,
      "run": 7616,
      "Ġaqu": 7617,
      "Ġod": 7618,
      "Ġcovers": 7619,
      "ĠMand": 7620,
      "rage": 7621,
      "Ġresist": 7622,
      "International": 7623,
      "Ġcanon": 7624,
      "Ġscenes": 7625,
      "Ġrecip": 7626,
      "Ġsupposed": 7627,
      "Ġabsence": 7628,
      "ĠCaptain": 7629,
      "ĠDouglas": 7630,
      "ĠBernard": 7631,
      "Ġpaintings": 7632,
      "east": 7633,
      "rary": 7634,
      "Ġeagle": 7635,
      "ĠHindu": 7636,
      "athy": 7637,
      "ĠPhys": 7638,
      "ĠPrim": 7639,
      "Ġsolo": 7640,
      "Ġviewed": 7641,
      "Ġbehavi": 7642,
      "Ġneighbour": 7643,
      "Ġcouple": 7644,
      "Ġnickn": 7645,
      "ocumentary": 7646,
      "Ġ*": 7647,
      "Ġster": 7648,
      "idal": 7649,
      "people": 7650,
      "uble": 7651,
      "Ġammon": 7652,
      "Ġorganic": 7653,
      "Ġreduction": 7654,
      "Ġtreaty": 7655,
      "Ġhousing": 7656,
      "Ġconstitutional": 7657,
      "Ġconventional": 7658,
      "ĠBaptist": 7659,
      "bes": 7660,
      "Ġfal": 7661,
      "Ġhuge": 7662,
      "ĠBand": 7663,
      "Ġnode": 7664,
      "ĠFather": 7665,
      "ourse": 7666,
      "Ġcompound": 7667,
      "Ġdepicted": 7668,
      "Ġiniti": 7669,
      "ĠTrade": 7670,
      "ĠBenjamin": 7671,
      "Ġtourism": 7672,
      "Ġresponsibility": 7673,
      "ĠFrederick": 7674,
      "ĠSymphony": 7675,
      "sky": 7676,
      "onomy": 7677,
      "rehens": 7678,
      "Ġwrest": 7679,
      "Ġmales": 7680,
      "olid": 7681,
      "ulating": 7682,
      "ĠGran": 7683,
      "aret": 7684,
      "ĠYugoslav": 7685,
      "ailed": 7686,
      "Ġimprison": 7687,
      "ĠPrin": 7688,
      "shire": 7689,
      "Ġnetworks": 7690,
      "ĠReview": 7691,
      "Ġprinted": 7692,
      "Ġceremony": 7693,
      "ĠNazi": 7694,
      "Ġbaptism": 7695,
      "AN": 7696,
      "ĠFord": 7697,
      "Ġsuit": 7698,
      "ensis": 7699,
      "Ġspot": 7700,
      "Ġcollected": 7701,
      "ĠMedia": 7702,
      "Ġdenomin": 7703,
      "inental": 7704,
      "Ġregularly": 7705,
      "Ġcategories": 7706,
      "ĠDefense": 7707,
      "heastern": 7708,
      "eman": 7709,
      "ĠFall": 7710,
      "Ġunf": 7711,
      "ĠAdvent": 7712,
      "Ġpercentage": 7713,
      "Ġlearned": 7714,
      "Bo": 7715,
      "Ġmas": 7716,
      "Ġmorph": 7717,
      "Ġ(;": 7718,
      "Ġstim": 7719,
      "ĠFal": 7720,
      "Ġcarrying": 7721,
      "Ġexplicit": 7722,
      "ĠEarl": 7723,
      "Ġverb": 7724,
      "Ġgods": 7725,
      "ĠJohann": 7726,
      "mes": 7727,
      "Ġstages": 7728,
      "ĠDC": 7729,
      "Ġpartly": 7730,
      "ĠHead": 7731,
      "Ġassistance": 7732,
      "Ġestate": 7733,
      "ĠAmb": 7734,
      "Ġaffairs": 7735,
      "ĠBerkeley": 7736,
      "Ġpractical": 7737,
      "ĠCaes": 7738,
      "Ġcontroversial": 7739,
      "Fran": 7740,
      "Ġsample": 7741,
      "Ġrear": 7742,
      "Ġnoun": 7743,
      "eller": 7744,
      "irect": 7745,
      "Ġsched": 7746,
      "Ġstanding": 7747,
      "Ġreplacing": 7748,
      "ĠCrown": 7749,
      "Ġtwelve": 7750,
      "ĠSecurity": 7751,
      "Ðµ": 7752,
      "Ġinher": 7753,
      "Ġfoss": 7754,
      "ĠHu": 7755,
      "Ġparam": 7756,
      "Ġsolar": 7757,
      "Ġprisoners": 7758,
      "Î±": 7759,
      "Ġthick": 7760,
      "ĠHab": 7761,
      "ĠHospital": 7762,
      "ĠGib": 7763,
      "aga": 7764,
      "avian": 7765,
      "Ġclim": 7766,
      "Ġgenerated": 7767,
      "Ġslavery": 7768,
      "scale": 7769,
      "ĠPeace": 7770,
      "ĠMurray": 7771,
      "Ġcandidates": 7772,
      "Ġcontroversy": 7773,
      "ĠDirector": 7774,
      "Ġhyper": 7775,
      "Res": 7776,
      "ses": 7777,
      "Ġtry": 7778,
      "Ġtells": 7779,
      "Ġnone": 7780,
      "Ġvariant": 7781,
      "Ġimplemented": 7782,
      "imensional": 7783,
      "gom": 7784,
      "iations": 7785,
      "itations": 7786,
      "Ġfest": 7787,
      "Ġmart": 7788,
      "ĠEll": 7789,
      "ĠJury": 7790,
      "Ġrid": 7791,
      "Ġyellow": 7792,
      "Ġorganisms": 7793,
      "Ġreducing": 7794,
      "Ġgrav": 7795,
      "ĠAdditionally": 7796,
      "ĠSydney": 7797,
      "lo": 7798,
      "rors": 7799,
      "Ġathlet": 7800,
      "Ġwa": 7801,
      "ĠAL": 7802,
      "ĠBerm": 7803,
      "ĠHal": 7804,
      "ĠNich": 7805,
      "Ġuncertain": 7806,
      "ĠKal": 7807,
      "Ġarrival": 7808,
      "ĠSpears": 7809,
      "tymology": 7810,
      "fe": 7811,
      "ski": 7812,
      "ication": 7813,
      "Ġdiox": 7814,
      "ĠId": 7815,
      "ithms": 7816,
      "eneration": 7817,
      "ĠAllen": 7818,
      "Ġoriginated": 7819,
      "Ġsuperior": 7820,
      "Ġuniversal": 7821,
      "Ġmessage": 7822,
      "Ġsubstance": 7823,
      "mouth": 7824,
      "Ġsovereign": 7825,
      "Ġbought": 7826,
      "Ġpul": 7827,
      "ĠAe": 7828,
      "ĠMain": 7829,
      "ĠHop": 7830,
      "Ġstadium": 7831,
      "ĠWrit": 7832,
      "Ġyour": 7833,
      "Ġconspir": 7834,
      "Ġgrown": 7835,
      "Ġinterests": 7836,
      "Ġsigns": 7837,
      "ĠDefence": 7838,
      "Ġconquest": 7839,
      "Ġbenefit": 7840,
      "Ġneighborhood": 7841,
      "nal": 7842,
      "Ġtrying": 7843,
      "Ġcavalry": 7844,
      "Ġmarg": 7845,
      "ĠRen": 7846,
      "rik": 7847,
      "ensions": 7848,
      "who": 7849,
      "Ġphilosophers": 7850,
      "Ġquestions": 7851,
      "Ġhunting": 7852,
      "bage": 7853,
      "Ġsand": 7854,
      "Ġmir": 7855,
      "ĠLight": 7856,
      "Ġinfin": 7857,
      "Ġcolors": 7858,
      "ĠGlobal": 7859,
      "Ġstrip": 7860,
      "Ġpassengers": 7861,
      "ĠIndonesia": 7862,
      "Ġconsecutive": 7863,
      "ompl": 7864,
      "Ġgiant": 7865,
      "ourney": 7866,
      "Ġarsen": 7867,
      "Ġtransmission": 7868,
      "Ġexpensive": 7869,
      "ricket": 7870,
      "Ġemployees": 7871,
      "Ġsituated": 7872,
      "Ġassistant": 7873,
      "ĠConservative": 7874,
      "Reg": 7875,
      "Ġbishops": 7876,
      "Ġpoverty": 7877,
      "Ġstorm": 7878,
      "ĠDram": 7879,
      "Ġworth": 7880,
      "ensed": 7881,
      "Ġinterior": 7882,
      "Ġcalling": 7883,
      "Ġinvented": 7884,
      "ĠAmiga": 7885,
      "Ġlasted": 7886,
      "Ġfacility": 7887,
      "Ġmechanical": 7888,
      "Ġbriefly": 7889,
      "PC": 7890,
      "hard": 7891,
      "itarian": 7892,
      "rose": 7893,
      "Ġreality": 7894,
      "ĠThen": 7895,
      "ĠFire": 7896,
      "ĠFred": 7897,
      "ĠDeath": 7898,
      "Ġindex": 7899,
      "Ġpoison": 7900,
      "Ġstrugg": 7901,
      "Ġminimum": 7902,
      "ĠCayman": 7903,
      "DA": 7904,
      "cap": 7905,
      "enburg": 7906,
      "ĠFund": 7907,
      "aked": 7908,
      "Ġelectoral": 7909,
      "Ġerror": 7910,
      "Ġcloser": 7911,
      "Ġconcepts": 7912,
      "Ġeye": 7913,
      "Ġpatterns": 7914,
      "Ġastronauts": 7915,
      "Ġdoctrine": 7916,
      "cos": 7917,
      "Ġori": 7918,
      "Ġocean": 7919,
      "Ġcrow": 7920,
      "ĠSix": 7921,
      "Ġthrow": 7922,
      "ĠNon": 7923,
      "Ġplanning": 7924,
      "ĠStock": 7925,
      "ĠĠĠ": 7926,
      "Ġplaywright": 7927,
      "Ġbroken": 7928,
      "ĠRomanian": 7929,
      "Ġrepresentative": 7930,
      "Ġsolutions": 7931,
      "ĠDemocr": 7932,
      "ĠYears": 7933,
      "Ġgraphics": 7934,
      "ĠGordon": 7935,
      "Ã«": 7936,
      "alysis": 7937,
      "Ġcave": 7938,
      "Ġcuisine": 7939,
      "arant": 7940,
      "Ġbot": 7941,
      "icular": 7942,
      "Ġdual": 7943,
      "ĠMoh": 7944,
      "ĠHou": 7945,
      "umed": 7946,
      "Ġsubsid": 7947,
      "Ġanxiety": 7948,
      "jection": 7949,
      "yg": 7950,
      "Ġdiet": 7951,
      "that": 7952,
      "umen": 7953,
      "ripp": 7954,
      "Ġproof": 7955,
      "asters": 7956,
      "ĠLegisl": 7957,
      "eenth": 7958,
      "Ġpig": 7959,
      "stances": 7960,
      "aman": 7961,
      "Ġchose": 7962,
      "sole": 7963,
      "Ġconsult": 7964,
      "Ġpolar": 7965,
      "ĠHarry": 7966,
      "Ġrelationships": 7967,
      "Ġtunnel": 7968,
      "Ġphrase": 7969,
      "cow": 7970,
      "ipe": 7971,
      "itudes": 7972,
      "Ġmorning": 7973,
      "ĠST": 7974,
      "ĠMaster": 7975,
      "ĠLind": 7976,
      "Ġdisk": 7977,
      "eping": 7978,
      "Ġaccompl": 7979,
      "ĠProp": 7980,
      "Ġgenre": 7981,
      "Ġtribe": 7982,
      "Ġaudio": 7983,
      "ĠDakota": 7984,
      "Alex": 7985,
      "Ġhour": 7986,
      "raine": 7987,
      "ĠArsenal": 7988,
      "Ġthemes": 7989,
      "Ġexposure": 7990,
      "ĠOnce": 7991,
      "Ġgenus": 7992,
      "Ġargues": 7993,
      "Ġvillages": 7994,
      "Ġconcerned": 7995,
      "burn": 7996,
      "ye": 7997,
      "rium": 7998,
      "Ġvice": 7999,
      "Ġdisorders": 8000,
      "rons": 8001,
      "auer": 8002,
      "Ġstatue": 8003,
      "Ġconsumption": 8004,
      "Ġimmigrants": 8005,
      "Ġaluminium": 8006,
      "ennessee": 8007,
      "Ag": 8008,
      "uin": 8009,
      "ĠSud": 8010,
      "ĠBAS": 8011,
      "ĠRena": 8012,
      "ĠLow": 8013,
      "aste": 8014,
      "uster": 8015,
      "ultane": 8016,
      "Ġteacher": 8017,
      "Ġupd": 8018,
      "Ġacceler": 8019,
      "Ġconstruct": 8020,
      "ĠBoeing": 8021,
      "Ġlimits": 8022,
      "Ġexecution": 8023,
      "ĠCopenhagen": 8024,
      "Ġtouch": 8025,
      "ĠBishop": 8026,
      "urd": 8027,
      "ĠImp": 8028,
      "aki": 8029,
      "angle": 8030,
      "Ġwrites": 8031,
      "Ġreceiving": 8032,
      "plete": 8033,
      "Ġclean": 8034,
      "rodite": 8035,
      "ĠBusiness": 8036,
      "Olympic": 8037,
      "Modern": 8038,
      "ĠNa": 8039,
      "Ġvot": 8040,
      "ypes": 8041,
      "type": 8042,
      "Ġpossibility": 8043,
      "ĠAngola": 8044,
      "Ġindicated": 8045,
      "Ġcrypt": 8046,
      "Ġmixture": 8047,
      "ĠLady": 8048,
      "using": 8049,
      "ĠRem": 8050,
      "Ġconference": 8051,
      "ĠLet": 8052,
      "Ġabst": 8053,
      "Ġpref": 8054,
      "Ġdiff": 8055,
      "ĠAdelaide": 8056,
      "Ġcontributions": 8057,
      "ĠCambodia": 8058,
      "ĠCardiff": 8059,
      "Ġholid": 8060,
      "However": 8061,
      "South": 8062,
      "pine": 8063,
      "Ġfan": 8064,
      "ĠTy": 8065,
      "ivated": 8066,
      "Ġgal": 8067,
      "ĠPit": 8068,
      "ĠRab": 8069,
      "ĠDyn": 8070,
      "aks": 8071,
      "Ġsubjects": 8072,
      "ĠSerbia": 8073,
      "ĠEconomic": 8074,
      "uations": 8075,
      "ĠSav": 8076,
      "ĠCry": 8077,
      "ĠEinstein": 8078,
      "Ġplus": 8079,
      "Ġvaries": 8080,
      "Ġvarieties": 8081,
      "Ġlongest": 8082,
      "Ġclassic": 8083,
      "Ġvowel": 8084,
      "ĠMemorial": 8085,
      "Ġhypothesis": 8086,
      "Ã¢": 8087,
      "ĠAG": 8088,
      "ĠDown": 8089,
      "season": 8090,
      "Ġinflation": 8091,
      "Ġemig": 8092,
      "Ġconstell": 8093,
      "Ġoffices": 8094,
      "Ġtrust": 8095,
      "ĠDavis": 8096,
      "Ġindustries": 8097,
      "Ġmachines": 8098,
      "ĠInstead": 8099,
      "Sw": 8100,
      "ania": 8101,
      "icial": 8102,
      "Ġeat": 8103,
      "Ġgall": 8104,
      "ĠFact": 8105,
      "Ġcommem": 8106,
      "ĠPhill": 8107,
      "Ġmunicipalities": 8108,
      "rity": 8109,
      "ww": 8110,
      "Äį": 8111,
      "Ġinse": 8112,
      "ilton": 8113,
      "ĠTs": 8114,
      "Ġloyal": 8115,
      "erse": 8116,
      "ĠRica": 8117,
      "ĠEncyclop": 8118,
      "Ġdefence": 8119,
      "Ġelim": 8120,
      "Ġhundreds": 8121,
      "isers": 8122,
      "Ġbird": 8123,
      "ĠOm": 8124,
      "Ġappoint": 8125,
      "Ġreleg": 8126,
      "Ġalgebraic": 8127,
      "ĠTestament": 8128,
      "gomery": 8129,
      "Ġtall": 8130,
      "anas": 8131,
      "orous": 8132,
      "Ġmac": 8133,
      "ĠCrow": 8134,
      "ĠBart": 8135,
      "ĠStra": 8136,
      "ĠStaff": 8137,
      "Ġsyll": 8138,
      "Ġvariation": 8139,
      "Ġdistinction": 8140,
      "Ġmining": 8141,
      "Ġparish": 8142,
      "Ġfactory": 8143,
      "ĠBened": 8144,
      "ucky": 8145,
      "ĠSquare": 8146,
      "Ġopinion": 8147,
      "pur": 8148,
      "Ġinaug": 8149,
      "Ġpages": 8150,
      "Ġdated": 8151,
      "ĠLat": 8152,
      "ĠNBC": 8153,
      "Ġshop": 8154,
      "Ġagree": 8155,
      "ĠReport": 8156,
      "Ġcoe": 8157,
      "ocked": 8158,
      "uchy": 8159,
      "iscop": 8160,
      "ĠBahÃ¡Ê¼": 8161,
      "IP": 8162,
      "Ġtor": 8163,
      "Ġparent": 8164,
      "Ġstating": 8165,
      "ĠEc": 8166,
      "ĠVill": 8167,
      "Ġabund": 8168,
      "Ġphysician": 8169,
      "Ġoffering": 8170,
      "ĠAntar": 8171,
      "Ġsecure": 8172,
      "Ġdemonstrated": 8173,
      "ĠAlbania": 8174,
      "Ġopponent": 8175,
      "IS": 8176,
      "div": 8177,
      "Ġped": 8178,
      "aso": 8179,
      "Ġconvention": 8180,
      "oca": 8181,
      "anga": 8182,
      "othy": 8183,
      "Ġapply": 8184,
      "Ġactivist": 8185,
      "ictionary": 8186,
      "ĠSquadron": 8187,
      "ĠDigital": 8188,
      "OR": 8189,
      "Ġbat": 8190,
      "ĠAvenue": 8191,
      "ĠBurn": 8192,
      "aments": 8193,
      "Ġstored": 8194,
      "areer": 8195,
      "oker": 8196,
      "Ġcann": 8197,
      "Ġprede": 8198,
      "ĠGreeks": 8199,
      "Ġjustice": 8200,
      "Ġchanging": 8201,
      "Ġpainting": 8202,
      "ĠNorman": 8203,
      "Ġmissing": 8204,
      "Ġarranged": 8205,
      "ĠHitler": 8206,
      "trans": 8207,
      "uv": 8208,
      "Ġtanks": 8209,
      "inder": 8210,
      "ĠBalt": 8211,
      "occ": 8212,
      "ewhere": 8213,
      "Ġcomplic": 8214,
      "Ġsurf": 8215,
      "ĠBarcelona": 8216,
      "Ġinfluences": 8217,
      "mingham": 8218,
      "bus": 8219,
      "|}": 8220,
      "onto": 8221,
      "Ġske": 8222,
      "orney": 8223,
      "esium": 8224,
      "Ġbes": 8225,
      "ĠMagn": 8226,
      "ĠDark": 8227,
      "Ġvs": 8228,
      "uba": 8229,
      "Ġpartially": 8230,
      "Ġdismiss": 8231,
      "enny": 8232,
      "Ġprompt": 8233,
      "ĠMcC": 8234,
      "ĠControl": 8235,
      "Ġpreserved": 8236,
      "Ġadjacent": 8237,
      "log": 8238,
      "ĠAgency": 8239,
      "ĠBack": 8240,
      "idency": 8241,
      "ricted": 8242,
      "atters": 8243,
      "ĠNewton": 8244,
      "Ġtrains": 8245,
      "Ġrunner": 8246,
      "ĠTherefore": 8247,
      "ĠAthena": 8248,
      "Ġnoble": 8249,
      "ML": 8250,
      "pa": 8251,
      "Ġsale": 8252,
      "Ġlose": 8253,
      "ĠFri": 8254,
      "ĠGriff": 8255,
      "ĠLanguage": 8256,
      "ĠChris": 8257,
      "orship": 8258,
      "Ġinvent": 8259,
      "Ġannually": 8260,
      "Ġcharacteristic": 8261,
      "Ġbegun": 8262,
      "Ġtur": 8263,
      "inf": 8264,
      "Ġenzym": 8265,
      "Rec": 8266,
      "ecutive": 8267,
      "Ġtruth": 8268,
      "ĠAndre": 8269,
      "Ġfunctional": 8270,
      "Ġimplementation": 8271,
      "ĠMas": 8272,
      "Ġaged": 8273,
      "ĠAugustus": 8274,
      "ĠPolice": 8275,
      "ĠBattalion": 8276,
      "Ġpredecess": 8277,
      "Sch": 8278,
      "Ġfired": 8279,
      "Ġmental": 8280,
      "ayer": 8281,
      "ĠInformation": 8282,
      "Ġdisappe": 8283,
      "ĊĠĠĠ": 8284,
      "Ġartificial": 8285,
      "Ġtrading": 8286,
      "Ġidentical": 8287,
      "Ġcharges": 8288,
      "Ġcrops": 8289,
      "ĠTai": 8290,
      "Ġinstalled": 8291,
      "ĠMalays": 8292,
      "Ġmechanism": 8293,
      "ĠClassical": 8294,
      "Ġcurrency": 8295,
      "ĠTaylor": 8296,
      "Dem": 8297,
      "Jew": 8298,
      "des": 8299,
      "uet": 8300,
      "Ġcable": 8301,
      "ĠEver": 8302,
      "ĠJane": 8303,
      "Ġdecisions": 8304,
      "ynomial": 8305,
      "Ġownership": 8306,
      "Ġconsistent": 8307,
      "ĠCuban": 8308,
      "ĠJosÃ©": 8309,
      "ĠAjax": 8310,
      "Ġportrayed": 8311,
      "Ġacknowled": 8312,
      "Air": 8313,
      "Hung": 8314,
      "iology": 8315,
      "Ġfilled": 8316,
      "ĠTheod": 8317,
      "Ġcoordin": 8318,
      "Ġanything": 8319,
      "Ġfinish": 8320,
      "Ġlogic": 8321,
      "Ġprecip": 8322,
      "Ġinvestigation": 8323,
      "Ġbeauty": 8324,
      "ĠArea": 8325,
      "Ġisolated": 8326,
      "din": 8327,
      "rings": 8328,
      "Ġdraft": 8329,
      "ĠCru": 8330,
      "ĠTennessee": 8331,
      "ĠBeg": 8332,
      "ĠLast": 8333,
      "Ġsections": 8334,
      "ĠStone": 8335,
      "oyd": 8336,
      "Ġpassage": 8337,
      "Ġfinding": 8338,
      "Ġlayer": 8339,
      "Ġmolecular": 8340,
      "Ġpremi": 8341,
      "CD": 8342,
      "Ġcodes": 8343,
      "Ġpup": 8344,
      "Ġnut": 8345,
      "adow": 8346,
      "riots": 8347,
      "ĠInn": 8348,
      "ricks": 8349,
      "oba": 8350,
      "ĠApost": 8351,
      "Ġterror": 8352,
      "Ġbiggest": 8353,
      "Ġabolished": 8354,
      "Ġconsciousness": 8355,
      "ET": 8356,
      "uary": 8357,
      "ingly": 8358,
      "ĠAB": 8359,
      "ifer": 8360,
      "ĠOp": 8361,
      "ogether": 8362,
      "Ġoffensive": 8363,
      "Ġdesigner": 8364,
      "Ġsentence": 8365,
      "Ġplanet": 8366,
      "Ġreviews": 8367,
      "aturally": 8368,
      "ythm": 8369,
      "night": 8370,
      "Ġsalt": 8371,
      "Ġpseud": 8372,
      "rolled": 8373,
      "ĠAal": 8374,
      "ĠAster": 8375,
      "ĠHong": 8376,
      "Ġvision": 8377,
      "teg": 8378,
      "Ġamateur": 8379,
      "Ġstands": 8380,
      "Ġswitch": 8381,
      "Ġexperimental": 8382,
      "mir": 8383,
      "Ð¸": 8384,
      "aran": 8385,
      "Ġbrig": 8386,
      "ivation": 8387,
      "ĠFight": 8388,
      "odies": 8389,
      "Ġchance": 8390,
      "Ġshift": 8391,
      "Ġinspir": 8392,
      "Ġvisitors": 8393,
      "Ġencod": 8394,
      "Ġimmediate": 8395,
      "Ġbeliefs": 8396,
      "ĠBirmingham": 8397,
      "Ġexactly": 8398,
      "iotics": 8399,
      "Ġdescendants": 8400,
      "ĠNapoleon": 8401,
      "Ġtask": 8402,
      "ĠSyn": 8403,
      "ĠSox": 8404,
      "Ġintention": 8405,
      "tenance": 8406,
      "Ġoperates": 8407,
      "Ġantim": 8408,
      "Ġradical": 8409,
      "ĠRobin": 8410,
      "Ġpurchase": 8411,
      "Ġchallenge": 8412,
      "Ġunsuccess": 8413,
      "Sup": 8414,
      "bat": 8415,
      "brid": 8416,
      "iest": 8417,
      "Ġid": 8418,
      "Ġcul": 8419,
      "Ġhits": 8420,
      "imore": 8421,
      "ĠHard": 8422,
      "ĠGram": 8423,
      "ifican": 8424,
      "Ġhence": 8425,
      "ĠArc": 8426,
      "Ġsupporters": 8427,
      "Ġanniversary": 8428,
      "ĠHeritage": 8429,
      "Ġfunds": 8430,
      "Ġcontinuing": 8431,
      "ĠMountain": 8432,
      "Ġdrawing": 8433,
      "Ġadaptation": 8434,
      "ificance": 8435,
      "Ġfit": 8436,
      "ĠIl": 8437,
      "ĠDom": 8438,
      "ĠChican": 8439,
      "Ġinstructions": 8440,
      "Ġseconds": 8441,
      "Ġsocieties": 8442,
      "gressive": 8443,
      "Ġdenied": 8444,
      "mediate": 8445,
      "ozo": 8446,
      "ĠAuthor": 8447,
      "Ġhired": 8448,
      "cht": 8449,
      "ĠRoss": 8450,
      "Ġjun": 8451,
      "lik": 8452,
      "ĠOnline": 8453,
      "Ġtrig": 8454,
      "Ġmarine": 8455,
      "Ġsurvive": 8456,
      "Ġprices": 8457,
      "ovakia": 8458,
      "CO": 8459,
      "itals": 8460,
      "icate": 8461,
      "otton": 8462,
      "ĠRoy": 8463,
      "ĠDiam": 8464,
      "outs": 8465,
      "Ġsimultane": 8466,
      "ometimes": 8467,
      "Ġdifficulty": 8468,
      "ĠMethod": 8469,
      "Ġminority": 8470,
      "ĠWindows": 8471,
      "Ġveloc": 8472,
      "sal": 8473,
      "Ġbonds": 8474,
      "ĠSoutheast": 8475,
      "ĠCrit": 8476,
      "ĠLive": 8477,
      "avid": 8478,
      "Ġbuzz": 8479,
      "hemistry": 8480,
      "Ġedited": 8481,
      "Ġastrol": 8482,
      "Ġcircuit": 8483,
      "ĠâĪĴ": 8484,
      "Ġstopped": 8485,
      "Ġreplacement": 8486,
      "ĠMoscow": 8487,
      "Christian": 8488,
      "Hz": 8489,
      "Ġtheatre": 8490,
      "othe": 8491,
      "ĠGirl": 8492,
      "ĠLog": 8493,
      "ĠChron": 8494,
      "Ġresign": 8495,
      "Ġheritage": 8496,
      "Ġruling": 8497,
      "Ġindicates": 8498,
      "ĠSimon": 8499,
      "Ġconcentrated": 8500,
      "Ġdetailed": 8501,
      "Ġsynthesis": 8502,
      "Ġstruck": 8503,
      "Ġstrategic": 8504,
      "Ġappropriate": 8505,
      "Ġsend": 8506,
      "icts": 8507,
      "ĠUpper": 8508,
      "ĠĊĠĠ": 8509,
      "Ġspoke": 8510,
      "Ġowners": 8511,
      "Ġwarfare": 8512,
      "Ġangular": 8513,
      "Ġoccupation": 8514,
      "Ġsafe": 8515,
      "ĠRomans": 8516,
      "Ġmedalists": 8517,
      "ĠChaplin": 8518,
      "Ġneutral": 8519,
      "onymous": 8520,
      "ĠMicrosoft": 8521,
      "foot": 8522,
      "Ġtoxic": 8523,
      "ĠSaf": 8524,
      "Ġexports": 8525,
      "apore": 8526,
      "Ġarray": 8527,
      "rene": 8528,
      "Ġaggreg": 8529,
      "Ġvariants": 8530,
      "elson": 8531,
      "Ġmineral": 8532,
      "Ġcalendar": 8533,
      "Ġcredit": 8534,
      "ĠAlbanian": 8535,
      "Ġ),": 8536,
      "unte": 8537,
      "Ġcompat": 8538,
      "Ġmainstream": 8539,
      "onomous": 8540,
      "ĠAphrodite": 8541,
      "Sports": 8542,
      "oi": 8543,
      "sch": 8544,
      "Ġtheor": 8545,
      "ĠCall": 8546,
      "Ġrevers": 8547,
      "ĠPed": 8548,
      "ĠHans": 8549,
      "iffer": 8550,
      "Ġdefensive": 8551,
      "ennium": 8552,
      "Ġobservations": 8553,
      "Ġdistinguished": 8554,
      "Notable": 8555,
      "ĠTan": 8556,
      "ethe": 8557,
      "ĠDocumentary": 8558,
      "ĠJord": 8559,
      "Ġpolynomial": 8560,
      "Ġestablishing": 8561,
      "Ġrecommended": 8562,
      "Ġpicture": 8563,
      "Ġcattle": 8564,
      "Ġfictional": 8565,
      "Ġduties": 8566,
      "ĠCart": 8567,
      "ĠFil": 8568,
      "agram": 8569,
      "ĠNaval": 8570,
      "Ġresc": 8571,
      "Ġcontinent": 8572,
      "unei": 8573,
      "Arch": 8574,
      "Ġdispute": 8575,
      "ĠâĨ": 8576,
      "Ġvariations": 8577,
      "Ġreforms": 8578,
      "negie": 8579,
      "ĠFriedrich": 8580,
      "cor": 8581,
      "Ġfaster": 8582,
      "ĠPict": 8583,
      "ista": 8584,
      "agne": 8585,
      "ework": 8586,
      "Ġyards": 8587,
      "ĠAlg": 8588,
      "Ġplayoff": 8589,
      "ĠPhoen": 8590,
      "Ġmerged": 8591,
      "Ġcollapse": 8592,
      "Ġemphasis": 8593,
      "Ġadults": 8594,
      "Ġranging": 8595,
      "Canadian": 8596,
      "Ġdioxide": 8597,
      "Bel": 8598,
      "bach": 8599,
      "zep": 8600,
      "Ġmemb": 8601,
      "ĠMinn": 8602,
      "ĠWis": 8603,
      "Ġrelief": 8604,
      "Ġflo": 8605,
      "Ġdepends": 8606,
      "eanwhile": 8607,
      "Ass": 8608,
      "Ġprofession": 8609,
      "Ġverte": 8610,
      "Ġgeometry": 8611,
      "ĠLtd": 8612,
      "PA": 8613,
      "Ġtied": 8614,
      "Ġwins": 8615,
      "Ġpairs": 8616,
      "ersion": 8617,
      "Ġvul": 8618,
      "anton": 8619,
      "Ġabb": 8620,
      "awn": 8621,
      "Ġinstall": 8622,
      "Ġexposed": 8623,
      "Ġartistic": 8624,
      "ĠAbout": 8625,
      "Ġpoems": 8626,
      "ĠAlliance": 8627,
      "Ġeducator": 8628,
      "Ġgrounds": 8629,
      "ĠArchae": 8630,
      "Ġestimates": 8631,
      "Ġefficient": 8632,
      "Ġoverse": 8633,
      "Ġfat": 8634,
      "Ġdrew": 8635,
      "Ġlists": 8636,
      "emeter": 8637,
      "ĠWalk": 8638,
      "Ġresolution": 8639,
      "Ġresigned": 8640,
      "ĠSpring": 8641,
      "Ġoperational": 8642,
      "Ġrestored": 8643,
      "ployment": 8644,
      "Ġintegrated": 8645,
      "ĠCapital": 8646,
      "Ġconnections": 8647,
      "ĠCornwall": 8648,
      "ĠHoward": 8649,
      "Ġencouraged": 8650,
      "Don": 8651,
      "VD": 8652,
      "ĠAston": 8653,
      "ĠTurn": 8654,
      "ĠExt": 8655,
      "Ġsuicide": 8656,
      "Ġmedals": 8657,
      "ĠBarn": 8658,
      "Ġdriven": 8659,
      "Ġhosts": 8660,
      "Ġboundary": 8661,
      "Ġcommissioned": 8662,
      "Ġdeployed": 8663,
      "ĠPhilippines": 8664,
      "ĠBenedict": 8665,
      "Nov": 8666,
      "po": 8667,
      "ĠAinu": 8668,
      "ĠBund": 8669,
      "ĠArn": 8670,
      "ussia": 8671,
      "Ġpublicly": 8672,
      "ĠMedic": 8673,
      "Ġmissiles": 8674,
      "Ġnarrative": 8675,
      "ĠBuddhism": 8676,
      "ĠIv": 8677,
      "ĠRav": 8678,
      "aby": 8679,
      "Ġdiscont": 8680,
      "ĠZh": 8681,
      "Ġreferring": 8682,
      "Ġcomputing": 8683,
      "Ġcomplexity": 8684,
      "ommod": 8685,
      "Ġalgorithms": 8686,
      "Ġchapter": 8687,
      "Cent": 8688,
      "Def": 8689,
      "aired": 8690,
      "bane": 8691,
      "sis": 8692,
      "sim": 8693,
      "Ð½": 8694,
      "Ġflying": 8695,
      "rior": 8696,
      "weight": 8697,
      "Ġpregn": 8698,
      "Ġrecre": 8699,
      "Ġaccum": 8700,
      "ĠAnderson": 8701,
      "ĠRecord": 8702,
      "ĠHistorical": 8703,
      "Ġexclusively": 8704,
      "Ġintellectual": 8705,
      "ĠVienna": 8706,
      "emetery": 8707,
      "Ġions": 8708,
      "star": 8709,
      "ĠBush": 8710,
      "cho": 8711,
      "iece": 8712,
      "uros": 8713,
      "Ġsupplies": 8714,
      "ĠChristopher": 8715,
      "Ġlaure": 8716,
      "ĠÃī": 8717,
      "Ġphilosophical": 8718,
      "Ġprobability": 8719,
      "Ġlosses": 8720,
      "Ġprovincial": 8721,
      "ĠRenaissance": 8722,
      "Bar": 8723,
      "La": 8724,
      "rele": 8725,
      "Ġnan": 8726,
      "ĠIb": 8727,
      "ĠFull": 8728,
      "achers": 8729,
      "Ġapproval": 8730,
      "ĠRomania": 8731,
      "Ġsymmet": 8732,
      "ĠAMD": 8733,
      "ĠTerritory": 8734,
      "Ġunusual": 8735,
      "Writ": 8736,
      "fact": 8737,
      "Ġahead": 8738,
      "Ġwings": 8739,
      "Ġbenz": 8740,
      "otional": 8741,
      "Ġunless": 8742,
      "endment": 8743,
      "Ġpartnership": 8744,
      "ĠArtic": 8745,
      "Ġtrained": 8746,
      "ĠIsa": 8747,
      "Ġshel": 8748,
      "Ġapproaches": 8749,
      "Ġfacilit": 8750,
      "Ġutil": 8751,
      "ĠEngineering": 8752,
      "ĠNevertheless": 8753,
      "ĠBermuda": 8754,
      "Br": 8755,
      "cia": 8756,
      "dimensional": 8757,
      "ĠTun": 8758,
      "olics": 8759,
      "ĠBh": 8760,
      "Ġthin": 8761,
      "ĠManu": 8762,
      "otte": 8763,
      "Ġregime": 8764,
      "ĠUSA": 8765,
      "inois": 8766,
      "Ġvolcan": 8767,
      "Ġlabour": 8768,
      "Ġsurrounded": 8769,
      "ĠDirect": 8770,
      "ĠFurthermore": 8771,
      "ĠConfederate": 8772,
      "Ġfranchise": 8773,
      "ding": 8774,
      "Ġmob": 8775,
      "eland": 8776,
      "iders": 8777,
      "ĠLo": 8778,
      "Ġsubur": 8779,
      "Ġdefine": 8780,
      "Ġexperiences": 8781,
      "Ġskills": 8782,
      "Ġvertical": 8783,
      "Ġfemales": 8784,
      "Ġeasy": 8785,
      "ĠTelevision": 8786,
      "Ġchairman": 8787,
      "?\"": 8788,
      "Bas": 8789,
      "zo": 8790,
      "Ġtet": 8791,
      "ĠGab": 8792,
      "ĠGrant": 8793,
      "antasy": 8794,
      "ĠKansas": 8795,
      "Ġscoring": 8796,
      "argo": 8797,
      "raining": 8798,
      "Ġclearly": 8799,
      "ĠMontgomery": 8800,
      "Black": 8801,
      "ĠKennedy": 8802,
      "Ġcircumstances": 8803,
      "Ġstreets": 8804,
      "ĠBavaria": 8805,
      "py": 8806,
      "Ġere": 8807,
      "ĠBT": 8808,
      "ĠHere": 8809,
      "iaceae": 8810,
      "ĠOrange": 8811,
      "Ġunlike": 8812,
      "Ġalliance": 8813,
      "ĠSpirit": 8814,
      "roscop": 8815,
      "Ġmoves": 8816,
      "ĠNeo": 8817,
      "Ġparticipate": 8818,
      "ĠCommunist": 8819,
      "ĠBronze": 8820,
      "First": 8821,
      "caster": 8822,
      "yah": 8823,
      "Ġmiles": 8824,
      "ados": 8825,
      "utor": 8826,
      "Ġstood": 8827,
      "Ġrational": 8828,
      "ĠKings": 8829,
      "Ġmeat": 8830,
      "ĠReform": 8831,
      "Ġamino": 8832,
      "annels": 8833,
      "ĠWhat": 8834,
      "Ġtelephone": 8835,
      "Ġemployment": 8836,
      "Ġdamaged": 8837,
      "ĠWayne": 8838,
      "Ġchoose": 8839,
      "Ġvessels": 8840,
      "Per": 8841,
      "chers": 8842,
      "Ġtas": 8843,
      "ori": 8844,
      "Ġwine": 8845,
      "race": 8846,
      "ĠHind": 8847,
      "ĠDisc": 8848,
      "Ġinterface": 8849,
      "Ġassign": 8850,
      "Ġinvited": 8851,
      "ĠIndex": 8852,
      "ĠRegiment": 8853,
      "iliar": 8854,
      "Ġlooking": 8855,
      "ĠAshoka": 8856,
      "ĠAffairs": 8857,
      "han": 8858,
      "Ġlot": 8859,
      "ĠEric": 8860,
      "assi": 8861,
      "Ġspeaking": 8862,
      "Ġsignals": 8863,
      "forced": 8864,
      "Ġprogramme": 8865,
      "Ġcommanded": 8866,
      "Ġcovering": 8867,
      "Ġvariables": 8868,
      "Music": 8869,
      "Ġnucleus": 8870,
      "ĠCPU": 8871,
      "Ġproportion": 8872,
      "Ġretirement": 8873,
      "lyn": 8874,
      "ĠLas": 8875,
      "ardo": 8876,
      "Ġabbre": 8877,
      "Ġouter": 8878,
      "Ġimpossible": 8879,
      "coming": 8880,
      "ĠWhit": 8881,
      "licts": 8882,
      "ĠLaure": 8883,
      "Ġrebu": 8884,
      "Ġloan": 8885,
      "Ġrotation": 8886,
      "Ġliberal": 8887,
      "Ġparliamentary": 8888,
      "ĠArgentina": 8889,
      "Hon": 8890,
      "No": 8891,
      "hr": 8892,
      "Ġbid": 8893,
      "Ġhole": 8894,
      "style": 8895,
      "ĠBald": 8896,
      "ĠIan": 8897,
      "ĠAmericas": 8898,
      "thetic": 8899,
      "chell": 8900,
      "Ġsatellite": 8901,
      "ĠSingapore": 8902,
      "ĠRhine": 8903,
      "Ġshooting": 8904,
      "Despite": 8905,
      "Ġregistered": 8906,
      "established": 8907,
      "izzard": 8908,
      "Ġphysicist": 8909,
      "ĠPir": 8910,
      "ĠRud": 8911,
      "Ġveter": 8912,
      "Ġsuitable": 8913,
      "Ġrecovery": 8914,
      "ĠGermanic": 8915,
      "Ġbankrupt": 8916,
      "Ġdiscussed": 8917,
      "ĠDiego": 8918,
      "AL": 8919,
      "bel": 8920,
      "Ġsamples": 8921,
      "ĠAur": 8922,
      "ouri": 8923,
      "olve": 8924,
      "ĠHug": 8925,
      "acle": 8926,
      "merce": 8927,
      "Ġapost": 8928,
      "Ġcurve": 8929,
      "Ġdescribing": 8930,
      "lication": 8931,
      "ĠAgain": 8932,
      "Ġstructural": 8933,
      "Ġfrequent": 8934,
      "Ġconcerning": 8935,
      "Ġspectrum": 8936,
      "ĠPeninsula": 8937,
      "Ġcasual": 8938,
      "Ġmanufacturers": 8939,
      "Ġenjoyed": 8940,
      "ĠBaltimore": 8941,
      "MS": 8942,
      "uable": 8943,
      "Ġtell": 8944,
      "eded": 8945,
      "Ġwounded": 8946,
      "ĠHas": 8947,
      "ĠLl": 8948,
      "ĠEug": 8949,
      "ĠDead": 8950,
      "Ġmayor": 8951,
      "Ġbuy": 8952,
      "ĠNova": 8953,
      "Ġnorthwest": 8954,
      "Ġessay": 8955,
      "Ġsacrif": 8956,
      "Ġbringing": 8957,
      "Over": 8958,
      "fit": 8959,
      "rep": 8960,
      "Ġsight": 8961,
      "orf": 8962,
      "Ġdiver": 8963,
      "osl": 8964,
      "ĠLiter": 8965,
      "ĠWolf": 8966,
      "Ġattracted": 8967,
      "Ġtempor": 8968,
      "Ġwider": 8969,
      "Ġillness": 8970,
      "ĠBuilding": 8971,
      "Ġpalace": 8972,
      "ĠSerbian": 8973,
      "ĠIndependence": 8974,
      "ĠHouston": 8975,
      "Co": 8976,
      "feld": 8977,
      "ÅĤ": 8978,
      "Ġaired": 8979,
      "Ġbanned": 8980,
      "roke": 8981,
      "olith": 8982,
      "Ġthing": 8983,
      "ĠMars": 8984,
      "avia": 8985,
      "quir": 8986,
      "ĠEnvironment": 8987,
      "ĠCommander": 8988,
      "ĠBeat": 8989,
      "Ġbusinesses": 8990,
      "Ġscientist": 8991,
      "Ġranges": 8992,
      "uerto": 8993,
      "hand": 8994,
      "ativity": 8995,
      "itis": 8996,
      "itime": 8997,
      "ĠLate": 8998,
      "ĠLank": 8999,
      "Ġproducers": 9000,
      "Ġsignificance": 9001,
      "Ġadmitted": 9002,
      "Ġdependent": 9003,
      "ĠAssyrian": 9004,
      "ĠPierre": 9005,
      "Back": 9006,
      "track": 9007,
      "onium": 9008,
      "ĠTar": 9009,
      "ĠBry": 9010,
      "ithuan": 9011,
      "Ġhem": 9012,
      "ĠOk": 9013,
      "Ġplain": 9014,
      "Ġdesire": 9015,
      "gling": 9016,
      "Ġelse": 9017,
      "Ġspecialized": 9018,
      "compass": 9019,
      "ĠPublishing": 9020,
      "Par": 9021,
      "Ġbrew": 9022,
      "ationally": 9023,
      "ĠStory": 9024,
      "ustion": 9025,
      "ĠWarhol": 9026,
      "ographs": 9027,
      "Ġanimated": 9028,
      "Art": 9029,
      "Ġordinary": 9030,
      "Ġapparently": 9031,
      "Ġopponents": 9032,
      "IN": 9033,
      "Public": 9034,
      "ĠTol": 9035,
      "ĠTam": 9036,
      "Ġnaturally": 9037,
      "ching": 9038,
      "ĠMission": 9039,
      "otype": 9040,
      "ĠLin": 9041,
      "ĠEston": 9042,
      "odyn": 9043,
      "ocation": 9044,
      "elsewhere": 9045,
      "elfast": 9046,
      "Ġrestricted": 9047,
      "ĠMedical": 9048,
      "ĠMcG": 9049,
      "Ġcopyright": 9050,
      "Ġcalcium": 9051,
      "Bur": 9052,
      "Econom": 9053,
      "ystem": 9054,
      "itism": 9055,
      "Ġbicy": 9056,
      "Ġhorn": 9057,
      "Ġrevenue": 9058,
      "Ġstability": 9059,
      "ĠNow": 9060,
      "Ġsugar": 9061,
      "ĠUt": 9062,
      "Ġjazz": 9063,
      "Ġlegacy": 9064,
      "Ġports": 9065,
      "Ġrocket": 9066,
      "Ġcoup": 9067,
      "Ġentertainment": 9068,
      "Ġdiplomatic": 9069,
      "Ġillegal": 9070,
      "Comm": 9071,
      "uct": 9072,
      "Ġbones": 9073,
      "Ġministers": 9074,
      "ĠAthlet": 9075,
      "ĠBris": 9076,
      "ĠBomb": 9077,
      "ivia": 9078,
      "oto": 9079,
      "umer": 9080,
      "ĠGil": 9081,
      "ĠVik": 9082,
      "ĠUnlike": 9083,
      "Ġresidence": 9084,
      "Ġphosph": 9085,
      "ĠBasel": 9086,
      "ĠQuebec": 9087,
      "ĠLawrence": 9088,
      "Ġcommunications": 9089,
      "Ġnitrogen": 9090,
      "Ġhorizont": 9091,
      "Ġcommemor": 9092,
      "vation": 9093,
      "Ġwatch": 9094,
      "ĠCle": 9095,
      "ĠFM": 9096,
      "ĠGarden": 9097,
      "ĠLam": 9098,
      "ĠKim": 9099,
      "Ġshares": 9100,
      "Ġaccommod": 9101,
      "Ġreprodu": 9102,
      "Ġclaiming": 9103,
      "Ġrender": 9104,
      "ĠRegional": 9105,
      "evin": 9106,
      "Ġcampaigns": 9107,
[...]
